BC7D477E
3E65463E
BE09E6A0
BE342D13
BEECB756
3E4CB6C6
3E058C22
BF6A25CF
3E5427C5
3EB6266F
BCA0CE92
BF0AF7F8
3E9D539C
3E7B4F21
BF1F7ADD
3E725728
BEC22070
3E4F9843
BED4BB35
3EA843BF
3E881AC9
BF03DC06
BF48EB7E
3E903E25
3E0BF0A9
BE8360AD
BF8A1BE9
BF4F6F7C
3B20F1A8
BE037035
BEE2BBBA
3DCC6B6D
BF84A835
3E72BB2D
3E881538
3EA0C1D4
3ADBDB88
3E23B594
BEE8ACEB
3DE1A8AF
3E20FBCC
3E50DCA9
3E2323EA
BD500081
BF1DD6CD
3EAE7DF8
3EE15B91
BEE28136
BE8CC962
3E05AC42
3EA95508
BEBC0E9F
BF2E63B8
3E7C0357
BF0323A5
BF3382A1
3E453EE2
3EFBEC0C
BDE1F727
3DCFA65F
BE43D2AE
BF4FD050
3DB49C07
BF611021
3E63FA53
3E681EBC
3DC67620
3D398156
BF402D13
3EE19F74
BDC95022
BE450986
BED69634
3D98BC0B
BEED4F62
BEE8CD98
BECD88F0
3E230F6C
BD455C2D
BF26DC8A
BF08598D
3F17FC42
3D70E19D
BF83F8E1
BF123030
3E3FD19F
BDB7FBFF
BF081160
3E9E3510
BDBB5571
3E1AB939
BEA308D7
3E824A3A
3F18E4F7
3E0F17EC
BE73AF66
BE057497
3E1F58EC
BF36B262
3E71D46D
BF11D9D6
BF32F764
3DFE8F02
3D30228D
3C981880
3EA4E371
BF126508
BE3A369B
3E0F9585
3E237138
BEC7AA3F
BF3499DE
3E8E5B3A
BF2D5B77
BE815199
3E4C1E06
3E23D0FC
3F2F3EA2
3E3B0CB2
3E88266A
BF5A60CF
BE3CE3E5
BE6C6784
BF3EE0A3
BEE0A511
BF5E9094
BF2FA2F4
3F0282EC
BEE93282
BF156B84
3DC83AE3
3EF2501C
BF43C3B0
3E38EC4E
BF44C96E
BF04CDE1
3E3916FA
3E89EF7D
3D8DBC9D
3E19AA26
BEDC4036
3E2474C6
3DC2D31C
BF4B93BE
3F07228E
3E77D578
3DC03115
BF3388AE
BF74762F
3E8185C6
3E6828DC
3E5BE74B
3EB083A3
3E51C58D
3E0CEDE4
3D888405
3E4EE4FE
BC8785D1
BD467E14
BDB3AFE7
BC30A940
BE2AA552
BEF0347A
3E162299
BE24B577
3E073820
BD4F9FBB
BEE2BC75
3D48A9CD
BF15A496
3E871D68
3E42BFDA
3D9078B9
BEAC78E3
BED23966
3E25B115
BEC8FA7A
3E44AC24
3E34EC5C
3E4E0C49
3E9E95CC
3E7B7665
BED42968
BE9A3D3B
3EC377FB
3E68B076
BEA827D7
3E6BC1B4
3DDB3BD8
BE9DF911
3EAF02E3
BF17A00B
3E103C93
3E048A4B
3DCE47EB
BE65C4CE
3D7D148E
3E9DB20C
3CA5E6DA
BE27DE35
BF12771E
3D87414A
3E5BF3CE
BF58517B
BEDCDF9A
3E83BA9A
BF056064
3C7F2936
BF0FD965
3D402514
BD9B0DF8
3E4C1C07
3E7B870C
3E3E21E9
3EB0BD2A
BEFF6A39
BF2099E9
BF3C433B
3ED1ABD5
3E354BE6
3DEF10BB
3E812748
3E821425
BF85F424
BEE0DD9F
BF0C7B7B
BF0AAA58
3EA11797
BF20E4F1
3E275CBE
BF1CFED4
3E15625D
BF3DA85F
3ECF773D
3ED4DAA5
BF544E35
BF311937
BC7A0433
3EC0EC3D
3E2434D8
BF26C5E7
3E6FE84A
3EEC3881
BE51F279
3E3018B9
3E6351E9
BF27F72F
BE9D65D9
3E49E8EC
3E7D29A8
3E67DA7A
3E78570A
BF64AFA6
BC8C5D61
BF1FA01F
3E3C2DFB
