BF1E5CF1
00000000
BF4B2FEE
00000000
BEB1457E
00000000
BEAC85D8
00000000
BF0E4473
00000000
3E61D57A
00000000
BD8108FE
00000000
3E13F3D9
00000000
3D965138
00000000
BE6F84A9
00000000
BE7DB716
00000000
3F169711
00000000
BF0AF35B
00000000
3E13D02E
00000000
3D893998
00000000
3CA8342C
00000000
