BE86A37A
BF273663
3C4F7DED
BCAC5BE4
3EF86D29
3E95AD98
3DBB5DCC
3D5DFBF4
3E052DD6
3CA5CBFD
3EA3AB54
3DCB5AEE
BE2921D8
BD85AD16
BE27397C
3E564E86
BD9DCF07
3D839136
3A15ABCE
BE9AA974
BEA21969
BE59FCE6
3ACDFE25
BD2FA63E
BD56F527
BD2A6CA6
BD331DC2
3C319132
BE3F544E
BD8679F5
3E094CDF
BE785B25
