3E6CFA97
3EA65A74
3EC16AF5
3EAFD1E6
BE1460AE
3E363361
BEA7D73A
BE700798
BE3AE6C4
3DDBB63C
3DCA46CC
BD37E150
BCDA26B8
3EC270CD
3D879B91
3E77A24F
3EB464FB
BD88A1F8
3E716E5E
BD818163
3E82F64D
3C6BFDE0
BE2C0DF9
BEA60933
3E3483A0
3E347575
BDA8FB9F
3D884A47
BE96A6A7
BEA6F52D
BD27264D
BDC9DBF3
3C294FDB
BE7CC803
3C606815
BE97479F
BD013B8F
B9639A9A
BD972915
BF275C56
3E71B3F9
3E90B5D5
BF166A82
BDBB6921
BE289AEA
3DC28E2A
3E247BEC
BEA0A38A
3E1DB637
3F16880D
3EDD0FD1
BE79A1E0
BEDA6374
BDE9F6E8
BE9AFFC8
3E8B0190
BDBB2DBF
BE9A75E4
BEC0553F
3D8BD7F0
3EFFFF16
3DE4258B
BE57B03F
BDD799D4
3D910DFA
BE77261E
BE3FA79A
BDBD90C3
BE905118
BE4068E4
3D5FC133
BDFDEDD8
BBAAF5A2
BF0FFA5C
3E164480
BEA63078
3E37370C
BEB329DB
BECAD5CF
BE09F100
BE89E7C6
BDA6CB30
3F22AE2D
3E93D9EF
3EA72F61
3E3EB67F
BEB38425
3DFB397B
BD3635CF
BF1C0911
3EF8014D
3E8BC7E3
3E8AA730
3E1B1EF2
3ED44DB4
BE83B877
BD8619A0
3F12940C
BC725674
3D453940
3F20C20C
BE8F8372
3E1D36EB
BD441F8F
3DE5DBA2
BEDCDC5C
BE9A140D
3E972F39
BE48EED7
3DD18C69
3E0CD6C0
3EA3D877
BDD8230E
BDF0F940
3E8C1828
3F04E018
3E4DD7AD
BE51B6AF
BE3E4352
3E5D53BD
BD967D1F
BD26D349
BE8DF390
3B5C0FB6
BE62FAE8
BEAB5CD7
3CD51BF1
BE172992
