3E92BF15
3E834F01
BE7395FD
BF20E881
3E895E64
BCBFFFB5
3E8DAA71
BEEA1BFC
3E8F5EEF
BE7B3BDF
3E65CB62
BDE08D97
BECD9C39
BF0BF20D
BE58D3BD
BE530F5C
BF256A2C
3D36E041
BCF74F47
BE9B0E6E
3F06D034
3E394516
3E4DA4F5
3E3471E6
3E33FC58
3D69AF89
BC8BC68D
3E0DBEBA
3E40194E
3E3C13CC
3EAFE805
BDD65294
