BE986374
3E04D607
BE0D481D
3E631245
3E9344FB
BEC842D5
3DB0D488
3E77B8F3
BE9057E7
BDBD310A
BC62F42C
3EAE27B3
3E857C86
BF74C591
BCBF6662
3E0D2998
3E45E372
3EA68CA6
3F27D2FA
BECE837E
BED53F88
BD564DBD
BED068E5
3DEC7455
3E8DF782
3EBF2D00
BDF1B454
3EDAEE83
3AD24760
BE9C4200
BD2A60CC
3D82BCBF
BE123FC9
BDCEA1FF
BD64CCA1
3DCDB5F5
BD900F52
BD55EC2B
BE53F79B
3E337F2D
3E35B1E7
3F179B90
3E9EB313
3EB483CC
BD220CAD
BE2CA15C
BE1C2383
3E419044
BE0CBEFB
BE4E226F
BE6E891C
3EA0E3D4
BEB30DC3
3DC061D9
3D09D73A
3D2C529C
3CDF6977
3F5B124D
3DEEE05D
BEA0F33E
BDB51C23
BE41B5AD
3EC14DD2
BD8DD86E
BEB10CC2
3E7E85D5
BD6D096B
BE5751DE
3D941AB8
3E30E602
BE4BF664
3EA8629F
3EF2FBA8
BE86E95A
3E0A4FE3
3D60FC6F
BCE7C160
BE560F38
3E4412AD
3F20FE36
BE90B7A0
3E29F77D
BE3E1373
3CFC78C2
BE31D081
BEF51CE7
BE7AF8FD
3F23382D
BE5A994F
BDB07714
BE8F220D
3B554211
3ED3C60F
3EBB7824
BC50DAEF
BE86FEEB
BDDF753B
BEF47C9C
BF2786A7
3DB67A3F
3D0F6899
3D13B7DE
BE1B5686
BD87AB5B
BE15640B
BD7D27A6
BEC3B102
3E131091
3DCB9CB7
BE45DD70
BE42723D
3EA4966B
3EAD9BAF
BC77B46D
3E733245
BE542399
BCEC7D4C
3D4C050C
3E1D76A5
BE78B2F1
3E7F29DB
BE9F135D
3E348D17
3E0DEF08
BED4036A
BEF0ACAF
BE458EF5
3E11A4F8
3DA2A465
3F19EFCA
3E358640
3ECA69BA
BED668CB
BED5724E
BE39C7A0
BE1317ED
3E533F7F
3D9E77A9
BDB554CD
BDF86ADA
BEACAA4C
3D506D94
BD260994
3E5C4E9E
3CB1B290
3E2BA4BA
3E043878
3E289E4D
BE553AC2
3D2F0216
BEE4B581
3EA1A668
3E4C959F
3EA40A5B
BD2FE21E
3F36ABA3
3E77033D
3E9BE0B9
3F1210EE
3CC99E44
BF02A535
BE9B8A91
BE13FC23
3D861F87
BE36EFB7
3E469D40
3EC4B5EE
3C025194
3E7F8B4E
3E280134
3D519A14
3E40232A
BF1058CD
3E5DE3A1
3EA67360
BDD60E5E
3DA232A6
3E8480AC
BDEDA25A
BE8F0A92
BE433883
3CF197F3
3AF529E3
BE4FA75C
BE89C04F
BE3446F1
BDDF01E3
BDB23C0C
3E886E4F
3EAB9FF9
BEBACDB4
BDDB692C
3C07AED6
BE0C4013
BF00A764
3E76AAF6
3D7EF9A8
BF146658
3EB13C7A
3C220B99
BDAF43F4
3EE155B8
BE88D17F
3EB28664
3E8E281F
3BFDB68F
BEF7F07A
3ED283EE
3F4D943F
BD2B60E2
BC9C6B25
BF013C87
3DEB9AC5
BEC95958
BE157E7D
3E81A02D
BE32C55A
BE7C924F
3DFAC8BE
3E978F8E
3E044FBA
BE7FFABD
3E47BEFC
BD67F603
BCFD1FEC
BDA6E7AC
3E85D07A
3CBED706
3D5584CD
BE9E5EBA
3D139127
BDECA682
3E8FF41D
3EDC57A8
BEE58FFC
BEB20202
3E2AE695
BE9BEF12
BEAD8E53
3E455128
BDFCE157
BE561DA8
BEE0280D
BE86336B
3E811EC0
3E318A43
BD95B8F4
3E8E18AC
3D8C74EA
BE8754B3
3E31AF4F
BDDE840A
BE0C028A
3ECAC080
BDDB01C6
BE664CF3
BEFF1121
BEADFFB6
3E995A3B
3C9943E4
3EAE37F9
3E65CD8D
BE01836F
BE2CC393
BD9B3537
3E5FCC3C
BE4FBE8B
3EB2285A
3A50D647
BE869D7E
BC557857
BEB24AA0
BDC3AADA
BDFFE04C
3E518B77
3E626376
BD1F0958
3ECA98A2
3EAB2F09
3E934E7A
3DC50572
BC914A40
3E2F5384
3F01085E
BE731AC2
BE874F76
BCDA2972
BD6F100E
BEE5A27A
3A8F1C12
BDB71388
3F1CE30C
3F431899
3E45E0F6
B9261D8C
BE349039
3DA690F2
3CBA9B11
BD37A7D2
3EF44E70
3C38E0FD
BC872726
3EB1E03A
BDC27784
3EEDB0A9
BD9B8E97
BDA9EA67
BEF5635E
3E003DEA
3EE51D80
BEF20E9E
3E013380
BE781005
BE8D03FC
BE49E419
BDBEAE2D
BE371C30
BE920F2D
3E356041
BC950484
BE1F5CE1
BF5A9E14
BCE650AC
BE11E5D1
3ECFE3FC
BE00F088
BE738356
BE8E3723
BE00200A
BC2D82E5
BE2157F8
BE6BC447
3EE5A653
BE8924DE
3ECD7502
BE4362D6
BEAB480C
BDA6DA4E
3E70B0D8
3E80F2FD
BE6A737C
3EF9344A
3A873FD0
3E5446BF
BE8EF5B2
BDFB9E9C
3E92C7CF
3F2C37CF
3EA8C69B
3CF3506A
3CBC9E31
BE3DAE22
3D8114C0
3E7FECC5
BEC34E6C
3E6ED392
3DB2AD78
BB85A2AC
BE49D85B
BF0D472B
3E1A19C8
3D6D29AC
3ECA8087
3E307DF1
3DEF17FE
BE30AF63
BCB28045
3DAB737D
BEB71BCB
BCCE3E21
BE584493
BED1447D
3DECB437
BC5C09CC
3D76EB47
3C91DF56
3A2BF96E
3EF6C597
3D91C0B1
BDBA44F7
BE4ACAA0
3EC7EC4A
3D09AB7A
BE9419E5
3F00C6A4
3E3C6C13
BE820F0C
BE5C52D3
3D81D942
3E43E52E
3CD36EF8
BEDD6D31
3DEF132B
BCFE0AE3
3E879B9F
BED403EB
BF1BCCA3
3E206947
BEDC841D
BE1B4D29
BDB96FCA
3CE05F2B
3D4F810F
3DEF7777
3F097828
3E6CFCEB
BE1DCBA9
3EEDF3D0
3E991C12
BE1E22EE
3EA5948A
3ED8F7FF
BEC5CC47
3ED56A22
3E95807F
3E91CBB6
3EC03DA8
BE88809B
3E4AE1B6
BE70B7DC
BF056510
3DF53FF6
3C5FAEBC
3E82885D
3EBBCED2
BE1476F7
3DC96524
BE1CF030
BEEB318C
BE03733E
3E198DE5
BDE164DA
BEEC51BF
3E7BFAE9
3D240927
BD246629
3D4161F5
BDEB7C32
BE4094A6
BE2EF354
BE1A8410
3E2C16F3
BEC7F3C6
3C137761
3EA80097
BE393859
3DFDF171
BD34B9A9
3E8DD48B
3DD767D5
BD693533
BE9A7F7D
BEEC4E16
3E33CF96
BEAF36E1
BEE87554
BE70F912
3E9282C5
BF03259A
3E5BA3F9
3E5288C5
3F010631
BED8EF4C
3DA82372
BE16B14C
BDBED3E4
3D92F484
BEAB2284
BD826ABA
BF2427D5
BE80E18E
3BE27D4E
3DB91FD2
3E5B32F5
BE1B6DD9
3E9A3038
3DC3050F
BC870812
3DC60895
BE78C109
3E08A39F
BDF3D5CF
BDCC4203
3D8EB838
BF4751BB
3DA1DC7A
3E040902
3E189CAC
BED4C13D
BE895538
BE8B53D2
BDA09CF7
3E21EE38
3F3CC7EE
3CBF5B0F
3E851C64
BDF6385F
3D7A6B66
3E21E3F5
3E664363
BE21289F
3E316D56
BE314105
3C411950
3C78F616
3F097244
3C8239D7
3E10478B
BC2DF1A0
BF3289CA
BF0D4EE7
BDBA9158
3F0B81D1
3D7F88A7
BF002AF5
BDA0C6F1
3D487AE6
BEAC1DDB
3DB047F1
3DBF9052
BDF94FE8
3E1D793D
3E29299E
BF137B99
3EB53D08
BDF5079B
3D9522BE
3E8A506C
BD832052
BDD7E1A5
BEA91307
BE8B82B7
3E83548B
BF0525C8
3E872B73
3E345BE1
3E4116E5
BEC5DFF6
3E61A837
3D3333BF
3E3D78A5
BE832AC1
BE75E378
3E959B8E
BE539B96
3D2B9C0D
3DEB0E12
BEC6FE05
3DD60BFA
BD2B7F3A
BEE37A1C
3AD307A4
3EABA54B
BEBFCE14
3E443895
BEC1C301
3D847633
BF0C5494
3E34848A
3E8860A6
3D8A6732
3E20D987
BE86070E
3E277E47
3D9713AC
BDCD0A4D
3E8E975A
BE22A736
3E06A2B9
BEC74833
BECB28C5
BDEB2845
3E8CE0D5
BEBB23B5
3D5085EF
BE2A61D4
BD8BCC70
3DEE85E8
3D81E594
BE68039A
3E914C80
3D86EB47
3E17B448
3DA691F3
3B7C1EF5
3E2DF3B5
3E4976EA
3E9E38E4
3D9C90DA
BCFE43D3
3E70FC41
BE1C74F2
BD5FA06C
3E1ACEA0
3E02CED3
BE319D1D
BEC09ABB
3DE2777C
3EE80E5B
BF0570B3
3EA9D4A2
3C02EF28
3F1129EE
BE67FD20
3E4922CB
BE527277
BDFB2FEC
3E6D8160
BE7DC636
3E14F96C
BEE833B6
3E770FDE
BC070400
BEC7F07C
3DCD7B55
BE04AB10
3F2B5860
BCCDC713
BE86405E
BE581E0F
BEAD00C1
BE5FB441
3E310D32
3EBFA122
3C85AF1C
3F0F142A
BF58ED73
3E6BA249
BE8D25DA
BE270F64
3DE67FBE
BE85895D
3D03C6D4
BD9C0CC9
3E21DE64
BE90A0F3
BDCE1B7C
3E9AE6C2
BEA57640
BE938524
3E154553
3E93B0B7
3DF46F6A
3EB77C31
BEA8C7A3
3DF4C28D
3E1B71F4
3EF30AC8
3E3DD179
BE0C427E
3DBCA9BB
BE5700BA
3E3914A3
3E889B51
3CB2D906
BC4EC64C
BE2516F9
BE153D04
3CF2D81A
3D7DC898
3EDE7A7B
3BEE7366
3E890536
3E334071
BF02F173
BD606409
3E822862
3D13846C
3E24EC9B
BCD3A6E6
BE16B3DF
BDAC0A32
BD45F309
BDB7077D
BE776B8D
BE932552
3D920428
BCA6B2B2
BE1ED050
BCAE7AC2
BE935E02
BE9FF64A
3DDA3CBE
3DE8E3B1
BDC5ECF8
3EA73EF1
BED0D483
3E25736B
BDD7962D
BF029F95
3EE646F6
3F1D6E19
BE3331EE
BD6219E6
BEAC8B67
BE0341A3
3DC84018
BDC78324
3E884E5C
3D920A05
3E644F8F
3C9B6EBC
3DBFB23A
3EBEB245
BEE2AEF1
3EABEB54
BF04A967
BE2B7A7F
BE17DB67
BE055274
3E5168F3
3EE5810C
BE0E8E47
BE7A8203
3D204776
3DC98E0D
3E5B24CC
3C9C28BB
3E896F17
3E6E63C4
BF427B13
3E49FE73
BEE04815
BEAE40D6
BECE098F
BE4506A9
BEA295D5
3E005F3C
3CA352F1
BED0761A
BE9FCB4F
3E467DBF
3E8EA3B5
BD3938C6
3E3879CA
BE8B7CCA
BF0A1E36
3E0FA5F0
3D3A8689
3DC11456
BF3317E3
BD886F42
3E61E13E
BD5FD634
3E5817B7
BD9A9965
3E2C5A60
BEEACA63
3DA613DE
BD928A1E
BE158589
BE7D107B
3EBA04A1
3D5DA79B
BDA14F06
BEC2F919
BE87BE0F
3EB40B32
BD787227
3E61E215
3E5C8820
3EA45965
BE4C473C
BF240A83
BE39F77A
3E8953C8
BE947A69
3DE631A5
BCE49464
BE7FF090
3EA77DA4
3ECCFD1F
3E5E32B5
BF18DBBD
BF540201
3CEE2C1D
3D18652F
BE7A5C5B
3DD516A5
BEAA8971
3EB0502C
BE4C33A8
3E5355F2
3E823C26
3F08D0D3
BED01333
3DAF4DD9
3EDD760C
3C5EA649
3E16DD6C
BEDC3638
3DEA2CBA
BF01AF08
BDB0E665
3F2F9146
3EEC567F
3C621284
3E2BB2A1
BE8DA70B
3E1C180B
3EBF6979
3DC6B971
3E18D722
BE3C4341
3C242CF0
3C56D5DA
3D1720A1
3CBEE533
3ED2D09A
3F0D6531
BD169F16
BE716BD6
3E978898
3E02C752
BEFF8EE6
3DB3ACAB
3B74F7E4
BE0C74CA
BEEA19C4
BD678659
BEA34FAB
3D259759
BDCFD396
BE93CFB8
3E8F93D6
BD4CD31D
3E54441E
3F0DC1B9
3B2418F9
3D8FD1C5
BE4F2264
3E17B1A7
3E398869
BE8F4D70
3EC32486
BE7E875E
3D2DE8F1
BE53283A
3E33505B
BE897CC7
3D93AF80
3ED635C2
BE8ECF4D
BE881F24
3F0E1CEE
3F08EEB8
BDB67CF0
3DBF3362
BDA3C21A
BDF64C3C
3C09FAEB
3E9C65DA
BD5B360F
BD51D817
3E846FDC
3E94B6E5
3EB152C7
3E844B2F
3D8DC9BD
3EBF477F
3E19B606
3F0DC651
BD9062D0
3E27DFEC
BDEB37CA
BDE16CFD
3EC0C6B9
BED2F6B0
BE96371E
3EA4A059
BEA188C0
BEC074FC
3E8A00FD
BEDA2F0B
3EA6B922
BEAF9903
BE2B6D64
BE4EE932
BEC856EE
3E5596E2
BDF8F9BB
3C236103
3CF1DF81
BE1044A0
3EE72C02
BE85D3F5
3EB9C3D3
BECBE07E
3E847A37
3DE9D845
BEA4F453
3E69ABE7
3E206B7B
BCC84C70
BF2981BD
BD41ABE2
BDAA481B
BE618050
3CE0BE41
BE7E6CCC
3DE26794
BE517D5F
3DC79A48
BEA3A252
BE706EB5
3D603FDC
BDBBC9D0
3F2C681C
BF07D5CE
BDE039BD
BE06374D
3E4B3A1F
BF452966
3E34401E
3E75D166
BDB2FE86
3D1297D5
BE35DF0A
BECCC9A3
3E767EE2
BE0ADA4C
BDEE73A7
BE8FCD4C
3EE34CD0
3E218E24
BE351A80
3E8D4EE0
BEBFAA8D
BC16403E
3E85A509
3F1225ED
3E1A20B9
3E1E3BF6
3D2F9A62
3EDFC73E
3E5688DE
3EA9AD84
3F409A3D
3E840132
3DDB6775
BED04073
BC5D3E75
3E00906C
3DB0E1E8
BEA08B00
3EBA5692
3E4D7260
3E1118B6
BE2E9F7D
3D3560AD
3CF6033C
BE92C8DD
BEBCC1EB
3D9E314B
3EBB8A2B
3DEB7132
BE819349
BE2DFCDD
BEE05874
BE2D2109
3EAF5520
BD91FCED
3D9C76DF
3B991E4A
BD8580AE
3E80AB8E
BEA3871F
3E9C976A
3F0E3D60
BE8B513B
3E9BCE3C
BF48FDD0
BE59AE17
BC93A492
BDC815E2
3DC2473F
BF006BE2
3DDF0FD6
3E9A8CB1
3BFEC5EE
3E3D8636
3F1E00AE
BC9A9EBD
BF14EFAA
BE2F439D
3D1FBE1C
BDFCA04C
BEBABC0A
3E8A5738
BD89437E
BE5A197F
BDF8CF19
BEAE5043
BE76D022
BDBCED84
BD1C096E
3DEC39CA
BE7B4F0E
3E0764D2
BDD045CA
3E2D34C0
BEB4A950
3DB0D4B4
BED1D197
3E5157B2
BEA91573
3E2C6F5A
3E88DC0E
3EFE8037
3EA158EB
3E8D6C63
BE2DA0DA
BECC5ACD
BE9A3274
3F329C00
BD86E0A9
3EC29E72
BE804700
3D115CE5
3DFB07B2
3EB4541E
3C34898A
3EB3C2AF
BDB6F595
BDDD997B
3E725807
3CC1CE41
3D7B8981
BEC354DF
3D34D4C4
3F0241FC
BE135252
3DD29327
BE559CE1
3E37CB6E
3F0AE013
3D9F3730
3CA3939E
BD1DD117
BEB1AB50
3EC59B0B
3BA8B4D5
BE23640B
BE5E6B92
3DB615B0
3E402608
3E4158F0
BE171C40
3CFA4BA1
BD7B2CBC
BE81C5C4
BF03921B
3DEF9DE7
3EB3149E
3E6DD8DA
3DC8B6FE
3E815A9A
BECFE9AB
3E85A102
3DE2F39C
BE3C8C56
3F2F7FE4
3B8B7930
BCFA1E64
BE8E8F4B
BEFA4BA1
3ECE0BF9
3F446A65
BF2C0961
BD26130C
3DF07AD5
3DE10B3F
3CC352B0
3CD2AF0F
BE38BBE6
BDB05D67
BEBD2AEF
BDF071CF
BDE5A3E0
3F0A1A0C
BD8F1940
3E9027D6
3BD83A69
BE207685
3F1BB791
3CD8E970
3EB2FF7B
3F02E9F9
3E2952DE
3E3C49B5
3EA2ED1D
3E85F6CE
3E9E7066
3E27B6E6
3E05B42B
BE5FC2D1
BD9A3667
BE5C8F22
BE174350
BE601DA4
BEA6731A
BE8C506A
BEBE44A2
3E498083
3EE6C3A6
3EC738A3
BDFA92BB
3EE6E85B
BE358706
BEB21A59
3E5C5401
3D4604A1
BEAA8B9B
BEAF3581
3EE88A6B
BEB20AAB
BE670A95
3EE5F8EF
BD370497
3DBAFB80
3F2CE864
BF29A930
3E641D71
3E5EE93A
BC0CCEFB
3EA3F88A
BE85134C
3E16A41F
3EA32E80
3D3A89FF
3E41A2F2
BD7E1D98
BE6B7FB5
BDDB525C
BE712A6B
3EEF8FA9
BE2CA635
3DC9E8AF
BE6D9FF6
BCB5626D
BD4D3593
BD87C41F
BDC34519
3E46EE32
3EA6CD29
BEE45E30
BE7EDE58
3EBB4A41
BEA71749
3D88FE5E
BE1FF552
BE18A842
3E2E8A6B
3E700F26
BE51902C
BDE5DB3A
3E4BF99C
3DEC7DFD
BE3BF76F
3DAAA7C9
BEB1B667
BE88D3E3
3D636AF4
BE4E9C65
BED8BE5C
BE076BA2
BED7C7E6
3DF8813E
BE24D18E
3ED8BB2F
3D22AB59
3E11B5CF
BD81BCC5
BEBEA181
BE5A8E6C
BED143E2
BE104226
3E891323
BE04D674
BF2208DD
BF3C0990
BDB6E5A5
BBD8F6D2
3F11A8E5
3D4212EA
3DA38AAB
BE58E8EE
3E92B361
BD0CB558
3E47482A
3EE22BFE
BE75595C
BEAFC909
BEEC7C23
3E3A0960
BE9E86EA
3E270095
3E2164C2
3D1E00EF
BE8A553F
BD582830
3E8540B2
3E862165
3B700185
BE6D1498
3DDB0CB1
3DA6C4C6
BE2D3FDB
BE9ED3C6
3EA4AD31
BE9883AB
BF008690
BE487934
BEA027A2
BE642795
BD94E94C
3D092C4C
BEF5E432
3E7EF8D9
3D8EFFE7
3E1DB565
BAD7233D
3EBA8753
BE5B9D1F
BD87496F
3E81F922
BED06676
BEAA363E
3E8AD3FE
3EF8F109
3F47E765
BEE8DA7C
3E9C5BFE
3E32D6F1
3E98ED2B
3EEEEEA6
3DE1F383
3E960AAC
3E3AB99D
3BAF8EA3
3E4AF231
BEA3D0A1
3EC95578
3EA4DE8C
BE144EFF
BE0AA5F2
BEE03DA3
BDB7679E
3EC9CD03
3E55BC80
3E63D6C1
3DFFF632
BEBFCDCF
BE7A42BF
BE3D0933
3DB199B7
3E87BF58
3D6DB684
3EFAF3ED
3DC04591
BE9A2A01
BEC870E6
BE7F6C0F
3E3D22CA
BED2100B
3F057FD4
3D9E33F4
BC30DD63
BC3445C2
3D028DFA
3D90BAF7
BC920093
3E3FF9C9
BE4D39F6
3E117BEC
BF2B1450
3DFAA4DC
3E9DFAB8
3E814115
3E2533CB
BF1EC73E
3D48CDC7
3E0C3732
3EB38F3A
BB98DFA0
3E075C77
BEA3D241
3E56FA20
3E545947
BE2F8195
3E57AE2F
BE157C27
BCE4C770
BEBCA21D
BED32AD7
BED05948
3E945B6F
BD75BAE0
BCEB244B
3EA8492C
3C98CC45
3D76A37B
3DC85047
BE1C85CF
BF9B36C7
3E71280D
3ED4BE04
BE8EF497
3E61DC61
3E06C391
BE85DE73
3EE72313
3C42C73A
BDD18EBD
3E25A27A
3E10A502
3F08B3BE
BE1F16D0
BEDB269D
3E451E21
BE87A8EE
3E9513A1
BE2F4DBC
3E0B03CE
3EB3A111
3DCB7BA0
BE0B714A
3DBAA4E2
3BCBE8B7
BDEA5D6D
3E0D123B
BEF3BE57
BD03783D
BECEDE43
3E4C24A2
3C39A14C
3E33F6EA
BD874179
BE81B16B
3ECF2A41
3DEC775F
3E0671C2
BE567F48
BF413F59
BE81CDC9
3E26B4DB
3E592C6C
BEC87259
BEEF41BB
3DEE7E34
BE4B4B3B
3CD16A91
3E06B374
3E5F9781
BEDBC493
BE875BAC
BCBE8043
3E26D3CC
BE38A9BF
BE6EFE95
BE68D939
BE92693F
BE72B3B8
BE882A86
3DDAC2B1
BEB7AE5D
3D8A68F7
3E118E9C
3E7338A2
3F099970
BDF1DD40
3BEC0A14
BEF5792A
3EF0878E
3CA11AC8
BED41D69
3EC7F745
3F01609D
BEC6E73B
BDBA51CE
3E88F513
BE5188D6
3F2FF569
3EC42B60
BE804DC3
3EB21742
BF0A5311
BE60584A
3E38C70C
3EB9FAB3
BDB9B0F9
3E19E3DA
BDD89035
BE82C0CC
BC9DA7C6
3D9BA88D
BEA4D854
BE140828
3E39D0D4
3D8FA144
BCF4486C
BD6CDE50
BDDAED14
BD82C8BE
BEA5FF1C
BEAB7BA0
3B64552A
3BCE41AC
3F0ACBF0
BDF86EA4
BE7DAF8C
BE9C5535
BEC6AB54
BE459DFB
BED615D2
BC7F60D3
BEBD16F1
BE974DC2
BC624255
BDF4EF52
BE318446
BDAD5055
3D56C0EA
BEA27170
BE0BBE2B
3C9C50B3
BE65277B
3DC05417
3F28AE4F
BEF23A1F
BD60ADA2
BE7D6809
BE3B821F
BEEA2AC4
BE9FD186
BEF6E764
BF12DEB4
3EA0AAEF
3E3988B2
3E6173FA
BD747E54
3DAB4EBE
BE09366F
3EA1F5DE
BE13628A
BE9D5A86
3E80DFF2
BC933F3D
3DAF023B
3D904DEE
3E5CE188
3D3CAEBA
BE18CA75
3EBF60C1
B9E4E0C0
3E2381CF
3E6D103A
BE37112B
3F05DB83
3EB2828E
BD17EA6A
3EB792FA
3E45B9C2
BD05213F
BD9D0AFC
3DF682DD
BE252042
BDE64E20
3D1C0F9B
3D231B7B
3C013B13
BCB641EC
3E25F34A
BE1CD4D2
3E40F0AE
3ED134B2
BD7A8496
BE48D894
3EBA04F1
BD948FA3
BEA3D517
3EFF3F30
BF15CF79
3C8520CC
3BD6FC3B
3E55C2B6
3E26FE83
BD969902
3D0B42E7
3EA6BBA4
3E10D1C9
3E1FB2F7
3C35D7D3
BE53807A
3B6F3B62
3DD5638E
3EC1F423
BF05E222
3E509F32
3DFE4778
3DAA8BB7
BEBEAC81
3DE104EC
BE8938A1
3E4816B7
BE995C5D
BDC9F20B
BD08FED2
3C6D0B51
BD9DA5C3
BE9188F3
BF190F32
3E125A2E
BEBF88FD
3F0C1A87
BE07FA9C
BE6F4C3A
BE01D325
BD802958
BD8C779D
3CA04EAF
BEDDB889
3E1E59DE
3E87C594
BE2821AF
BEAFD0D6
3D2FEAD7
3F097D9F
BE76B356
3F04FB03
3C3174D8
3E958769
3F2EAD7B
BE030AAD
3ED7359F
3D042229
3E65F399
BE7670ED
BED369EF
3E7223C8
BE499F60
BF131511
3E56CEA0
BD8CAFBC
3D2E4EE3
3DEFC63B
BE80E4E2
BEA4A0CF
3EAA9E9F
3DE05146
3E455A8A
3D90B37F
BD5D594C
BE387923
3E920523
BEB16568
3E6F3271
BEB1DBCC
3E874738
BE1A888C
3C911800
3E185617
BCB621AA
3EE15E62
3DD4A3A6
BE110438
BF30B974
BF028B92
3D222BCA
3DD73B70
3E6443E9
BE219630
BC011BEA
3F00B2C6
BE6B886F
BDC91146
3DC1A9AB
BE93FF67
3E90A13C
BEE0C612
3C056A58
BE16371A
BE8E6CE4
BED6DF37
BE007469
BE3B9160
BDE75363
3CCFF602
3EB9FE29
BE82D0D1
3EC38CEC
3E255A79
BD51823C
BEC2054B
3DF7442C
3EBE0C68
BCBFA6EF
BE972182
3E32FE3F
BD1BA98F
BE5D4448
BE290479
BE59910A
3EBF3DC8
BE5F8179
BE93800F
BD00883E
3E3238CE
BC3C5464
BD307F0C
BEA84196
3EC3F8F0
BD7D5269
BC5F2468
BDDCD026
3E87CB2C
3ECC51BD
3E4667A7
BE80C4D3
3D731B60
BECAE72F
BE9D63B0
BDB4B67C
3B70C5A5
3B0D9600
BDF5912D
BE58A4FE
3CC700B5
3E4AF534
3DED8FC4
BE8F6994
BED31F84
BF2166B0
3D5712D9
BCC35768
BE998EB4
BF5C6D79
3E31F2C2
BD73030D
BDD09131
BDB14C3C
3C25A8B1
3EBB8F6A
3DC2DBAC
3DA77B6A
BB1F89F4
BDA4B3BF
3C4CC124
BDD91CF3
BF1EFAAF
3E01E559
3E16CE09
3E9CC25D
3ED34CD9
3DB2DDC8
3E22A2DD
3E77CE7B
3E8C5107
3E88F7DC
3EB723B3
3E348075
3E8B1AD2
3DC1E2C5
3E832763
3C974435
BCCFAE84
3E53DE32
BE4D4303
3D92EA04
BDC952FE
3D1DACE4
BE971E35
3CD8F6A1
BE22E120
BEEEADD5
3E8B416E
BD7C9E1B
3CDCCA41
3F0FE8DE
3E54E5F2
BE144E4D
3E2BD749
BD7BF65E
3F05A765
3E0515B1
3DB75D4A
3EBA2D29
3E7A81D3
3E3606D9
BDD0FE84
3E0B6A3C
BD5231E9
BECC2A83
3E037ADC
3DEDFC0A
3E2B4F43
3C9C8847
3E4AA6F4
3E2F5A78
3E25A402
BD62C930
3EA62818
3EE92373
BE8FBAB1
3D6895B9
BE256E9B
3DEB7844
3EDFF070
BEB1AAAB
3D503288
3E329049
BEA28525
BDBE41CD
BF50DD49
BDAFF527
BF4CDF28
3E8312DF
3F14B084
BE96FD51
3E13C5FB
BF23651F
BD980E6F
3E9CEB84
BDCD78DF
BE8EBA49
BDE1FB73
BD18AA3E
BBC1B5C2
BD856714
3EB9F23D
3CB072DA
3E0DB60C
BE1B444F
3DB29940
BD9174D5
BE86F8DE
3E770BCF
BF2870F3
BDF559C5
3DE46565
BD4035C8
3E76C133
3E206CE2
3EFC6008
3EB7486F
BEDCAE96
BE223917
3F0BF4F8
3E593C4A
3E10197E
3EB0129D
3E9DEB07
3DB56424
BE30CAE7
BD674808
3EDA5A87
BEF1C1DA
BE1F9AC9
BDA61DC0
BF1998D6
3CC0EB58
3DCFE975
BD25F967
BE9041A2
BBBC6333
3EE451E0
3D9735AD
BEB597CB
BE118791
BE4ECA74
BC0C4924
3E2DA776
3DCCD103
BF15CAF1
BE2CC56A
BDE75EB4
3CE288F1
BF0C5DD9
3DA8210A
BE0DFBEC
3DB09E82
3D9226EB
BEB08A0D
3E1E1588
3BE939AA
3D3F2F88
3E8FDEF0
BC1D6F92
3BEDE739
BF08DB76
3EA587C0
39B77019
3E2AD68B
BE058462
3E1B4BD9
3EC21F2B
BD443CCE
BE82CCF0
3DF74D65
3E7A1B8D
3DC232D5
BEE5F075
BE2A3377
3E9E22A5
3E705511
BEBB6C27
3DD0B8D4
3BB121CC
3EA98D72
3D822256
BD95B2E5
3EC0683D
BEA12D48
BE23FABC
3E249EDF
3DA019A1
BE9C18D1
3E13A9FE
3E52B135
BDB0373F
3EB81409
BD5BF237
BD940FBD
BEAC3AB3
3ED2284A
BDE9D719
BE9C348D
3E3F8195
BE19F84B
3CDF8998
BEC7D441
BE253756
3E9356CE
3DC555E0
BEDB9366
BDFF2B6C
BE4C7721
BDC74FEF
BEB3C78A
3E80440E
BEC1966E
BE93CFBF
3EF5F33F
BEFA5E0F
BDF5FE20
3EEFE50A
3EC430B4
3E2F2B22
3E012F85
BDF60356
BE676ED0
BE8B2F06
BEE736CE
BD7C4B40
3E80B0E5
BE7A75D8
3E0C4043
BC1754F1
3F07178D
BCC6D871
BF211199
3F20A67B
3EB155BE
3E103448
BE0119A7
BEB36450
BD98F6FA
3E232A89
BE834FBA
3D66D2C0
3DA8C2A4
3EADA447
3E4488AA
BDB2D53E
3DF4DDD2
BEF43A48
BC1511EB
3E8FB0A8
3E22CCF6
BE22BAEA
3E5BC8AE
3E912815
BD28DE63
BEAC880A
BD754B43
3D6113DF
3ED6C5CA
BDBCAC2C
3E070958
3EFCEF89
BD8E1D8C
BD4E01F9
BD0A77A8
BD983FBC
BE8ED509
3EA361C9
BE8B5155
3DEEFD2B
BEBF767D
3E24058D
BE0D2CBD
BDB4A2C5
3E5CF114
BE2676CB
3DA5E689
3E19E4B5
3DB97BB9
BE3B0AA2
BE47C13F
3C7E9760
BE3A01C4
3DC823DC
3E68B8E2
BE5A6A25
3F204144
BEC1F1CC
3F0B6C27
3E3F2323
BEC48DE9
3E524BE2
BF165A44
3EB019EE
BEAC3057
BE2FD076
BE5BA1C1
3EF6A0B6
3DCE078E
3ED050F0
BE90FDBA
3E0DA57A
BCDC8C8E
3E858CED
3EF8BB9C
BE277474
BEA0B584
3D15707A
3B9060B6
BECC9ECB
3F10638A
3D9E6701
BE057231
BEC00644
3E0C0FDD
3E29F3C9
BE66C2D6
BD2388A9
BB1E44A4
BE5EFA7F
BC52CDCD
3CC679BC
BDA62067
3E9589E9
3D5F052C
3EA2A085
BE15695F
3EADC260
3EDC509B
BDC27464
BEF9AB36
3C8D4898
BBFD8CC9
3CD37E5D
BED960B9
3DC965C3
BE8D6173
3EF81FC4
3ECF89D4
BE322BBB
3E981449
3E1F3E65
3D3FE226
BCD5E738
BDD90BF3
3E09002B
BEB809AA
3DB06AFF
BEA1F2D5
3ED0EB8C
3D5BB31A
3D4D5F7C
3D4779F5
BDFB0EE1
BF0A6B50
3DDED2DF
3EBB0D61
3E1B46BC
BDE489C9
3DDB4C76
BE9DBA30
3EC396CD
3D9B73D3
BE5D4E15
3E479CA9
BE23F220
3E2AACEE
BD3FEC6C
BEB0909A
BE57A273
BDF17D26
B943AF6D
BC9AAAF7
3D0B8329
BEBE5D8E
BF0C6075
3CA09AC0
3C98E651
3C7B752C
BD791090
3DB0E468
BEA4011F
3EBD18D5
BF33C222
BD205065
3D2ACFF5
3E36A038
BE01A154
3F163CDF
BF3CBBF8
3F0A9B96
3F0A821E
BDEE9226
BE7B2759
3F36B461
BDEA278E
3E8F5FB6
BE27D283
BD5C17A6
BEB59751
BE60D21B
BDDDAB31
3B43207C
3DE11747
BF0D2ED8
3D16F0DD
BE483438
BE341BDE
3E6FF58E
BE85F4F4
3E1680AE
3E0C4E06
BD95A208
BE2FDDF5
BE167846
3D2539E6
BEC7BA26
3E5B6228
BDAFBC7B
BEDA8676
BE2C8263
BEA0B58E
3E9E059E
BD1A56E1
3E51E805
3CD3A625
3B122C3D
3E48F829
3E8A6F34
BE99F712
BCF0CA48
3E7D272B
3D796887
3D95C92C
3E8B01CE
3E2C03F1
3D545CF7
3D09ACE2
BE61FC34
BDE6DD5A
BE6C836E
BCC201F3
3E3A3A9A
BD00F977
BF29A3F3
BF71EE25
BE6F8673
BE3FBA68
BD93C92E
BE2F02E1
3D3D4256
BEC16DB1
BDB0892F
BD377877
BDE7DD39
3B0171B0
BE1F0DE2
3DAAA7E0
BDB2F8C3
BF125BFE
3E007FE8
BE65C1D9
3DE3C2C3
3E41B681
3DC1FEC8
BE41BFB9
BD9993DC
BE8C64FA
BE91CC7F
BD1F0F8D
3E122F90
BE604C07
3DA78810
3E2FB4F3
BEDB395B
3EBF08A7
3EA29641
BEAE0FE3
3E19A58A
3E8B4199
3E4BD3BD
3E945FCA
BEE51AFD
3EFB6D3F
3E16D838
BEA714FB
BE4C6A90
BEBB0981
3D809DDD
BF26B356
3EB3B9DA
3EA5301E
BE3278CF
3DED83B5
BEC6A400
3DA129C9
3EB86080
BE698255
3DB81F10
BDF60511
BD2FFAE2
3E8DBAFD
3ECC8C67
3E767B97
BF0215C1
BF70DCE4
3E3266C6
3CCF66DB
BEE8AA8F
BE167B48
3DD47008
3F010762
3EAAB8CE
BE57CFCD
3C98344F
BEDA15D8
BEB7DF1F
3D9FA911
3DB70930
BE515EA3
BE2DE512
3D4EF67B
BF0BB6C7
BE94617A
BBED9B64
BBFDCE4C
3EC2C38D
BE770E21
3D6A1034
BB7C20F8
BE26E4BF
3EB6FCBA
BE49FAA4
BAC31E22
BEC05A06
3DCFB5E8
BEA96D67
BCFBAA05
3E6AA7F3
3D2C81F7
3E7FF5B1
3EB8F7E3
BDA53D88
3E07A2CC
3E7984A6
BDD94C1A
BEDA0203
BF04CC7E
3F079C2A
3CF4E1EF
3EEB8661
BDDCB582
3E8B04E5
3ECBBB74
3D9222FD
BEDE7F9C
BEBFF25D
BC9CF554
BD44DF76
BE0C0C6A
BE0CBB71
BEEDAA2E
BCF55B36
3E4C9707
BDE5B8F3
BE5C3987
3EC5DF8B
3EADFCEF
BE4FDF46
3F038541
BD82E78C
3D9C1730
3F10E938
BD109EEF
3D5B9ECA
3E434B24
BF1535D1
3DB9E139
3D448B70
3F0B8FDC
BE360015
3E0D68AE
3D17F0E3
3E4E3023
BDA4D175
BEA897EA
3CBB4B05
BE978251
3E2B0533
BEBB1E3B
3F0C9E40
BEAC5AD4
BF13BD6A
3EAC5F85
BE4AEEB9
3D150914
BE6E07B8
3E1B81B2
3DEEA590
3F1C710E
BE222487
3C9F520B
3E66DBB1
BDA4C0CE
3D417429
3E246446
BE7E0DAA
BD94B520
3F573FFD
BE8134DD
BE5F41DC
3E1175B0
BE006483
BE2C76D8
3EAA8A7A
BD23F9F0
3F05DEB2
3D34DAD8
BF1D938E
3DEC8A9E
BC386B16
3B83089E
3DADC8AE
BF32CAA2
3DD87159
BEB4A09F
3ECF283D
3D10E7C4
BCA06D03
3E5764B1
3EAA00D0
BDA2DF33
3E2B3622
3E874095
BE7219DE
3DCD0430
BCF96023
BDFC55FF
3E8E80B2
BE389EC4
3D88A1F9
3E626482
BE350412
3EDA515F
3E758C83
BE202EEA
BCD0BEA4
BE9C0AD0
BEC29D96
BE19358B
BD59FCAB
3E91AF57
3F24EEF3
BD0FB97C
3D3A4E40
BE94DB6A
BDFC6366
BF22B2BA
BE9D6CAA
3EBE2ABE
BE397581
3EDCF502
BE80ACE7
BECE26EE
BDCFB792
3D162FD2
3ECAD8F4
BEB6BBF5
3EF09650
BE3A3140
BB5CEC80
BD421978
3E94DC1A
BE6E042D
3E763FB8
3E603C58
BDBBF276
3DEDD95B
3E173DC6
BE717014
BE173E16
3E04497C
3ED35EC1
BED42FB4
3E37CE0E
3EBDDB79
3CEA7910
3E23FE3F
3C50822E
BD8A82D8
3E0A8FD9
BE4DE36E
3E75186D
3F0B754C
3EB3263F
BD8F0DE6
3D0E42D4
3EC80E4D
3D8E43D9
3E502F58
3DF5B874
3CB6B9F6
BEAC3515
3E467255
BE41ECEB
BDAF477F
3E65D85C
3EA7FA45
BE8339DE
BEB1160D
BDFB2732
3DEE261B
3EACC2BD
3BFB80BF
BED4C052
BE8AD2F5
3DBE4497
BF2CBC8D
3EB73D55
BCA1D253
BEDF8A87
3E4547C3
BE837828
BE8040EA
3BA94ABD
3CEBB61C
BE4EFAF8
3EEEB757
BD2E9940
3E1F62A5
BEF02848
3EA35925
BE6B49AA
3EB1292F
3D25BA8D
3EA21797
3E7C1FE4
3E38F826
3E046E32
3ED02410
3EF231B6
BCD0FC67
BDB9C4D0
3C63B089
BD0DE0C9
3D82D4DB
3E8D0AA4
BEE68789
3D0DDA2E
3C245E9A
BECEF138
BE009ACC
BE853200
3E03A0D3
BE882F89
3E59E97F
3E87D93C
BE4374B0
BEB01A5F
BD56A64D
3E9354FF
3EBFAF82
3ECFB824
3D0936DB
3E8F33CD
BE789AB6
BE25A3AB
BEE33523
BEABFB43
3E748C7E
3E74B0DE
3E919240
3E77AF04
BEE66A2E
3EC9E890
3DE750D6
BE2ACB65
BEDD6A98
3E31500E
3DA4A542
BE4A5DEE
BE808D7F
3EAFE056
3E3C1B0D
BE15F066
BE17EC3A
3D071FA4
BD47602C
3DBF3EB9
3E574E31
BE0B9733
3E9C84AA
3E990026
BE84D6E4
3E5E076E
3F170C4E
3CF91027
3E105071
3E1A6462
BEC46677
3EAB4055
BE0F411E
BF072D2B
BE69B346
3E1377F0
BD5A0473
BEDDD8A3
3D9A4011
BD6ACE80
3CEE566A
3E6C2A7A
3E080F82
BDCC467C
3EC653C8
BE86324D
BC652CB5
3E70EF62
3DF2F18F
3C4C959A
3E9667E1
3E982063
BBCD6D9C
BF020D6B
3E04F9AC
3E087BF8
BDC23AE0
BE73CEE7
BDA6F42F
BE7D231D
BEED74A1
3ED68DBD
3D83A878
BCDAA5F4
3E3D68CE
3E824F52
BE6A2A4F
3F1D8473
3D27395A
3E1BF497
3EB00A38
BECA5790
3D36AAC4
3EA12523
BF194504
3C8F0308
BE2285D6
3EAFD96E
BEE3D75B
3E0B4C35
BDD861F4
BECB0A05
3EB9103F
BD2174D2
3E9F432F
3DF9FA76
BE6D4FB8
BED1D4E8
3EB4B906
BED05BF8
3EE22053
3CE042DB
BE054CEB
BE3B6FD5
BD76A734
BEF43EAF
BC12E494
3D834F59
BEB1F7B0
3E949C33
BEAB1B56
BC49F415
3E911FCD
BEA4E70D
3E900060
3EE1BAF8
BC06D714
3B84AF52
3EBF5AA1
BB8F5939
BE97A476
BE5092F8
BEFF0A6A
BC85AA64
3E5F77F6
3EAFBF39
3E85E056
3E1CA629
3C227500
3EE145E2
BB59FA88
3EAACC23
3D0F7091
3D8251CA
BE59660A
3DF814B4
3C51FCAD
BE728AD2
3E76AC2F
BD695541
3E509CFB
BE83DF18
3D370627
BECD321E
3F5135C2
3E8D6F83
BD54E7D4
BBAD34AC
BD4757C6
3D0A6BF7
3EEE4315
3CDE53EE
3D86022D
BECEC441
BE917F3E
BE1188E2
BEF2B35D
3E07BCBD
BE975850
3EC74B07
3E43D179
BEFC25F6
BD1D0C3D
BDBCCB9F
3B97FD8D
3DB7B53D
3EA92519
BEBA411D
BDA62984
BD896E40
3EC47B72
3EBC8A69
3D30AAA8
BD5F9610
BDC10856
3E6767A5
BED34676
3E905886
3ED53ABA
3E828EAC
BC6D7955
3D8EB12D
BED47103
3ECBA5FB
BEB1E7BA
BEFF5164
BD84547E
3EEF6EE5
3EEF8FE9
3EB245CB
3D93B91E
BDF5A251
BE51E24E
3E9166C1
BE3C6745
3DD5DFFC
BD981B20
BF10FA07
3C37084A
3E5DEB8E
BDE2CC99
BE8A3E93
3F145F28
3E470345
BEBCBFCE
3DC1ECF4
BE59189E
3DD9617E
BE29FA9E
3DFDFA92
3CD3DCBC
3E598E01
BE01DC4F
BE141C63
BF42DE3D
3B71B8BF
BD94D9C3
BDA0AF81
3D82BE49
3E5F9129
BE27ABD6
3E1A992E
BD2A7905
3DBB4986
3C297565
3D84A856
3E6C9C5E
3D31E11E
3E47CD54
BDE56A4E
3DA380F5
3E84D9DF
BE204D20
3CDB83D5
BF2C950C
BE83FCD0
3F03461E
3EA5E79E
3EE82919
BE26D4BF
3C8601ED
3E7515E7
BBE0E5F4
3E88BCCF
BEAC1AC3
BD33439A
3DAA74C5
BEC083CE
3D7D357B
3EF35B3E
3D88190E
BDA72B6D
BD4C394F
BE4BA55E
3D1525C2
3DFC5F5B
BDE83B9B
3EF00173
3ED49DD2
3E69D2D1
3E8AED10
3E00FCD3
3E2A2C59
3EC2D9AE
3F56706B
3E80DC70
BDD360D0
3D8EF9BC
BF14F9BE
BD910A50
3D8E197B
3D8FE3E5
BF1806B5
BE3149A4
3EF9BA30
3D840A9F
3E8BF09E
3E29ADF1
3E858886
3E2D1504
BD164363
BE6B2E9D
3E24C38C
BED8A940
BF12CC0D
BD39EDBA
3E92815F
BD4B2DA6
BDE831A5
3E9D3563
BE77180A
3DED9DF0
3DEC2E37
BE8A10EA
BE53EB3F
BD408E8E
3EB3E967
3EF8FF5B
BDA81DC1
3E93D63E
3D828613
BE1A4465
BE939E68
3E457809
BE80A252
3E83A801
BBECE6C9
BE61D8E1
BE5160D0
BE784D8B
3DFBC903
3D959DB7
BE117DF4
3DC76909
3D04365B
3CB7DC35
3E567756
BE57029C
3DA8BE16
BDC87782
3E100184
3D90472D
3E520830
3EA6F595
3EEF5CCF
BD82E6CE
3E143A4C
3E7E79E1
BE6429C6
BE9F5C01
3F093CB1
3D15AF6A
3ECAFD45
BF248066
BE4F1023
BE83C394
BF552E92
3E4211F7
3D12C0D8
BD8C1467
3D872523
3D78F88D
BDE6C447
BE2176AD
3D427B85
BE21EB66
BECD7F34
BE10C1A3
3EC6F84F
3F0DA777
3CC6A24B
3E0909D1
3DEBC913
BE8051BE
BC0BEC93
BD5DB36F
BE716E09
3EC158A7
BDD6704C
3E7468D2
BEB72A7E
3F0179B6
BF06BFF0
3E5E5BEB
3DA5EE05
3EBEAE3E
3E816AAE
3D87C357
BAABB2A1
BE0882FC
BDC95AE2
3E12AD1E
BF08754D
BE91C4B0
BC58B9A0
3E3CDFB5
3D2529A8
3DCB21AF
BE1216C3
3EC47C02
3E0261BF
BCF5CF5A
3EC3F6AE
BDCAFA33
BE8F9E28
BD88C97D
BC9629D3
3DF715A1
3E33F382
BDEC4A20
BF0AC517
3CD51957
BDE732AE
BDA844B0
3E03FB24
3D9F7CC3
3E5FB198
BD96156C
BEE15AB7
3EDB5249
3DF40F65
BDD496A9
3E45B5D0
3EEFA1FA
BCAB78FA
3EB58256
BF1230FD
BE0A11CF
3D67A7ED
BEE0BFB9
BE9EEFD2
3B063D1B
BE2B2531
3E1A8DBD
BF36E959
3D672736
3DD02360
BE20C6B1
3E5C931E
BC4DD85B
BC9FDA1B
3E3EC5BB
BDA3E897
BEF1DFAD
BF05C27E
3E67CBD3
BEE926C6
BE2DD2C7
3E98060F
3E11DA80
3D875FF3
3E037842
3E2E42D5
3CF0A981
BE19ABE9
3D9F4EC8
3EDE66EF
BF037F14
3EF88D72
BEA51108
BD0045EB
BEC71258
3D3C1844
3CA70E06
3E02206D
BF096659
3E66F48D
BCF82251
BE99FBED
3E0D0AB1
BEAF5EFA
BE7D3348
3E33D90B
BE8E0CF3
BE9B5940
BC8A8270
BBFE185F
3E5E751D
BF008050
3F1FB952
3D300AA2
3CFC9156
BE0E29E8
BE846E74
3E7A1E66
3E73B02B
3E6AA7E2
3E91F9D8
3E61A9DE
BDE83F78
BAE8A012
3E86C83D
BEC0222A
3F02E840
3EE49113
3F04989D
BEBA3820
3DB0281E
3E0BBEB5
BCF9AED8
3E0D01CB
3DBDF40F
3E04004B
BE401D83
3E8FCC43
BEA0D6C2
3EA86763
BD94577A
BE49BD17
3C46C91D
BF15AA61
BEB74A94
BD6B6061
BD535C33
BF15EC3C
3D23084E
BE55F870
BD2DDED8
3D340D4E
3E806B9B
BEAF4916
BE2338EB
3EA55E34
BE4D84C4
BEFF0B96
3E316C4A
3ED0F09B
3E5225A5
BEB38D1E
3DE1ADF7
BF1C0B39
3D8C71C2
3DF9B02C
3DE1E3EB
3DC080C0
BEC447D2
3E7B5670
3EEC77AA
BE59F2EB
3E6FE437
3E6EC34A
3C51E1B5
3E3B1C35
BF5C2092
BE742337
3D31E65F
BE3BB7EC
BC4EF3E4
3D726136
BADB3068
BE144BD8
BE3E191A
3D813E5C
3E941638
3E3BCF94
3ECEA18F
BE79740C
BE317E92
3D1AAF46
BDD6B17D
BD5833EE
BF2874BF
3ED309D9
BE9F1585
3EAADFE2
3E68477F
3C2ED19A
3E7F3A6A
3E0EA110
3EBDCD49
BE8C9772
3DD1FF01
BE668A6D
BCAA0669
BCCBE353
BE11A6F6
BE71AD3D
3E225340
3E4C8EDD
BED1EB59
3F191225
3F0C43B9
3EE1AD4C
3F114410
BD83F89C
3E6FBCC7
3E225DB5
3DDAC4D6
3DE8FEE5
BCB46FFF
BE63744B
3BDE9968
3E1E3720
3D8270A8
3E9A1BC6
3E0C2C83
BD686F1A
3DDA3A4D
3BB60408
3E7D3439
3F0C9FDA
3D9C3054
3E030A35
3EC2929B
3E552F71
BF072096
3EBE8776
3EC01AAE
BC1AAF0E
BE0FC7B6
3DDB1DC6
BD1219B3
BEA95301
3E1061AB
BF0A390D
3D0AD9B0
3E1E6CCC
3F1F9B06
BD9F3DDA
BEB3287B
3CC108C4
BEDD3827
BEB63EC8
3DC5E21F
3E2ABDFA
BEF08841
3F37191C
BDD6AC7D
BBA0B46B
3DFB01F8
BADC3926
BDA2B524
BD04572D
3EE90235
BE349694
BD1DF409
3EED3485
BD84C394
BE268B2A
3E03B6CF
BE7B46EE
3EFA42EA
3DE0CE5F
3C7CBD8B
BE2DC1AE
BEA1DDC3
3E3A8FF7
3E5E371A
BE6BEA07
BF17262E
3E70A3DC
BF1D140D
BEDA9FDA
BDC0FD51
3E87B5E6
3E0518D9
BED6BA5F
BDBED954
BED0C6DE
3BDAF316
3EA7E50C
3E950815
BF09B869
BF484873
BE0206AB
3E152A4A
BE2CA310
3E64AF78
3ECB678E
BDDBD814
BE2413F0
BEC37B3D
3D996B1E
3ECB178B
3E7C176F
3E96F5F1
3E46EC70
BE28CBB2
BEBA7BF9
3EA3C826
BC2B36C5
3DD09B81
BBB5F4EF
3F23476F
BEA2C2B8
BD359C82
BED8C075
BB9BAEC8
3DB4F61C
BEF37E3A
3D6A43F1
BD767A4D
3E646806
BE426105
3D9B37D8
3DAE12E3
BBE1899D
BEE5327B
BC45060F
BEC59AE1
BEBC10D6
3D9A1D71
3EAA2B45
3E887358
BD3480A3
BEDB7D8F
3D9145AC
3BDBACCF
3D9E32DD
3E1DF050
3D1B0A83
BE0DAA97
BE6AEE55
BECE3630
BDE3C7A2
BEEECEA4
3E9C3509
BDABCD9D
BEC84E42
3D12147A
3E0A94BC
BE6C1D9C
BEB1A07F
BEB7C99B
3E323DE6
3E66AA41
3F0D091D
3EDCA16C
3E43100F
BE1C2852
3EBDB377
3DB14E2E
3EE855C0
3D544504
BD8E9652
BDD290CD
3EB02E4B
BDC3764E
3D483D4E
3EF0D476
3EE20300
3F433D88
BE1FF2A6
3CE72D00
BEDC82E0
3E1B19A9
BD1C6B36
BDC6BC07
3EBAB17B
3D44E3BD
BEC8EFB4
3E79165C
BE848708
3E0422A4
3E1E22E6
BDD07F77
BEEC1B4F
BD744445
3F02C054
BEB92F4D
3EC827B1
BE394FD8
BC937B83
BE1B78B8
BED86AFE
BE99A09E
BD8BD2B6
3E2F1406
3BE8458F
BD60CB72
BD2B408E
3ECB25D2
BE82C1E0
3D730028
3EA6F7BB
BDC2E0CA
3ED98C0D
BE0087F6
BE19E347
BC019785
BE9F1E54
BE02A11D
BE3C4E96
BEDA15B7
BE1EACEF
BE738828
BE1F43E8
3EB6F725
BDDFECED
BD6DE6E9
3EBF691C
3E73776F
BCC4995D
3E1B37B9
BD907D07
3E1AEAC5
3EBC7E89
3EADCE5C
BE20BACC
3EF84584
BF07C7EB
BE2E84E9
3F088039
3C98B340
37CC02CD
3EA50159
3D3BEB2B
BE3C23E6
3E018DDF
BE06DBE6
3E528854
BE3452E1
BE62FAC2
BE813398
BE543CAC
BDCA45E0
BED2DBBF
BADEE8AE
3E818885
3E3118B4
3CE2AA9A
BDA50E2C
BE981D8A
3E50AEA1
3D265BDD
BE3220E1
3EED5AF6
3E435F92
3E3AAA85
3E38E21C
3DB03F2D
3E465219
3E708412
BC808C1C
3EB7411D
BF2CD05D
3DA5D7ED
3D8FD6C8
3D0E9E6E
3E44E9F1
BCDB1997
BED94908
BE3289BB
3E8888D8
BD343544
3EC04C91
BF08C829
BDCFC6D4
3E78D0A2
BF3ABAE4
BE1D2094
BEC903E9
3E331BDB
3C501A5F
BCE01E28
3D9CE3D8
3DF04ACC
3CD58E7D
3DED39E3
BECF6CD6
BD74B772
3EA081E6
3BEBA18F
3E164E82
3EE6AF54
3D8AADE6
BEA053CE
BEA4931B
3D123133
3E9DB8CC
BD7AC434
BEFF3029
BD8CFAB6
3ECCD22D
BD144F22
BB8EBE09
BE2DB874
BE3CA61F
BE923D13
3D413D75
3ECA1522
BBA25A88
3F22A769
3E107F7F
3DA7AD84
BE471196
BD5ECE19
BD55DF78
3E762554
3F0C0B3B
3D42B26A
BE753D8F
BEA0878D
3DDB8DC7
3F258AB4
BD93E4A0
BD9EB1B1
3DEA1048
BBF44521
3E8F7975
3E77F85E
BE7A7A1F
3E48D310
3E5DB883
3E579290
BE3254AA
3EDEF71C
BE1757AE
3F007AE1
BEEA5041
3D963432
3E5E653E
BEB74C21
BCFEB598
BE67C49E
3D4A5DDF
BDA78CE4
3F0B6E0F
3D311F8D
BE581A5D
BDEA9E77
BE9947A1
3BB078EF
3E52A517
BD6AB9A5
BD773797
3E900C17
3E9EB8A0
3D46943C
BEA0B22F
3E5E3515
3E99103A
3EEE7F8B
BDF4A984
BF1AD7C4
3E7C52C9
BD24FB3F
3E667BF8
3EC54BC8
BD22ED2D
BE86D326
3E8FF59B
BEB6B41A
3E8C40E5
3E5A9E0B
BEE72178
BEFFA4E1
BE3984B4
BEC4814E
3DAF25E1
3C8D5BCE
BE574188
3DB5E5CC
BE1E78A3
3EBA4D26
3E9DD28B
BEA1E31D
BE0CE23E
BEC23AD3
BD38B655
BECFD3F5
3E0AB678
BCD535D2
3EDCCD9A
BE710449
3BC71F64
3DF88A36
BEAB7382
3CDAE645
3E2DD93E
3E8153FD
BE9159D7
3E521712
BEBB0F4E
3DBFE956
BE9099D8
3E533978
BE9E5CF4
BC8FA11D
3E22DEAA
3DD441FB
BDA8B305
3E8D8F04
3EA4D688
3F052E04
BE4741CB
3EA0DC45
3E64DE26
3DE29FFF
BDE4D69F
BE7062EA
3E877908
BDE427C2
BEFF7C92
BD946042
BD5C4C9A
BE43DC9D
3DC109F2
BE45258D
3DBB0F69
BE824818
BEAED0D9
BD9D7930
3C2F3349
BE0C743F
BE42AF5A
BF074F25
BD3DC23D
3E4D5710
3F1C36A8
3D2BD79A
3E51BFE2
BD25D013
3CB6BA26
3EDFCE8C
3E8ED757
BC86C623
3E5C1DAF
3C831355
3D3D9DFB
3F0F8BFA
3E9B6DA5
BE71F6AF
BDD97082
BE6FF67C
3C3DD3EB
BDA7C548
BE35D708
BEF020ED
3E93DC42
3E8F0413
BEA63AF1
3DDBFDEC
BF04DF8E
3D9CAEDD
3EAE4828
BD174945
BEE801D7
BEDC2001
3D40371D
BC36BED9
BEC6380E
BE44B00D
3E80EDCF
BC86824B
3E4B35F7
3EB1CBF9
BE5D21FE
3E15342D
3D88673D
3E3111F9
3E7B1154
3DEFF5B0
3E1649A8
3E286EC3
3DD1BF92
3C8B01B1
BE1D5AB1
BE067A06
3EB144E9
3F1841D6
B9FC56FE
BD9EDE0E
3DF36088
3EA6FA3B
3E0BD77B
3B050335
3A2C743D
3D3B355E
3E8B723D
BE29ED06
3E92D582
3EE1ED34
3D6F2587
3E94DF80
3E9E840B
3EA45209
BE41C025
BD783777
3E1B2C6A
3CA0DBF8
3E488307
3E53C2EB
BE3113C5
3D7AAF39
3EA8B735
BF1D5939
BC807068
3EA22709
3EA7FEFA
3D81E9EC
3E8EBFFB
BE98EEC0
BF21AF56
3CDB8C58
BD3DBD1D
3CF028B7
3E411AEB
3C85D639
BDCF1A65
BEED7A13
BF2E2BFE
BCFB0DDE
3BE5A348
3EA3353C
BE4C82AE
3F015656
BE9B5CC4
BDB6007D
BD0559BC
BED9A929
BE5571DC
3DA6A41A
3E31855B
BDBCCDEC
3B1FF2CF
BD8ED2B6
3C647B75
3DE979B1
3E3ACE50
3E02122F
3D65B308
BED5A9DB
3F07ED72
3EB99723
BEEDF2B1
3E599945
3E881B0A
BDA96CB9
3D281345
3CA18404
BE15C4E0
BF2809A4
BE7D10A8
3EA823C5
BDE13793
3CA3E923
3E8E4882
BEEF1BAF
3E8D8B04
3EA8295F
BE986B99
3D1C97A6
BC9D3D93
BCD38A10
BDC922B2
BF1A3F6C
BE60689E
3DE43EF4
BEB5A00B
3E426B73
3E142185
3D9724AA
3DA02F4E
3EAE24B2
3E499029
3EC1B042
BE06C664
3EC36963
BDE9E9AB
3CBDB644
3E3090C2
BF47F6F9
3EB88E27
BE457CAA
BEC73F64
BD9832AB
3E1ADE23
BE1C39DA
3CED57ED
3BEE55F4
BCEA2848
3DA5EE30
3E9ACA17
3DA24D04
3ED074E0
3E5EB3D4
BDA1F2C8
3D9DF00B
3C0BB17A
BD7FDA58
BD60FF92
BDD8D324
BE1BE77E
BDD9D664
BEC873DF
BD4B3106
BD893ABA
3EC17B9A
3E759734
BE6A1FE4
3E8E75C9
BE450462
BEB3E86E
BE01DDCE
BD933342
BF21401D
BF0C8B09
BDF945A3
3D91C40F
BE6A484F
3ECBDBEC
BDE6770E
3EB40189
3E46A9A4
3D2063C3
3EF9DBB5
BF2BFF77
3EA8859C
BD37E5F0
BF3CA4EE
BC7A070D
3C67DFC3
BE46FB6B
BDBF071F
3E4C5E24
3E474C14
BEAEFF49
3EDE8DB3
3E35A09E
3D3701F5
3F1640E2
3CE51421
3E0172BC
BDDB6FB9
BF08870D
3EB61F9F
BE96B82E
BE9B9B55
3ECC7AFE
3A80CE47
BEF51714
BE1C2FA1
BE5BFE81
3F02EC90
3D7FE927
BE7A6E54
BCF0F642
3DB45666
3E8EB84F
3C87B332
3EB7F631
BE9A25ED
BE884BC0
3D50CDCB
BDFE48D2
3E1C13D1
BE3D9C33
3E461104
3E391153
3E125A02
BCC3FF74
BED1DFE1
BDB69EA3
3E15CCB7
BEC208A5
BD401A44
3DEA93EF
BE649699
3E443339
BC675E1E
3E837E44
3DF86F09
BF04D2AD
BEFD789A
BEB052D3
3D5A44F5
3E7FCCDD
3ED48F6C
BD57EFFE
BE16706C
3DD385F9
3EA50620
BE7D275E
BD45653A
3D0B5533
3CE23BCF
3F1D0109
3D1171AD
3D3D0A8A
BD236550
3E45AB2C
3D751182
3E64C816
3E55F06D
3E1CA4D9
3F515951
3E55A095
BE1FFA51
BE039A1D
BE1CD9C5
BE24FB38
BECDA68E
BE40F2E4
BF084DA9
BD14E53D
BE6D5C94
3E5093CF
3E07BA56
3EE3F24A
BEA25040
3E33377C
3EDC6F3F
3F16E22D
3E14CF02
3E85CCE1
3E07B3CD
BD545BFA
BE9F2D3E
BE29EBF9
BCEE42F9
BD4E03C4
3ED4C0B5
3D20EEA0
3DEF8F5E
BE3E5555
3E28F1DE
3E8FBE5F
BDC1E396
BD9429E7
BDDD2DFD
3EF10769
BEC182F7
3DC03E35
BDDA1D71
BE2218BB
3E408C60
3DA2C627
BDD3B488
BCD4B5C5
3E0A1C37
BD88DEE3
3E59A71A
BE9E0C02
BE8C19FD
3EABEF59
3E8449B5
3DF65681
3E736F59
BD09368D
BE6A7A29
3EBAB352
3EB05B02
3CA8931C
3DA62522
3DEE3823
3E23D423
BD6B82FB
3E9235CA
BE67C81A
BE81B5B0
BD02E563
BEA3EE4A
3E8F0556
BE27E42F
BF0AEC23
BEF59479
BDECEEA3
3E90F19A
3F34958C
BED16BAB
3E1B01F7
BC10BFD6
BD3A3550
3E55A512
3E7AFC24
3EE2BF54
3E36C824
3E71AF24
BD89E55B
BEE82DE6
3F04ADA0
3EA659FF
BEFD6768
3ECA001D
BBC3322F
BE83CCEE
3EB4631B
BDA0DF8E
3DA35E35
3BDB613A
BF0EC543
BE93938D
BE9381AD
BCAEC779
3EE92F99
BEA4AAFC
3E58DC55
3ED99B19
3DE58D5B
BF047765
BE697989
3E142285
BF00632B
BEEB8C55
BE7ED6D6
BE8D835F
3EAE33A4
3E9543BE
3E11B7B3
3DBF6A6E
BE97BD54
BECDF041
BDB51D6D
3E12057F
3EBB224F
3E5B3475
3F3C076B
BDB8C4EE
BF09D8B7
BE5FAB0E
3EC962E9
BD69C50E
3EE03D8C
BC75F46E
BD6EDDD9
BDE6CF84
BE93A67A
3EB3C2DC
BB84B5DD
BE5B6926
BE9AFBEC
BE2593D0
BE72A540
3C61387F
3DC1179E
3D44E9CF
BDE6C431
3F14FA93
BE267293
3EA41DB4
3E6F0477
BEFB5757
BE1123EF
3EDEA7E4
3EAC0FDA
BDA87D86
3EB11572
3D7E2969
3D3146F2
3E76855B
BEDBD272
3F3EEF1A
3E8816ED
BE940451
3D5874BC
BD8A0A31
BE9AE318
BEBDA9D5
3E798ED2
3EBCB840
BC9C746A
3E495F30
BE05872C
BC4875FB
3D754C68
BE11FCA3
3EB8E658
3E811CF2
3DD17E16
BDBA3CEC
BD44C70F
BE09ADC2
3EC86BED
BD9E9BE1
3E2DEC9A
3EE486FC
BDE060E1
BE4A558C
3F0AE861
BE5D06DC
3DAC10AF
BEB0C80D
BE7A7078
3D941F39
BEE8E2A9
BDBD1F44
BE9AD5E8
BE3B14A9
BCC7A719
3EBBCDEB
BDB19EE0
BE613F53
BE963621
3E9807CD
BEC67812
BD3C5E68
3EA762E9
BDD3D109
3EF75364
BE8F1B53
3DFCF7D3
BE1B9A7A
BE0F1FDF
3E0A067C
3E14105B
BCEF06DE
BDD4FBEA
BE104939
3E76DEFA
3E2A1E9D
3C502BDD
BEF02D71
BE199DF9
3D1C06B1
3ED96D28
3D629B00
BEC1118D
BCA9AB0F
3F1EA5E3
3E896D24
BE87F838
BF04FADD
3DACD936
BE8DBE16
3EB964DA
BD321605
BEBEA0A3
BDF8E76D
3D1A91B9
BE9712BB
BC8DBC06
BE3D3E6D
3D9B8BC1
BDB4557D
BED2D797
3E813325
3E71E716
3D22FFA2
BE84BCF7
3E893612
3EC1E90E
3E46D1C7
3E5BEC52
BDB67E3B
3E618C02
3F262B9A
3EFD9CDD
3D14B7DD
3EFBC734
BEBC49DC
3D884E67
BDA9E7A1
3CF9B060
BE989647
BEC60F87
3CD20A79
3C8D6467
BD506FB4
3DE21B9C
BE46CAD6
3C64AE15
BDD96D5A
BE2651F1
BF140B99
BDBD0534
BD8C7EFE
3EAC8E1D
BF1BD61C
BE3DE670
BD1AA449
BE5C38B7
BE253046
BE7224BA
3E5DA73D
BE092692
BEB1E91F
BCFF41FF
3BBF4220
3D5AEAE0
3E4E9816
3ED6D065
3E0BB22E
BAA5BBE7
3F06E90B
3D8B4BE2
3DA25147
BDE74267
BC7D659C
3F185B53
BE467A0C
BC815D28
3E8C670E
3AB5EF3B
BE8479BC
BF233084
BC0B7473
3C1F79A3
3D9F4699
3E4D12BA
3E3CB038
BD51A107
BD6FB285
BE0D3F7A
BDD67E37
BF35B857
BE903748
BF0A0FAD
3E344EC8
3D3F9714
3ED9EF34
3E2B37F6
BDAB7103
BD85E52B
3DC84EFF
BEADD99D
BD7EF891
BE956ECD
3E9CB637
3E052AD7
BC5197A2
BEBF687F
BF0603DD
BF108AA0
BE72C545
3DF82EF3
3EFBD1CB
BEAA671C
3DD746DC
3E26C37D
BE0B948B
3DD6D494
BDDFE79A
3EAE83A9
BDA25211
3DA42E78
BDE18A98
BDC7C59E
BE361B60
BBB15131
BF10CDAF
3DBA91E4
3E1E7876
BE96622D
BE156019
BDB7D0A1
BDF568AD
BD5AB6F8
BE32F47A
BF34ACDA
3DE63521
BEEBF6B7
BE805326
3BD21003
BCFD2E5F
BEFE1290
BDD6725C
BD6BB3AB
BE7710AB
BCA6B256
BEB1D220
3EFD19E8
3BF7AFE5
BE66C9DC
BE0EA275
3EA5D6C0
BE99A0EE
3E8B756B
BD80318E
3E6A4CD1
3DDF404F
3EC3789C
3E900CA7
3E80F0C8
3E227398
3F06D3F3
BE8E43B4
BE61E28F
BD7A47D5
BE79A362
BEC2EEEF
BEB46E2A
BF0FD7E3
3EE7BD92
BE5BCD63
3DD9CB31
3E593847
BE693BAD
BD904F90
BE93226D
3E84FB06
BE45F91C
BEDAA5CC
BF0209C6
BE1AD2C8
BE8C6475
BE04F866
BE12A22E
3EF5F18A
BDDFCAF5
BE3178C3
3BEA6031
BD52B069
BE64C4B6
BBAFC10E
BE5E6D37
3C7BF98B
3E99A766
BF77AB88
3E60BCE0
3D14F9E2
3D11ED25
BE13B54B
3F1F77E8
BDCA5B79
3E70EF6F
3E12A89C
BE2175A3
BDEA0807
BE9942F0
3DA01692
BEB49EF2
3DD36E92
BEFFF8C9
BF13F1F5
BE27B1BD
BDFAE111
3EDF213B
BD6D6DDF
3E9CBED1
3DBE3D7B
BDD95EB8
3D32F4D2
3D3019B9
BA7AFF65
BEBB7AA9
3E54AC29
BEE3CD40
BE57FD25
BF38BDB8
BED12E92
BEF959E5
BD9C6C57
3E43E17D
BED34EB8
3E0BFAF8
BD592E34
3CFA5C82
BE46B3B9
3E785322
3E9CB55D
3E1C387B
BF01C658
3DA89A83
3E84C87B
BE2E4E68
3E7343E3
3EAB3BD6
3D5E09EE
BF36A866
3E4D9A62
3D4EC802
3DCDCB6C
BC0AEA29
BE738499
3E16D7FD
3F1839B3
3EA49BE0
BE4693AB
3D2F8F12
BE743814
BF123993
BE29EC6E
BD4B856A
3E1BF6F8
BAE5F38F
BEA48D3A
3E24D86A
3D801B69
3E0E85EE
3EFBD6DD
3DD47821
BE31A72D
3E463F04
BE4585DA
3DAF7B9E
BD999F2F
3ED2D2CA
BCE65D07
BE67B7F2
BE4DC891
3E7B50E2
3E8AF6C2
3DA77985
3DB5BBAA
BE0FC5D4
3E9D81B9
3D63E225
3E0ADF96
BD095079
3E531857
3EF34292
3DA829EF
3E89D63A
BE2FD96E
3EF13D55
3E07DACD
BEF51C05
BD412605
3EC901A3
BEC50616
3D21A03E
BE515E10
3E77F0C1
BE022CE9
BD8C115F
BDC20D25
3E050EA9
BED24081
BEBE0EC4
BE6771DE
BEB70EE7
3C9C9CFF
BEAED0C4
BDD7013C
BD69B200
BD4C198C
3DE8175E
BEA1FFF4
3E035B26
3C7E8C78
3EC8DCA1
BE3A1C7B
BEA0A45A
3E7277E6
BE578BF0
3D967426
3DA045F1
3F4101E9
3E3F6CB4
BEFA4949
BDBCBC7F
3E87FF4D
3E54F4A0
3F1E35A7
3E0FC59C
BEAAF59F
BE77C8D2
BE3FC82F
BE4FBA29
3E21366D
3EB34160
BE071E43
BEAC40DE
BE3FADC3
3DC3ED63
BE6BE14F
BEAEA035
BBEC2BE3
3DFFC2CA
3E40E566
3F0CD4E8
BDE500DB
BE984AA3
3E4E2A53
3ED6152A
BAE24CBC
3F261F5F
BF0B435F
3EA95EDF
BE870C79
BE707377
3E9D1FFB
BE9686F9
3DFA0F0E
3EE51CFD
BE9552F7
3E58CD9F
BE4D5E28
BC08F43B
3ED81DD2
BEE9F289
3EF39EBD
BE7CA866
3DE3696B
3C76B366
BE747F4E
3F33209D
3EE78A3C
3D88E31C
3ECD584B
3E1688CA
BECC6BAA
3DA3A4AC
BEAC1AF0
BA4F6BE3
3E9FCF05
BE7D6137
BE858E98
3EA0F3FA
BEB49F1E
BE7D8103
BC8E7B3E
3E347F38
3E57F657
3E8A38F3
3B38635E
BEFFB194
BE2156A8
3E9D2D3C
BC2F8A27
3BF0E875
3E7B6839
BE7BEB7D
3EF78392
3EB4EE2C
3E032D61
3E3AC231
BDF62C07
3DEED83C
BEA731A9
3F183089
BE792CEF
3E353766
BE42E672
3E0AC532
BEB63269
BDF36A3D
BDF53B4D
3E7C0A42
3E2FE3AC
3F25374D
BF13C534
3ED70474
BE4F7286
BEE10F79
3F15FF12
BEE13B13
3DD736CA
BD7939A0
3DC79FCC
3EBCB0F1
BEA07EAD
BE9D52AE
3EA29303
BEA61F56
3E2DDD6C
BED100A1
3E4C82A8
BF03B3BA
BE00E8D7
3EB3DF56
BE5603C9
3E136932
BD94989E
BD5D947B
3DCED1E5
3CA7F898
BEC51C47
BE341DB2
BA6A6767
3CD190EC
BEC33041
BE4D3413
BE431A55
BE27D70C
BE3F7A89
BE83036F
BE01B008
3E959F13
3D9024E0
3E191861
3EE167FF
BE51C35D
3D9FB968
BC058A43
3E91B83A
BE5990EC
3DEE87E6
BE287322
3DE22C93
3F05F066
3F32F06A
3ED89D3F
BC721E15
BC2E36F5
BE35742E
3E87C9CD
BE1408C4
BD36256B
BEB7A9F9
3C38F077
BE61B455
3E1536DA
3DE95FDA
BE96DBDD
3E1F7476
BE703E8D
BE116533
BD2C301A
3E898C28
BD61050E
3DF57680
BD967DBC
BD45EF0D
3EA3716E
3D2E5A7E
BEE77B98
BE150EDF
3F05669A
3E87D50C
BD4B56FE
BF2A69AF
BEBA63C8
3EC4CF03
BCC42122
3E496A57
3EA4A3E9
3E60E933
BCD5915C
BE81BD6C
3D27226C
3E14C58E
3CF4CDA8
BE75C1FE
BEF2B8B5
3D1B3924
BF137E55
BDDC7891
BE08BC2D
BD468B55
3E9C5D05
3E06579F
3E2A7A02
BE971B7B
BD8B853E
3E30610B
3E52AF50
3ED6767C
BE88B1DC
BEE7C320
3EB1647D
3D643788
BE900F24
BEB03BE7
BB555359
BEAC66D8
BE0F799E
3E006473
BE6B377D
3EED4408
3D183A64
3ECB76F7
3E05E2AA
BDB1D393
3DAF743C
BE401A64
BDAE1B1A
3F07C615
BEE2D330
BDF738BF
3CFA44CA
BE94D0AF
3D90AFA8
3F11EFAA
BC6991D4
BE0505C2
BE5172A4
3C00B82C
BCA602AE
3C02FBFE
BDD2D683
BF270020
3DD1D4DF
3E528A6E
BC75D3D7
BF200DAA
3D8500E5
3E0B9451
BEB75CFC
BE9B4A1C
BD9D7406
BF1ECA91
BE14DF5C
3ECA55AC
3E48F6D9
BE40700E
3E234713
3EEE42B9
BD646865
3E8A4296
BCA6FB47
3D5262B3
3CC0CA35
3E60B50F
3DEA9E1D
3E23C0D3
3CB499D0
3EED1395
3E705AF4
3F1D2C95
BDC4CB65
3DC4584E
3D9B3F83
BCC6AE55
BE0696FF
3D2A1FF4
3E33A3EB
3F15779F
BD9BEA19
BD6CF422
3CA22B6E
3E350C28
3D99D79C
BC19C249
3E9259AE
3CF9097C
3DC5DD1B
3E121DBA
3E955E66
BC7E8267
BEA7B680
BF2BEC47
BDE6F9E2
BA0F0541
3E847F7D
39B84EE6
BE43CBFA
BD2674B4
BC72D098
BE95156B
3D9BBCC2
BD62262B
BD8E5045
3E3EADF8
BC640269
3E9EAA30
BE36B5EF
BD4788B8
BE1A1DB7
3E0A278A
3DA0E5CC
3E7189D2
3ED8D98C
3EA26AEC
3E27BC03
3EC2963C
BED70289
3E7169A7
3E889B6A
BB99B447
BE8A66B5
3E629D2A
BE2F9363
3E23CB5F
3EF666AA
3CB67CF4
3E8A3CD5
BE351F15
3E9FC3B2
BEE918FB
3E87F363
3E3C1FD9
BD5EF157
3D7B5800
BF123443
3D3986EF
3D892FAA
BF12E0CC
BE82CA4A
3D8C4D10
BD0D4753
BED98456
BF1641C1
BE965B8D
3E3F1486
3E4D1001
3EC3BF06
BE847762
3DF971FD
BEC3DA7F
3C2CF145
BEFB962F
3DD885E9
BDF208D3
BF2DAAD7
BE17E2E7
3DA6E85A
3DA2ABE7
BEA4B428
3EA59ED3
BF20F2F0
BDCE0A6D
3D927E06
BB7BB0BB
BEFC1B91
3E9E9B9F
BE21A16D
BE922709
BE21BEA6
3D837FC0
BD3ED0D6
BE4D5616
3F35BC50
3E9B55B9
3E931526
3E3A09FA
BDC567CD
3E1EF927
BED22341
BDF0773E
3E84CB38
BF11B98C
BD32BE94
3EA0AB78
BF08C996
BD6755EA
3D798A1A
BE1B0DA5
BE14838F
3E3EA1C8
BEB21F77
3E642DCF
BEE92D3E
3DA3CAB5
3EE7BFA9
BDB82E52
BDEBF852
BE17EF87
BC1C0CBB
3E1E4B7D
3E01DD86
BD0345AD
BE68CC56
BF221D04
BC8C9FE6
BE695FEE
3DF41A09
BBE4B912
3E9989C8
3F007D27
3D355D4F
3DABBD74
BCC2DA5B
3E546B1A
BDA86C2D
3E9ED504
BEA5E7A3
3EA7F4B6
3EF658F0
BEE64A71
3E34AE49
BCCFD6CD
BE7FA9EF
3EA98927
3E839A1F
3E4CF631
BE83C80D
3EABAFEE
3E5502F5
BEC3EA18
BD49F351
BEA02B22
BE8E3CAA
BD5D0AC5
BD93BE9A
3DCE5422
3CCF697A
3BB22E7B
BE53DE17
3DB83CE9
3F00631E
BE190B94
3D9AAAE3
3CD32F5D
BF1C6AE3
BDA9C3F0
3D893373
BF253E20
3D2A7430
3E7A6EFF
3EA17D2C
3DCE4A07
BD311625
BE157F94
3EB569DB
3F3C1214
BE82CABA
BEC1F35A
BE2EBEEB
3C70FA94
BE6526C6
BF24A496
3DD02A06
BEED546B
3D8B95B5
3CD40F71
3EA18B93
3E8906C3
3ED2405B
BD5E14A3
3F20E234
3D3F9AF6
BE9171B7
3DAC7F41
BDB10990
3EEC79F6
3DE3C419
BE8FEAE6
BF03E947
3CBAA5C9
BEEBDF85
BD78059B
3E2872FF
3E64042E
3E373B1F
BE349953
3F05AA49
3DD70916
BE87DD0F
BE0E8DB8
BED608E4
3EB73383
BDCDA3A1
3D362B25
BE00A7D2
BECC910D
3C0E1A2A
BB7C52F7
BE028BFC
3EE372A4
3D9C99B4
BF082A19
BE852210
3DB145AB
3EDB1D8A
BED4FA2A
BE9FFE76
BEF4A1C2
3EA48674
3E18E4FB
BE756721
BD0139F4
3E087268
BE0424D5
BEE6E9D7
3E9160B6
3F0FCEA4
BD006B05
3EF47B82
3DBECAD5
BE68FFE8
3EECCD55
BF426A68
BE7C14B1
BD81CEB6
3E354328
3DD35351
BE563E0B
3EBA34BF
BE07ED88
3DCA521C
BE441141
BE6BF9D1
3D8A70F0
BEF2AAA1
BD25154E
BD4EA770
BE23125E
3D919E37
BDC66DDE
3E441177
BDE103D4
BE68B729
3E1DC0EA
3D94A4A0
BD354D7F
BE7BD1F8
3E437D9F
BDA2AF47
3EBCDF90
BB84AAB5
BDDC823C
BE28450F
BF158E1B
BE2FF499
3EA48EF1
BD9FB5F8
BEB163B9
3E4B3183
BE4409E5
3E389B57
BEDCAC53
3C9B5C01
3E5D4023
BE3FF24F
BE4D4A28
BD0A4914
BDE9075E
3EBBEEC9
BE330CC0
3E27D4C7
3E309880
BE0D2AEB
BE6CFEF9
BE7A21B4
BE7819D8
3CEC1456
BE9483B4
BE31C3CB
3DC47F27
3DFC8465
3E2204DA
3EAE5E1D
3D00A3B1
BE824DE6
3E5E664F
BDD9BE14
BE839DE1
3DBF5B10
BE2656B9
BE59F20F
BF0B52BA
3F06331A
BD713FDE
3E55C46D
BE8D16BC
3CC464A4
BE320643
3E1725AE
BE47E15D
3BC02BBF
BDDF6C06
3E158E07
BF0A0320
3E8ACD21
BD060101
BF68E8CC
BEF8C920
BF36C9A9
BE771F66
3EE96DD8
3D4B0CD4
3DF15F09
BDD22613
3E773C43
3C815FF2
3EDDC60F
BED7AFA7
BE9AD7AC
3EB88C9E
B96CB74E
BD446B9D
3E2A43A9
BEB5591E
BDC96AAC
BEE5DB93
3E3E31D2
3ECDE532
BE307EBE
BBFC9DCB
BEB589EE
3EB3A5FA
3F00A3FB
BE876267
BE84528F
BEE14666
BE775879
BE5AFDD7
BE58DCC7
BE57878D
BDB45F25
BE83BDE9
BED1BA94
BDA20C6A
BE066B92
BEC4B092
3D818209
3E4E9C2D
BD8F52F8
3E90737A
3E5C8B52
BECFE13E
3E77B56A
BEA1E0D0
BE80BA96
BBA92035
3E41FC1D
BE86959E
BEA15A68
BECF3D83
3E9B0702
BE596C7D
BDFAEC8D
BD9BF194
BDC2657F
BD8DD7DB
3ED7A2C9
BEA18427
3E13A73A
BF356DA1
BE4B9992
3F15B7B3
BE0C3848
BEDB5511
3F04F9EA
3F02BBFB
3DFC8D0B
3E9E5E23
BDED6CF6
3EDE47BB
BF07F7AD
BEC22082
3DB31058
3E3E295B
BEA408F7
3F1C22F9
BEE71FF9
3E55BFF4
3E4FDEC9
3F11872E
BDEE80A3
BD4FBABE
3AC26641
3ED57671
3D73832F
3E1B3E7E
BE2E172A
BF0BBB2C
BE26C621
BE2F3F7D
BDDF92CD
BD6234B6
3E016940
3EEDC511
3B4EF749
3E68ED76
3DE9E2B2
BD7BE8AF
3EA64C21
BCE33980
BE7CA80F
3C84EDF1
BECAD80F
3E331523
3EC4187A
BEDEC100
3D83512E
BE791567
3EF67E9C
BF20824C
BE9E50CC
BEB9C71C
BE33B87E
BCE31F24
BE81F898
BA69EF47
BE9F8F30
3DCA9F96
BE7565FA
3DA59F8F
BDBCFBF2
BD53050D
BE611CC6
3DE26348
3CBEBA4B
3DDF0930
BEB65E2F
3EA2A52F
BCCB6BB4
BE3200DB
3D673536
BD957E97
BE86A9F2
BE05A12F
BE21C9D5
BDCB090D
3EF42EED
BDD01511
BEB2DCE0
BE0CC663
3E03170D
3F0549A7
3E35FEAB
BE98C538
3E188D29
BF16331A
3D9F23D5
3E7C01B6
3DC28771
3DB8E294
BE66B1FA
BE3F8CE1
BEFC010B
3ECC6758
3CB8444F
BDBDB5F3
3E0A68F6
3F1B8442
3C870B98
BD407B55
3ED16C27
3E769EE9
3E2D212D
BE7044A8
BEE41A86
BD7291E3
BEBF9AD6
BE311B03
3D10B3BD
3F16A81A
3E61DBBB
BEBD90C4
3EA79E16
BD5BA3B8
BE66DE23
BF837895
BDEDC244
BE2C21A5
BE0B0470
3D611C04
BF023FC6
3E68DD39
BE5AC210
3E4B59AE
BE6B86FF
3E05B8C7
3C279FC2
BE8D0FD6
BE58A72E
3E07A00C
3EA89497
3DED86B6
BE9A7F39
BC09C98D
3E219317
BC382A53
BF3EEAF9
BE8DCCD7
3E89FD77
BD30CD60
3D8329B5
BEC95938
BCA62F04
BE79273A
BE8FFE95
BEB04C19
BF433FCB
3E9399DE
BD02E111
BCFB0D1C
BDFCD79A
BEBCBA3C
BE332FF5
3E0333A3
BDBA2DFF
3E1542B5
BB75F8C0
3E2836F5
3E80936F
3DD4C5E8
3C97462D
3DBEC619
BE7AA5C2
BE325539
3DC7566D
3F1DC21B
3E07FC1D
3E0FDBFC
3D62F4AC
BDFCCD14
BDE8EF4E
3CF6A6EB
3DF1EDA7
BEA451DE
3DE22F0C
BDCE194F
BBEF3064
3E5F74F9
BCBD9A14
3E91D8BE
3E02C1E9
BEE1EE45
3E52A4CE
3E02B0C0
3F0A4788
3EEB6544
BE561BD6
BE572658
3E654E8B
3C735481
BEF8E2CF
BD58A92F
BE2ECD10
BEC117BA
3D9D680B
3E423CA9
3EE317C8
BDE48900
3D613D04
3EE0EE83
BE807373
BE15AC54
BEF90954
3DC8FB61
3EB1B4C2
BE09F75E
BC1CCC54
3D316E37
3D7AE046
BA506838
3E989052
3E1F6D12
3E67BAB6
BE888119
BE22AE70
BD88B400
BF26A4B8
BE16B0DC
3EC9DA6E
BE036AD1
3E8FCE45
3E4780BA
BEBA09AE
BE141A0A
3CFA64FB
BE71CAC6
BECF39ED
BD355B6C
3E1D91EC
BEBC9DBB
3EE844D4
BF2AC6CD
BDEA54EA
3EE9B179
BE8C1ABB
3D8DD391
3F026704
BE78E482
3DF7B345
BEF23C02
3E5BC2F5
3E3A4474
BE657D65
3E2C1083
BD7D1908
BD31EAC4
BF102389
3F0BA4B3
BE2A4F3E
BE6836F3
BEDF0DEE
BE03E838
BEC6E6A7
3DDC2C86
3D994DFA
BD4D147E
BB8826D6
BDEA54C8
BE75A920
BE89FDC4
BE108D62
3E6F2E7B
3EC38B61
BE4B20A4
BEBC72B8
3EE867AE
BE7A503B
3E8E31F5
3E280B89
BE15AE31
3DF69797
3DF7BECF
3E36616D
3F4C2EEB
3E7E9AB3
BE80687F
BDD8E108
BE83889E
3DF4B785
BC9A3454
BE634DBF
BE32CDA3
3D9E1B8B
BDEABDAA
3D704FB4
3E5112CC
3DBEAFF8
BCEA8809
3E5CC30E
BE1DE5DB
3D589154
BD8CDCB5
BD0E3FFF
3F0C8457
BE8E7D98
BEF26741
3EA20079
3D91BC57
3DAC4865
3D987893
3EBDFF25
BE510E20
BDCF86FB
BE178164
BC82D248
3F073C61
BDFB303E
BEB69DCE
3EBBD1BD
3EAFBAEE
3E8645F5
BD3CF600
3E8947CA
3D988A1D
BDB8E839
3EB9FC3C
3E6B329B
3EE649E0
3B958578
3E825EFE
BF52CF14
BD513AFE
BE2C14BE
3E15EA79
3E7D464F
3E193166
BEA92A9C
BDFB95BB
3ECCF30A
3E0D390F
3DB8B04D
3DB188BC
BE28E0D1
BE931B95
BD68B2DC
BE04BD3F
BE3EF508
3E7C00A1
3CB81017
3E15181C
3E149EB6
BD949782
BE1DD302
BEC20748
BEA954F0
3F0CE4C6
3E576F85
3ED3D281
3D2A086D
3E94F178
BF260CF5
3EE6DDE9
3EF7B31E
3E053EC1
3EF9CDE4
BE3D9003
BECC0F8E
3D10A9C9
BDE79D83
3D3EDCC5
3C7C2FF2
3ECEC6C5
3DCA5F75
BBC6B1D6
BEA3D195
BEF9EBC7
3F034205
3F19963D
3EA2567E
3E2643E4
3E41AE1C
3CE68850
BBF444F6
3E507EDD
3D802A62
3D83FB0F
BEB7C13C
BF263A1C
3D426AD4
3E51A774
3DE623E1
BE24B282
3DA37409
3EA9CC93
BEABD26B
BE988757
3E39EF16
BE873ED5
BCE917B1
BE035265
BF262B41
3E86F259
BE418151
BEFCA90A
3E8C34BF
3C88EF17
BE947FB1
3EF8E7F6
BED8EDA1
BEEB09C6
3E30BAE0
BDF716B0
BE2B5D35
BF3F5FDD
BE352AE8
3DB78296
BBC8AEC5
3E1AAD9C
3E8ED1BC
BE4A0061
BE26C1A8
BCBA0CB6
BE415BA5
3DBE15AD
BE61D397
3E23E796
3CA8CA14
BEA4BA62
3E73DB9B
3D51166B
3D816920
3EE021F9
BDFAB16A
3E6488BB
3D9AAD90
3CD6A690
3EF03E4F
BE8BCBCA
BED30CD2
3D7FC164
BE74259B
3E16C1A1
BE958B41
3E3CE27F
BE729A53
BCEC3A25
3B883FC0
3E4E5B25
BE38A547
3E1E4399
BE1F39D4
3C18D559
BF2B091D
3D963D5F
BBF495A9
3D417553
3E664924
3C7ED5FF
3E31F553
3E6135E3
BE31F7C1
BD6C9496
3D6F2600
3E28AB89
3E996DA7
3E516FEB
3EE23A46
3E191F4E
BDD9B738
BED5867B
3D87B2EF
3E31ABE3
3EA494E2
BE962D96
BE4AAFF5
3E3DFA66
BE2065E5
BDD67C5F
3F07D19D
3E986926
3D2BF902
3CAEACDC
BE914C9A
BEA5F3AF
3DC40774
3E82055A
3D2AE925
BE40B20A
3DB694B9
3DA494D9
BEEB2096
BE6F503A
3D0C1B9F
BF38F292
3E59BA46
3DFB9F31
3EDD3694
3E10C9D3
BDBC9495
3EB33D62
3DA542FE
3E98CF28
BE90B4AC
BE8D4B4D
BDC22E43
3E1DF1D1
3E8110B8
3F11FC41
BE491942
BDB338CD
3F14ABD3
BECCC391
3D4BBB07
BF8F07AD
BEF37460
BE479CB9
BEAA19D8
3C9BCE8D
3D1D4380
BE48A96C
BEA44002
BF055883
3E59E2E5
BED41E5B
3E0136D8
3B462797
3EA0DE8C
BEAB74B9
3E92312E
3F134D42
3E06B883
BEA39FA4
BEE43E71
BDD8D05F
3EBD5EF4
BECFAD39
3EBF2794
3F1452EE
BEEDEE25
BCB6B690
BE1496EE
3E273ECD
BEFF9387
BC0BF582
BE4B91D5
3CDA2235
BE0A8D61
3E853977
3E24F332
BF3EA413
BEBFC8EE
3DB68602
BE7E2686
3E17647C
3E3B40DD
3E5CB95D
BDB898C8
3EB26BE1
3EACF510
BE8D25EC
3E173261
BEA17714
BE456ABA
3E230FAC
BECAA9AD
3CB2559D
3EED9887
3E3A1DDB
BC8C391E
3DC94B64
BE99D911
BF69C333
3E9D959A
BBC45DBD
BE183EDA
3EA5E75D
BE22E4A3
3EBBEA93
BEA663C6
3E6090C4
BF4D5DFA
BE118E0A
3E0DF712
BE85D490
BE0C7D51
BE9E8E3D
BE7B984E
3D53F7A9
BE3FE762
3E83703A
BF13F89B
3EA750D6
3CB7CEF4
BE597FFA
3E92ABAE
BD1E4499
BDFBF610
BD21B77D
BDC84E0E
BE365502
3E30B3F4
BE9D2B1A
BD530B02
3E39A945
BDDC5CE1
3F03D4BE
3EAE1F6A
BC0F9757
3CB7F3A7
BE8B42CA
BE1F73E5
3DC9B4FD
3EDAACBB
3E247847
3E7F8B59
BDEA8CDF
BD99F8E9
BE555396
3E4438BA
BCD0E85B
BEDD119E
3ED08898
3D2E065E
BCA5E598
BD09552E
3EB1D77C
BD6CAF91
BF12A798
3DC754A3
3ECA0B6A
3E7E28DE
BE72003F
BE6AB22E
BE6E9150
3DB97957
3E5930E0
BD71EB3A
BEE29DFE
BEA16446
3EAB1EF4
3E1E872E
3E221441
BBFE70F4
BEC8B1B1
BE1B1ED6
3DC15273
3E23A185
3DB16774
3E8C5FBE
BED10796
BD3EA057
BF66D469
3E1A4256
BEB912FE
3F2FFC89
BDA15ADC
3F0A4E92
3D53AAEA
3E3481D5
3F23962B
BE9F8B49
BE526BDB
3EBDDE75
3EF4C5DF
3EFC2051
BE8B6BA3
BF15732C
3E4EAC8D
3EE444B4
3DE9C552
3D2B95EB
3DC94FE7
BC46EC18
3EB36B0C
BE3462F1
3E6EAF62
BD5999CF
BE3AF6D0
3DABF39E
BC909B4E
BF0A1780
3D910388
3E5FB23B
3DAA9D1F
BC0F0A4A
3D9A5DC2
3E0E0C55
BE288E35
3C8F24B1
BF2B1E4C
BEB0ACC8
3D1450E5
3D935663
3D8051A4
BC033BCA
3DF19AC2
3E852D5B
BDF5FA96
3D373A84
BD52A699
BCA2AB81
3BD64F98
BC8CBA23
BD77E936
BEBF85AD
3C9E3B19
3E80A601
3D0E3EF3
BD970680
3EA47247
3E79F24D
3D376435
3E45E91D
BEAF1718
BE99D7D1
BEC6F693
3D9CC925
3DB7697B
3C97EAFE
BD6AEA5C
3DA819DD
3EA6AFE2
BE83F0DA
3E4D3526
BEACA657
3CAEB2FC
BD1C9AEB
3EF53BAB
3ED3FB27
BED78418
BEABC009
3E2B01D0
3DBC45E4
3E2B17D9
BE2C318E
3F11273C
3EC0BD11
3F02BAFA
BEA2C1B7
BE8B58F0
3EB07722
3EE13464
3E587249
3E9AD22C
BED60BF2
3EAC81F6
BE8AF94A
BED5530D
3C6D0923
BE6AC00D
3BD35466
3E1192E5
BD989146
BF0D4C80
3E5AA005
3E3B678A
BE1870CF
BE30A9D5
3D533E99
3D14F46E
3E4FD613
BE9815A8
3DAF9EDB
3E156939
3EA3049C
BCD4016F
BD955DC4
BD84D2BB
3EA0C23A
BDC57AC2
3D6EA61B
BF1C8ED0
3D145A42
3E062F78
BE2F6451
3E493772
3E6F799B
BEF9E68B
BE1AC4C8
BBC28C97
3E9B0E21
3D2F8670
BEF2BA62
3C4521E8
3D374B46
BE8BDBDB
3DBA039C
3E953D92
BD29A865
BCB963DA
BE89AE80
3E9ADDBB
3EA12508
BDC40A28
BE4E2B97
3C64186E
3CB44521
BCE7A7B4
3E1E7976
3ECB7BCE
BE61A296
3CF1CE54
BCDB5A13
3E9A842E
BE99A660
3E7A2407
BE28823F
3E0E8A94
BE49A0AF
3E9074AF
3D47E255
BEB76571
3E5EB42F
3DBECC2D
BE84CF9D
3F032FEF
BCF91E39
BF03A56B
BCD4EFBC
BC1624F0
BD6B9D9B
BDC862B2
3DB36B59
BE47AACF
BD9EC6A9
BE80B357
3E710C17
BEA3BF11
3E122FDD
BEB9C4FF
BEF1E92D
3EC7984C
3E877F78
3EC0A680
BEA0FD94
3E97C292
3E1FD646
BDF33FE1
3EC72AA3
3E632D7D
3E8186FB
BD6EAD78
BEC752AE
3EB62943
3E01E11D
3EA2B641
3E273B02
BE1F6654
3C594BB6
3DCA6495
3EE99A18
BE512E02
3E6850FB
3E0FA53C
BC1C8F8D
3E79FA6F
3E60E07B
BE001E1D
BE248481
3C6C8E3E
3E51EF89
BE58FD35
3DB68598
3E03A194
3EB86158
3D13ADE5
BC0DD2D1
3F04556D
3D20F66A
BE285568
3EF91A8A
3E620D3E
BE6F7E97
BE41974A
BF28B2F1
3DFF7724
3CC3C39F
3E03AEA7
BF142224
BD51FCA5
BE2BC34E
BE9D546F
3E61B12B
BEB1AD24
BE1F5765
3E6AE8FB
BE8B9825
3AA00CA5
BC497306
3CFEB8D8
3EC05E35
3E14BA5F
3E8EA945
BD986531
BF05FD36
3DC08193
BE43D80E
BF56147D
BDDA6FAC
BC8D905C
3DF51CBE
BE970610
BE14BD2D
BD89C61F
3C8CEDDF
BF06A6B5
BDE5888F
3ED67906
3B5BFFF1
BDC40D13
BE7F4D19
3E93C37A
3E9A077D
BE5CE1F0
3EFBA973
3DE9A67D
BD359556
3EAC707E
BDF15DFA
3DDFD043
BE92FD46
3EC472CB
BEA23E65
BEAD4818
BCDA5190
3E468053
3DB5323D
BE19D030
BD36C935
BE880E2F
BD206F67
3E1A88E3
3F11A82E
3E8A2417
BDC9E3D5
BEC5BD12
3E2C8AC3
3E03D3AC
BE4F3662
BC3F60B3
BB9E91E6
3E83A658
BEA4C8C9
BF096C4F
3EAE9C10
3E4F1F25
3E9F39DF
3CDF5AFF
BE8558DB
BF008D02
BCA4CA95
3ED463DC
3D276EF7
3E064E26
3E129F6C
BE16EF2E
3D844DB9
3E1503D3
3D44F3B5
3E11C856
3CB837AA
3DAFF55B
BE0BB640
3D739876
3EC7947F
BE9AAA9B
3E83F6F9
BB7B9994
3C5EF025
3E67E8E8
BE4994F8
BE7963C3
BDE99CCA
BC2FAE99
3E444C37
3E18C1F5
3E523340
3E177324
BDD46292
3ED793AF
BF00B360
BEDDB856
3DF44B8D
BDB4D662
3DEEB3AA
BE80CCB4
BEE639B6
3D060555
BEF76F8D
3C0BFB81
3DBCE2C7
3EB148DA
3F01F658
3E57F99B
3E6B1F6C
3DD22311
3E15A839
3B8B4F3F
3E422BFB
3CF6433E
BF23F86F
BD9B682D
BE998376
BF055253
BC81CE7C
BE69819B
BC8B217C
3E476395
3E490693
3EC66ABF
BE166876
3E019D77
3C2FE3E9
3E1859C0
BC6A044B
BE66B971
BE7EF20D
3D56623A
3CCF758E
3E959582
BC83D161
3E12E2A0
BE366DEA
BEEBF750
BCB6112F
BDE82C87
BE2232B1
BE5B3510
3DD366C9
3D0894A1
BECBD823
3F10D3EC
3CA6217D
BD8970A9
BE030162
BD9C2668
3E4F865F
3EB205F7
BD2D9E29
BE4AB8DD
3DE90972
3E899EDF
BEA702DF
3F059421
3DC290C3
BD54C1FF
BCF0DBEB
BC59CA36
BDEAB1FF
3CCBD764
BED524FA
BB073CCB
BBDD5962
BEC3EF60
BD4E8A57
3D94DCF1
3F1CF18E
3E41EDD3
BD50F91F
3EB8B552
BD8AD3F7
BED223E1
BEA404D9
BE71ABFD
BC4EFAF0
BDD129E1
3F3AF742
BE1C43BE
BEDB5237
3EA98AD0
3EE766DD
3D31EAA6
3ECECB15
3D10DEE8
BDDA857B
3C9FF690
3E9E5AA3
3D7EFD99
BD3E63B6
3E86FC1D
3E780E7B
3E1E0330
BE818AD6
3D4B7544
BD9B8259
3D8A7530
BEDC4FC8
3EBC09DB
3E2E17DC
3E85B114
3E92D048
BEF4DC3B
3E9CB0DA
3EC8538B
3EC19766
3D9DD362
3E9F6E0A
BEF31B2C
BCE83B5D
3E28DC8E
3E7C9ECC
3EC44CE8
3E00D3E0
BEF5D740
BE2D0391
BE56F6F2
BF0D248F
3EC86F8E
BE8507E9
3D180F96
3EA75810
3E493ADA
BD26DCEE
BE3C6157
BD907BDA
3E1C943F
BD22BB03
3E79096E
BE91502B
3D7B3599
3E097A08
3E2218CC
BEBAD9A0
3EC516EA
BEB06238
BE9A83DA
BB578868
BE883CC2
3E21D0AD
3E6B11A3
BE0C0336
BE2A1691
BE66D568
3CCC13B5
3DC00C7D
3E9C4123
BDE7CD9C
3ED2FA1F
3E3D2CA5
BCADA50F
BD7EC71B
BE363CB5
BDB9554E
BEEB632E
3E48A594
3D1F952C
3D75A390
BF087A51
BEC9C253
BE24F752
3DF183D0
3F2052B3
BDA86B0F
3E507EBD
BE0A55CA
3EAAD537
3DB24C53
3E7E7D89
3E91EBE3
3E31677C
3E901381
3DAAA574
3EF6D1A2
BD8C15E3
3EA56FBC
3F26B691
BC7790A5
BEF783FF
BE9C807F
BEA572EE
BE94EF75
BDEA37AE
3D44F17C
3EC0F1BB
BE9FB0A8
3E227477
3E181460
BE0E12A5
3D4CB93C
BEB52826
3E593893
BE9D6C68
BE98E5BA
BD150962
BDB1B02E
BD9347F8
BE8D7167
BDAA90E5
BD556809
3E97F4FF
BE263741
3F126423
3E49288A
BDCC1B51
3DB41BED
3E936809
BCD75DE0
3EC53BD0
BF03329B
3E44A7A8
BE47299C
3D5CF02B
BF318AC1
BD6DB5F6
3DE33521
3E0E4846
BCD3DBCA
BEFAF2E7
BE5C2B84
3E452CED
3DA60A3F
3EDAA5F1
3DC17EAF
BF34ECC5
BE72FB12
3E4F7C6D
3E81CB77
3E1DE85B
3E7FE29E
BE18D7F2
3F365958
BCF73EAB
BDF9A36B
BD878F3C
3D2882B3
BD75EE81
BE8D0E25
3D6BC560
3DA533EC
3D8A344F
3F04E1E6
3E2D4888
BD7028FA
BE2C1EF3
BF561A41
BE726085
3D6454C6
3D174165
3CCEDB5A
3E648874
BE870276
BEDA28C6
BE052371
BDC7D510
3E0E51FE
3BBA9324
3E1906E3
3E0621E0
3E074B34
3D963AA9
BF38F746
3EB63C76
3E921207
3E720B5E
BDB0020F
3E8B7094
BF12F491
BD1A511C
BEA21FD8
3E5DC1AE
BDE56CF0
BDFD3350
BE05CA0C
BDBC507F
3DA14E20
BE5262CB
3E8A0FE9
3DA80881
3DB01B61
3E6F6BD0
BE3705DA
3D7DF55E
3EB74894
BF33FD15
3D46EC83
BDD79C49
BEF45557
3E397CF7
BCC02FA0
BDE28DA0
3E8FAB28
3E38DD8E
3E91ACFA
BDDDC4B3
BE2F2F9E
3D92133D
BECA9C48
3DD5E79D
3EA18D46
BE0DC4CE
BEDC67CE
3DE29CC1
3E822FD1
BECC9E0A
BDF3F906
3EDA8BFA
3E82446B
BE203DF4
BCDF2697
3DD94CDB
3DF47EA5
BD82DDB6
BA2C99D1
3D134069
BC66DD04
BF359A9B
BE05F04C
BEC5D012
3F13B6D4
BDE0835A
B977D209
3E558CAA
3DF20F45
BDF7E7CF
3CBAF640
BE13966F
BE45A0A5
BE58C477
BE1614BC
3EB935F9
BE141134
BDB1B833
BE5F8F83
3F08E274
3E121BA3
3D00EA73
BEB4B67C
3D8781A3
BCB0AE74
3EA608AA
3EC45439
BDE61BEF
3D842D80
3EC8ADCF
BC42BF42
3E02DB74
BE4E40C9
3F0AD16F
3E8B7C24
3EDCF2AC
3DF1B95D
3CD1E0A8
3CA6F06A
3DFD3373
BEB07C42
BD7C3B95
BF001641
BDC8591C
3EDA933F
BD257C0E
3E400F30
BE06D006
BE10B535
3D67593B
BE8656D4
3E24D663
3E065B43
BDF8ACAD
BD1B3317
3E2247C2
3EB3B56C
BD0EDA53
3F1EA940
3D65A0B6
BD48207B
BE915B14
BE225D4A
3EBED24F
3E481990
BE20D8B5
BECCFF81
BE8B998A
3C518B99
3DC6D626
3CEC23CA
BDABFF6D
BD3FB4E7
BDB0A36C
3E2CB597
3CE04C46
3EAF6E6A
BEB4DD82
BE446576
BD0AF48B
3E95483E
BCB13D75
BF3034B4
BD17B5EC
BE7604D7
3E8FEBD7
BD4B7A17
BD92760B
3F10CD74
BD45A3EC
BE9D345B
BEC801FA
BF037DC0
BD7D17A8
BEE8C471
BD78AC87
BE83C40D
BE062321
BE164F8A
BEAEE47F
3ED81FB3
3DB791A7
BED23FDB
BE36BDF9
BF6C3B80
3E832FB6
3DF6DBB2
3D1B1351
3D79A525
BF092BAE
BD6CD4FD
BEBA5978
3DF9B591
3E33D2E6
BEBF8958
3DA5E341
BC988009
3E7F06AB
BD4ABAC4
3E029F90
3EBC0C78
3EF8E681
BE82A679
BC53C829
BDD60C38
3E767725
BDC6B122
BD580164
3E757F11
3D85D064
3ED783AD
BE417A9A
3EE29370
3EC0215C
BC6A3A71
3D1833B3
BE707B24
3E79564C
BD9D1165
3DA1EF0E
BD00AEDC
BEA70314
BD3D1A68
3E9E69D3
3E186970
3D3E922F
BDD7CE12
3D68BCB8
3C9201EB
3EB1990F
BD5D964E
BF7CB35D
BBCD8295
BF0F1DBF
3E15F633
BCF2339F
BE18F5E0
3D86BF24
3E9C3A9B
3EA8C906
BDB2424A
3E9EDDAA
3E9E90C4
BB9682E4
BE5F3E75
BF1CDF57
3F091E70
3EA1516A
BC26EA70
BE008457
BE9534CE
BE6AA86E
BDF2E2AD
BDE17794
BEFD671C
BE8BB576
BF04BD2E
BD999C3B
3E868160
3DB8A19B
BEE91BBE
BE8B2E60
BC604E5F
BEE8FF03
3D7BC729
BCAA64D3
BE5926A7
3EB25F0E
3E4114C3
3EB53720
3EC78F69
BD974E3C
3E66B9E9
3D1D5398
BECF89FA
3E41DF48
3ECF35C0
BD862867
BDB52CDF
3EE05635
3DAEB502
3E2E487C
BDFC8858
BEDB7677
BD8A14E4
BCC2C8E3
3E2E81F2
BD3E148B
3E5D931F
3E3849E7
BC7FC405
3E239219
3E2C3BEA
BB8C3832
BE9487AC
3DFFA7CF
BEE22453
BED3A8A3
3E73BB59
BF12F850
3E95BECE
3EEDCC7D
3E8C0342
BEFC7B0A
BE726E6F
BEEE21FE
3E142DB8
BE413AEB
BE8AD394
3E4FA7B0
BE85F6D5
BD8B39E8
3E4AB46B
3EA2FE63
BE0ACFAC
3DF68388
3EE24D5C
BE6170D9
BE2E0E27
3ECE5846
3E07706E
3E891E56
BEBC6057
BF30F05C
3E9D43A3
3D0EE5D9
3BCF1425
3F017B89
3ED4E685
BDA7C3FF
3D82DF2C
BF2390C9
BEFDFC7C
BE2E1735
3E391DB4
BC35CD82
BEF514F7
3D0587A9
BDBE8ECF
3DF4BF7C
BEE49337
3DC317B2
BE9D87AF
BF01EA7C
BDEDD3E1
BE8319E0
3E36C374
3EB9FC17
3E7F888D
BD47AC09
BEE24BC7
3ED043A7
3D1427D3
BEECAA2A
3E2F78AF
BEBC4E50
BDD81219
BDBE20AD
BDAE08F2
3DB58DAB
3DC3F10B
3E1A9680
3EB19CB6
3EA2F8EC
3E80495D
BDE739A1
BE31AF8A
3E4554AA
3D8EC76D
3ECA9599
3E491470
3E1C8423
BE2B23BD
3E920C85
BE919830
BED545C7
BED4B993
BF38575F
3E895AEA
BE701BAF
3ECED5B6
BDB0848E
3D99B855
3D980AF9
BE801DBC
BD8C8F7D
3E5EE7EA
BE6E49A5
BC7BFD7C
3EB12096
BEE68DFD
3E9C3A6C
3D1CD429
3EFB1FE7
BE7B2C2C
3DC84071
3D413A78
BEC426C0
BD83E436
BD9A0557
BF058AA3
BF122F8A
BF2F5B64
BC96AF7F
3EDF07D2
3BA356C7
BE920E30
3E2B22E2
BE6ACE8F
3F247555
BCF88C03
BCE4007B
BE37F340
BEF76EEE
3E88E1AE
3D4F3420
BEF1C2ED
3D087014
3E24A0F9
3DEE8D99
BC83C97E
3E268D7A
BDBD564D
3EDB18A1
3EF0CF1E
3EC9E877
BEB283A5
3E3B5CBD
BD54B5ED
3E121F50
BDBA3B91
BDC77D7C
3C85EFEF
BE322293
3EDA5E98
BE2A4266
BF003BC8
BF002844
BEAE4310
3E7976E6
BE8D1F97
3E0085FD
BDFE1CED
3E70F370
BEA8819E
3E49E42B
3DD85B7C
3EDC9051
3DDA2C7D
BE144C9A
BDE7F32A
3D8BB2B5
BE99A58F
BF4E4411
BE3FBC43
BEA71331
3E0FCE56
BD4C7BDC
3EE99364
3D2C7F5D
BE555697
BEBB3AAA
3D2048FE
3EEAD3DC
BD8820B3
BE86C6BC
3C25DB9C
BF008B06
BF099E28
3E9F2822
3E040B10
3E92E055
3E0833CE
3EE23004
BE8415F3
BE88BB43
3CBAB48C
BD4E809C
3EA10D67
3B12EEB0
BEE6B04A
BCA9A45E
BE92518B
BE2593CB
3E8D3F30
BF22AC55
3E97DA24
3F04A2EE
3D619249
BED096BF
BEBCA69D
BE4366E2
BD960CA8
BE5FC62D
BEBCC16C
BE4A2B0E
BE66EB35
BECAF4BD
BEA040A7
BDC6BA78
BF56C5AA
BD9822C7
3E2FF7D5
BD502FCB
3D9CC4A0
3DB1C31C
3D4802FC
3EA9273F
BE891924
BE0AD785
BE894E5E
3EAF2689
3D8480F9
BEB8F0F5
BE8A55C6
BECF99E4
3DEEF5DF
3E75705C
BD9B7A42
3DBA9B33
3E7CF779
3CA0A851
BF2BCDF2
3E14B80A
BE6EFFF3
BE3CF988
BEC0B9A1
BDAC39E6
BE66DC07
BEAA19B7
3E8C2C9B
BE7599B1
3DB67A41
3D1C9476
3E89C8E9
3EADE60E
BCE644CE
3EBCE2AB
BEBEB2BB
3D382DDC
3E837A0B
3D18D7E6
3E3357F1
3DE3EAC1
3EF95241
BF166E4F
3D8F7AD7
3EE0A253
BB4BF790
3E46FE27
BE3C6576
BE47CB2C
BB7ED5B3
3DAF8594
BF0CF9D2
BE85101F
BE9DF807
3DA1B998
3EA022AE
3ED6D7A9
3F0D9B17
BF0D476A
3E008855
3EDAA53B
3E583F9D
BE8C2C4F
BDB7761F
3E90EE9C
BE080B71
3E0CB72F
3DBE01AF
BD966FC4
3E3AEAE8
3E0C7770
3EE11947
3E96F99E
3E0F9ABA
BDE52C98
3D0DA3C7
3DEEA850
3CB71F56
BC9402FC
3EDF8884
BCE0A80B
BEB74EAD
3C9C5C32
BD8FAEA9
BDE7F8A4
BDECC005
BDF9467B
BE2A7F2E
3D60BC10
BF3F0E83
3C19B8A3
BD6A6FE3
BDEBC311
BEE7CEAC
3E58F4AB
3E133D42
BCFB544F
BE0CAAE1
3C7C4E0F
BE04C315
3E17933B
BE741556
BDBCFB07
3DC5ADC2
BEC19D7C
3E883A95
BE3BAAAC
3DB4E98D
BECC071E
3E51C03A
BCB5787D
3DCC7891
BD96FF0D
3DD685BB
BE744EA1
3E0C670A
3EC38BF5
BEFF926C
BEE21A25
3D9B2AC4
BE9D9C6F
BD9D6AA8
BF42DB6D
3CA54397
BE91DE6B
3DAC56D0
3D245F8B
3E3E57CB
3EA91C92
3ED98F08
BED40543
BBF436C9
BE2399EC
BF063794
BCA0AD9A
3EFF2337
3EE88F51
3E78F776
3EC82DFB
3CA72E12
BF11F764
3EA8B458
BE727962
BE526247
3D3A4D49
BE985F9D
BDA64829
BD915F6B
3B4AD44F
3E8A40E8
BF1E9CBE
3DC7DCE3
3E0DBE83
BE0B880B
3DEE32B1
3DD015F5
3C662BAE
3DF59C8B
BDA0EFA8
3F0BB637
3E7482CC
3E827DBA
3E398A9A
3EA5EA18
BDC1932F
BD7D3687
3CD21556
3DAB4CEF
3B2C19FA
BE6E55C3
BD97F8B0
3F2898B0
3E59A9BC
3EBB39BD
BF22E6EC
3E080D6F
BEB4B35C
BD3B6693
3D675940
BD5A07F6
BD242D31
3E5EFFFB
BDD68676
BEA5A67A
BF155D76
3F2C7AC0
3E00D1B2
3EA908EE
3EB4CCE5
3EDA34F2
BF0528D6
BE63960D
BE930B5A
3DE0FE81
BE7E2A65
3DAA2EB1
3D8FCC5D
3C5FF9FB
BEC7047A
3EAE7070
3DFF7644
3E61E8A5
3E38866C
BE164CE4
BD85CF59
3C7462D3
3E96B889
3F0758BB
3ECDB5AE
3DD2EE01
3EBF1A8C
3CD51CED
BF56057D
BF45417D
3E996692
3E013F17
BE9F83C7
3EC446B4
3E3D2000
BC906CA5
3E22490E
BD7C9A75
BD382952
BF201B1A
3E02EF1B
BDAC553E
BCEF7091
BC753C0C
BE2243B4
BCB5011E
BDE45320
3D248E90
BE81BB8A
3E2B8315
3F12ECEE
BE7C7C90
BD75DB9A
BE294BA7
3EE10E98
3E6685BB
BEAF7479
3DE1B9ED
BDE1CF86
BD6AC57B
BD7EEB25
3E441054
BE520588
3E98787C
3EB99630
3ED6913D
3EA0DC86
BE4C2F20
3E74C5BC
BE916F7A
3E1A24CA
3EA2D2B2
3DCA7A3A
BF18D2CF
3D832412
3E632B3B
BF13F1D0
BE5352B2
BE7D7360
BE99F568
3C09BBEB
BE8802FE
3D10D619
3DE60EC7
BD0E2A6D
BDF3EBF8
BDEBD53F
BF2EE1A0
3DDC6BA2
3DEDE73D
3EBA16EC
BE584C3F
3E8140DA
BE85033A
3DFD5279
3E4EF0A0
3E171571
BE250FE4
BE4287D8
3ED0F277
3E1F2E2C
BEC8A5EF
3D92ECA3
3F054F20
3F0C7E73
BE0CD72C
3F05FD21
BE1B81F0
3E247E37
BBF9B2DF
BC878EC5
3E233AEC
3E3D1391
3DF868B9
BF3D14F3
3E979CC0
3EADD2AC
3DB4496F
BCC7CCDE
BD5E454D
3EA2D02E
BEC3E36B
BE303A27
BD8CD7BB
3D74E601
BE5F1FEB
3EF037C3
3E980F81
BE6C9F0C
BEACE561
BE8BAE39
3DC4411F
3EA725EA
BF0CCC97
BE9D0594
3DF4EF0B
BCD03B6C
3CB20BD1
3E0C5637
3EE3ECDC
3DC56A53
BE5A112F
3ED86058
BEBFC2CD
3EE637A8
3D9491CF
3D767F05
BE2CB062
BE781B62
3EAEC2E5
3D67BA69
3D3F55F4
3E54C5DE
3CF577E1
BF3DA005
3E337550
3CC85087
BDD4226B
BDC8B7E8
BECBE0BF
3CCBB779
3E3BA39C
BD18DB36
3EF9EF6C
BE0D4687
3E8F8039
3E44518D
BED8EFD6
3F26AA4F
BE44FCF1
BE87D4A0
BD925EBE
3E6FC0E0
3EF6B9EA
BE5009E4
BE40CA71
3EA12A0D
3EBC269F
BDF3F664
BD693124
BE0BDE79
3ED93375
3EADEFF4
BEE80F10
BDB47F28
3DA804C4
BE46A6F2
BE6898EC
BD859CF9
3E8A7E55
3E9E0313
3D250AEF
BE818757
BF43476F
3DF17440
3B2B748D
3DBCFB6E
BDC18469
3DE44BA2
BDFFCB03
3EBD4E11
3F07938D
BDBF4666
3E183214
BEA6D9B7
3D1CBD5D
BD487F15
3E29AFED
BE1C9C63
3ECE8D0B
3B93F682
BE07B114
BEE1D80A
BED16D31
BED19021
3CFA8D2A
3E4C836A
3D9771BC
BD6A2555
BD3CEACF
3E681D78
BE9C91C6
BC6B4451
3E10E1F4
3E5F252C
3E3BE656
3DAAB9C5
BDBE8CEE
BE4D732E
BF2576FC
BDBAA536
BE455894
BDDE2A32
3B9EBF1D
3DD8BEA6
BD16D27A
BE04DF82
BD5AD85E
3DC1D5B6
BE1C968A
3DDD1A8F
3E45E004
BD9FABF0
BDA8FC97
BDB2B960
3EC01E43
3DDB8744
3EF3F8BA
BEAF4600
BECD1837
3F119C5B
BE2722CD
BD81D354
BE744AD7
BC43F69A
BDFC10BA
BD594D6E
BE2EB6A8
3D19612D
BCB2A17D
3E2C3A5A
BE3F6FFA
BE4E2C4E
BDAA445E
BEDE7B67
3E947310
BE42AF86
3E2C9E66
3EC731C5
3D039DDC
BEC8ACF1
BEB57C39
3EBACBCB
BCED4EB8
3E4D83B8
3E3EDE1D
BEB615D9
3F1468A4
3E2C0009
3ED86312
3F1FF640
BE418A4F
3DDC471E
BDE112BF
BDB65166
3E75C27B
3E2A2AE6
BDAC7020
BC18F5C5
BF295E6A
3E1DFBC3
BE9EB7C1
BEBEDE86
3E45BE6B
3F1106E5
3CDBDDC7
BE236C74
3E52A46A
3E88FC08
3D75B4C0
3C8F3939
BE41E8FD
3E6FE933
BDBB2209
3E8542BC
3EED7B81
BDBAB54D
BDECB5A3
BE0C23E3
BE2609D6
BD1B6D6F
3C89B845
38852B4E
3D659375
3EC40135
3E7F8572
3E22AE33
BE4311CF
3E7D2DDB
BEC4FFE1
BE45F0C7
BD65AB73
BE4A0DB0
3EB4CA29
BCD1DE49
BE8137CA
3E224C23
BE0382CD
BE08E0DD
BEF120E0
3E90496D
3F0B80CC
3E559EB1
BE2EBE3F
BDA4A859
3E799987
3E2C8D6E
BE8BC976
3DE663B0
3E62C884
3E2543E8
3D8105F9
BEF19B87
BE86C603
BE8246BC
3E9BF127
BE5AFFBF
3E12BACF
BDEF0CBA
BE652B5C
3CD3E0C3
3EFE7BA1
3D9C9AD2
3ECFA349
3E2ADC0C
3B7DC96F
3EFDB385
BEA6ED35
3E140027
3E68C28A
BE485A7E
3D5E9A62
3EBCB533
BECC0726
BDEF4C16
3EA5727E
3D0FED89
3E9C47C7
BE9121B9
BE446A5F
3DBBE11E
3C445F60
BE9F3A26
BE505316
BE3D4F4E
3F42B6EA
3D9CA3D0
BE87C11E
BCC9EBB1
BE2E7F85
3F272EFD
3E8D2280
3D8866B5
BDB6B987
3DDB48B7
BE91623F
BE7B747A
BE150485
3E3FC0A8
BF32A267
BF471D0E
3E405283
BE8FAD43
BD17A843
3DE4A50A
3DCD8E26
BE71D507
BF672BFB
3D52077F
BDDC7726
3D903B4C
BE18BB15
BE15B8B0
3D999948
3E0B9942
3DF62C05
BE5C2C1D
3EAF6113
3E306FF0
BDB2E0E4
BE2DC60E
BE426BE3
BE3ACEBB
3E85999B
BAA2552A
3E0FA124
BE8CDF59
BE9B99C4
3F1015BC
BE48489E
BE129278
BDE4A1DC
BCA62386
BDDE40A1
BE805962
3EAF4D79
3E808E09
3C2DE0EF
3C93AACD
3DB84C98
BE7FF8BA
BE034BB5
3EF3B65E
BDB326BE
3EFEBCF1
3E094AA5
BE45B7F5
BEA1E1BA
3EA218C1
BED12846
3EAF2183
3DDE735A
BBFF4789
3EAE1F14
3EBAA0B6
BD81AC4D
BE941697
3EF42D0A
3CE2FE78
BE70A707
3E528A7A
BED87CBA
BE32EFF2
BE47A691
BEA7019F
BE25C51F
BC208D3E
BE5604CE
3E85C337
BEA833BC
3E46C29F
3E221090
3BC40B32
3ECD6782
BE1AD847
3EDFA860
BEB809F4
BB626667
3ED5851F
BF614E23
BE4F1627
3E373BFF
BEA3466B
3DDAF956
3E758FA9
BDEEF5A7
BE4DCAFB
BED5A6F5
BF192A84
BE749E42
3E6C5154
BE01008F
3EA4E9F4
BF015AA2
BE8D15B9
BDBE7DD9
3E0C1A99
BCC04139
BECB1250
BE6D7768
3C54CB3E
BE05BDCE
BCDBD747
3E47B6A0
BE8CF0E4
3E24277B
3E46146E
BE8A1FFC
3D185B3E
3E125E0F
BEA78EE9
BEF0FC08
BE4550FB
3C951EB6
BDD27892
3EE3A4B7
3CEC57D8
BF03C9D3
3E41CBD9
BD299D02
3C8F716D
3E4DFF81
3E0779BB
BEE9456C
BEE846EB
BEA703CC
BE4A91EA
BE1ECAF5
3EAD92EF
BEB4134A
BE803478
BE983065
BDC07148
3E2EEC05
3EB11283
BE33D21B
3EC18BA3
3C44544E
3DDB195E
3F0ACBE7
3C590C36
3DA27F49
3EB12DD8
BEDD9909
BDC98CDB
BE4CB7ED
BE9B9458
3EBD8379
3E724F6A
3D8C28FC
BF08F592
BEAF33E6
BD340C41
3EACAA05
3E1A9FFB
BC999D86
3DE27ECE
3EE3EE33
BE2A7C80
BD9D1E35
3EA3AA0B
BF00A565
BDAB818E
BD8D3B55
3ED3DFEB
3C8B9671
BE263BE2
3F419C2F
BE48ACF6
BEDE791F
3E99A478
BD708698
3EA43B72
3D8E2C7F
382FC885
BCBD5668
3E21EB64
3ECC4E16
BF04C14B
BE5BA7A0
BE4B6233
BE8C3142
BF010D30
BF2A7E8D
3E65234C
3E7FF17B
3E7E3AFE
BD8DF826
BD0368EB
3E6EFB39
BEE7151C
BCACAC06
BF15D284
BC47F212
3E50CEAB
BE3C0EFA
BD31555D
BE929DA8
3E9F0EED
BF0E4A20
3D5B0971
BD835594
BF04AEF9
3E21A0C5
BE243BE1
3E7A9112
3D9F2A94
3DA9E87B
BD487453
BDCA9277
3E88893D
3F04F5EE
3E7D6B46
BECD3E62
BF0845B8
3EC5C530
3E6BB6EA
BD9FBDD0
3D8BDAB7
BE74632B
BE4853BB
3E6AB659
BD6901E2
BE142AEF
BF0DF434
3EBAA4A1
3E36EFAE
BEAC13E9
BE217648
BF1C1E63
3E38AAE9
BE34108C
BE4C6837
3EAF188A
BE889502
BE156A38
BED4B081
BCA3EB92
3EA98051
3E453138
3F1559AA
3EB49694
3E7B141B
BE4F965C
BEC0096C
3CE865BA
BCE991F5
3EBDBC24
3E9CADBE
BE5D3FFA
BC3B0D9D
3D471281
BE95C64A
3C826AA4
BEE38B33
3E23ECB8
3E14491B
BCBB052A
BE36A4CD
3E3D6E50
3EB0D1ED
3DC42DF9
BE9480F9
BEEF4C78
BEB0F0CD
3D07239E
3EEF65F5
BCA0AAC0
BE8142E8
3E1CD6F5
BE29C8BA
3CDFDE47
3E88FB6D
BE68013C
3EECFE74
3C389DF6
3EC2EEFE
3E271858
3BBDEDF7
3E8898D6
3D9E1145
3EBAF9C2
3D042434
BDF3E822
3DA23102
BE2CCA90
BEA410ED
BE956525
3D3D7C62
3E4C98F4
BE6B75D2
BDE29C2C
3F09E942
3E2DFB63
BDFAA4DA
BCA706CA
3E565F8D
BEA2462C
3E8D887E
3E95F797
BE9EADB1
BE32C7CB
3E6839A3
3E8F2080
BF36E9F8
3EAF22E0
BEF3A94C
3EE77E43
3E84BC18
BE37F6DD
BE94DB68
3D0F422D
BDE3BC8E
BF270161
BF4FBC0B
BD065EBF
BE87E314
3DB1A79F
3E902067
BE82B6A3
BF1A1689
BE05E225
BF341632
BE34629F
3E199A92
BCB5594E
3D0E0646
BEA42549
BE2B5FEA
3E34FF70
BD782FAC
BEB58D87
3EC66C2D
3E3AF5DF
BD36D32E
3F11BFE0
3E5607B5
3ECB5935
3E904391
3E0CAA3C
BEDF424D
3E5E3D26
3EFACDB3
BEAE5482
3F2EC26D
3EC8E73A
BEDF1C1F
3E61F9BE
BE31129C
BD5CFAD2
3EC767D9
BD93251F
3E891C05
BE8ADAA1
3E25290B
3D5608EB
BE45FF27
BEAC87E6
3E2C14F8
3D9F4D53
BEC48F7A
3DA86D3B
3EA33833
BC70D56B
BE9E778A
BEA263C9
BF084954
BE69C4BC
3DB3D32E
BE883429
BD097DEB
3E96DD87
3E734C1B
BC379E1C
3E10BC7F
3E7B3115
3BF88892
3E13C76D
BEDF6557
3E61D7AC
BEBF4FFF
3EA2DB54
BE93B2CA
BEB63361
B9F949D8
3E23D81D
3E2B7883
BE4A1695
BE0BAD5A
BEE3B375
3EB5F0B2
BECBDFFB
BDEFBF0E
BE3852BB
3E7F17E7
3DD93778
3E3C90D1
3E790C4A
BE0C892A
3EB8E020
3F2493E4
3E32DD42
3E0E8002
BDF67634
3E4FE07D
3D2F5CAA
BE0570C7
BE18430F
BE2A51BF
BE100409
BDDA4CCB
BE8CE089
BEC65C59
BF2F2922
BD92BAD1
3E9284AD
BD94B734
BE9D0C92
3DB05F7C
BE56884E
BE9582FB
3F0E698B
3EA162E6
BDC2AF3D
3E051E3E
BE2CDB0E
3F000085
BB373FF3
3D6E0003
3E8B6892
3D75BFAD
3E25DF76
3EA0800B
BE9DA0BF
3D6B617D
3ECCB148
3EDFBD0B
3DAB9611
3E9C2837
3E56C3EC
BCEA8F66
3DDAAD6F
3E274CED
BE38458E
3EC65C7A
3E9CEADF
BE90A0AD
BCCA5F3F
BE0E231A
BEA276F1
BDFFBF31
BD42497E
BEC1BCEB
BE7C4D08
BEBBCEE6
3EE6D1C2
BD9CD42F
3E21EBDE
BDD15A9B
3CEC9B74
3E524234
BE00A3B1
3DFC0CB9
3C1C5C4C
BEBA3E1A
3DB9FD07
3E93833B
3D8A4FED
3BDBA62E
3E5EAA54
3CC620D1
BD48B510
3E9D868F
BF03FFAE
3E0F2758
3E1B15EF
BDC70435
BEA4FB4C
BEA88D01
3E5470B6
BE6462B4
3E31842D
BE9F9F85
BDF3AC21
3E9B58EB
3E7B5564
3E428EF9
BDF14D7C
3EDB72C1
BF1A4562
BEF1D932
3ECE7FBC
3E768B3C
3E2EE9F4
BE5FD008
BCD0B041
BD69B6BB
3C5289B0
3F03B533
3D860241
3EB68180
BD97D919
3BBA1149
3ECD5CE0
3D3F876D
3E266E32
3E9485C2
3D1E4E21
BE1EC1E0
BE3260D6
BEC339C9
BE3A4424
BBAA2A0B
BE72A332
3B0CF6F4
BE1C8E0E
3F075BA4
BEA857CC
BDC50F26
BEC4D38F
BF11ECF7
BDC34B61
BD196836
3E14A3E0
3ED23EB6
3EA23C13
3E337CFA
3EA228D9
BD478F89
BDBF2381
BEA77496
BF38A601
3E0874F9
BE425636
3E1DFFF4
3E927FC6
BE53F8BA
3E9C449A
3C7A17B4
BE5B174A
3EAF6597
BEBE2730
3F3CCC2A
3EA30DB5
3D22E906
3E58605B
3E1518E8
3EB67A0C
BDC4933D
BEB7219E
BD4317A2
BEEF7C6C
3DC8B7B1
3E847A53
BD1D4EC3
3E598B2D
BD29DBA9
3D807D0F
3E6DA446
BCF682E4
BBA32660
3EB082B4
3EF10BB7
3E54CD80
BE6FBF27
BEF03DC2
3E3A423B
BE9B2185
BEC8DCA3
BE8ED36D
BD92F19F
3ED01F83
BE3CC81F
BD4F840F
3E7E1D7E
3D8BCCF7
BDC92F89
BDED06D5
3D3BD5F7
BDB46A18
BE2149BA
BE678D3C
3E94D766
BE571374
3F128A24
BE427D65
3F3AD024
BE839982
3E9C373E
3D52E5AE
3E3C82D9
BD8C0325
BE928816
3EB62C0B
3C6159AC
3E07EFA3
3D973AC3
3EA9AAA2
BE988795
BE792343
B976DB13
3EFD7556
3EC09BE9
BE6E8FCD
3E5D560D
BEEE236E
BCF09925
BF4B5B8D
3EED4734
3E1699DF
BE0D2EB0
BE77FBDD
3BABE8FD
BD956D58
3EDA1E38
3E4ABB6C
3E07B2E0
3F3539DC
3D725E09
BDEAA090
3E7CAB9F
3E6F41E7
BDB42FD7
BF24D964
3CA35B24
3E9439C9
BD274F80
3EC56113
BE9D489B
BE19C97D
BED9478D
BE81FB9D
3D897FC1
BEBA3971
BD5F46E8
BE874110
3DD0DFA3
BF346B8A
3E827CEC
3D3BB90E
3D875279
BE8FE3ED
BE91F624
3E01D5DE
BEC24D6D
3B5F5E75
3DE6528A
3EA2A3E9
BE0B62C4
BEEA8BF3
BE1B504F
BDE71F17
3D1B5C32
3ECECDD0
3E42241D
3E85BCEA
3E92CD66
BCE7541D
BD1362B6
3DC90E14
BDC1533C
BDC2FE05
BE7773AF
BDD327E8
BB47487E
BC90166E
3DA2F31C
39A94182
BE3FE0C7
3E4EE4E8
3E36972C
BD0F18D7
BE44DB2B
BE393773
3E10761C
BE5C987D
BE974A0B
BEB5267A
3EA0CD8E
3E99A4C9
BC95E97C
3E35CA05
3ECC5E77
3E88E0A7
BD0A6742
3E0AA041
3F076BB0
BE5213ED
BD670ABE
3DB10C5D
BE42F6D5
BE8546FF
BDB1641B
BE22C3F6
3DE3264C
3EBA0EFB
3F09514F
3EB4529E
3E1655E4
BF2D7FD2
BE4A9280
BCE6613E
3F140263
BDE4286E
BEB62E71
BDC59B8B
3E95AC24
3CCF9077
3DFB0932
3EBFA607
BC2027E9
BF1CE84F
BE51FA67
3E120C04
BDBEB400
BE833A93
BA363CBD
BCABDC5D
BE7D40A5
3E33776C
BDD3E0D4
3F0129AB
3EBEEEC2
BEB338B9
3F015F03
3E9135B7
3DDA6679
3EFA6786
BE90C3E1
3E00E113
BDE66F62
BF13ADE3
BE9A2A4A
BEA86060
BD17CE30
3E955AF9
BE5F301C
3E935C01
BDF5E9FB
3E6466D7
BE2621AC
BF120F6B
3E9BE947
BBCAE719
BF1C6FFD
BE03090C
BDCD80C4
BECB5CB3
BE80B7D2
BD8EE510
3EF4403F
3EA748DF
3D9B4371
BE7827BA
3E941FAF
BCA2423F
BE0B938C
BEEE9EB2
3E7173F3
BE381FC5
BEC20F14
BEA00A8C
BE6CAE7A
BCEE34CC
BEA37C1C
3E574B90
3D29634B
BE220D9F
BEF5D938
3D5153FB
3E83B7C3
BE8CCFA8
3E9F8E24
3A9ED1E8
3E285047
BE8635B4
3F64CDD8
BE85D244
3F027ADB
BCB648C7
BE7A0FC4
3E2B209F
3D1C4AC4
BE08735C
BC0ED215
3DC60B1E
BE621A2A
3E48967E
3E4CE0C8
3F02629F
3DAEACEC
BEC33D67
3E916C64
BE970A2C
BDFA03D6
3D853BB5
3DA06B9F
BE2CFD22
BE92EB31
BE406185
3E8E9C2C
3DCC8CCA
BD608C42
BEAFEBE0
3F047D51
BCE3E48C
BE8201BC
3E5BD80D
BE2DACC1
BDD33863
BEF9293D
3E469148
3CA401BD
BEB64309
3DCFEFD6
3E8340B5
3D493E65
3E619C9B
BDD396A6
3C550A53
3D986C84
3CBF5134
3DF10A5B
BE88165F
BDEC7B08
BE732AB6
3EC00DB5
3DFFEE37
3C3E31CA
BE3D422A
BE991325
BE18BBF4
BF0F3973
BE8A1816
3E1BFA99
BD1C9F2A
BF26A8E0
3E42B583
3E9B83B8
BE9B6DEF
BE948523
3D72F570
BC3ED7C2
BE99AC8A
BDF479D8
3D2D8190
BDA693E4
3E50AF7F
BF3C776E
3E07C9D5
3DB7F8F7
3EF78433
BDA96F21
BE949288
3DEEDFD2
BDEE8DE1
BDA50DE3
3DE7FAD5
BDA6A1D9
BD24C8ED
BEBFB1FA
BE10B95E
3DE7D1E0
BD4CD675
BDABE119
3CF5195D
BF1537E8
BE8AE6B0
BE2C6CBE
BE685661
3E5B8ED8
BEFDAA4A
BC974587
BD52DCCC
BE3C3032
BCD010C4
BEF047C7
BCF461D2
3EEFCE32
BE194C67
BF20B38B
BE3CB38D
BEBC9405
3E6730BB
BDB2AC27
BE3838E1
3E341394
BED26E4E
3E121946
3E693A34
BE69CB25
3D681B88
BDEE578C
3DA9ECB4
3C29982A
BDCBBE5D
BF0065E5
3E7DBF7B
BEDEC21D
BC945344
3E67D557
3ECD2E20
BE2197C5
BE0D0661
BE9D0CE9
3E344821
3CBDFB03
3BA23285
BE472AB4
3DEF7589
3E6389F3
BE022C4B
BAB762AD
3EDBC2AF
BEB3D77D
3ECC512F
BDA6276F
BD1E5A03
3DC22A17
BF65DE1B
3E37614F
3E231858
BF1B2F6E
BE21F0F6
BE592D12
3DAE5D4A
3E57F383
BF22728A
3EE1E13F
3E9E12EF
3DB04BC6
3E46319C
3E8D3D78
3D00286F
3E8E5036
BDFF0A2D
BE555C4B
BE84C7AF
BD90A6FA
BEB976F0
3E2D25F3
BEBDA2A9
3E5B027D
3E4FBF19
3E2B166C
3E5EB928
3E8E102A
3CE4B78A
3E31BAE1
3D5CD1E5
BE316679
BE08A92F
BE126EFE
3EAC69F6
3E98D212
3E117FF6
BE633569
3E13584D
BE4E99E0
3D401681
3CBB6373
3E3828A5
BE7DC447
3D85E968
BDEE7FCF
3E2FE1A9
3DD77D14
BE975325
BE3EE896
BEA2EA22
3D8D9DB1
3CB562FE
3E3CF42E
3EC202B5
BF04B944
3E120FFF
BE40D963
BED8DE1D
3EF157BE
3E86A63E
BEE97A79
BE28F81B
3E476ADF
3E8C69A5
3DA7CFA0
3EF39803
BE6DB2B2
BED91DBE
3D63446E
BEAE0F9B
BDF05C29
3ED23600
3D1570B8
BE1F4764
BBD6080A
BDD9B8A5
3E383F9F
3E3F3B95
BE96BC94
BE3F5A32
3CB07757
3D8CC9B4
3EB3D62E
3E59CEDA
3E19C26E
BD02D395
3EF2B600
BD1763EA
3E737579
BDC9C2BB
BCCC8CA1
BE41CEE8
3E74D543
3E4502E2
BE871A3D
BD9EB9E2
3EB427D1
BE7AE382
BD4BFFBE
BE6CE7DC
BDDCC0B7
3E46B9C2
3D921C27
BF09ED16
BE9E8EFB
BDDDCD0E
3E288872
BF1BF030
3EEDE3E2
BE555520
3DE1A6E1
3EA0E089
BEBDEA51
3E539FD2
BE00830C
3E393CD6
3E509181
3D9DB70D
3E7BA9D7
3F3268F8
3F000988
BEE21009
BED6FB56
3D82B1A5
BF087C6F
3EE3048E
BEC98F24
BE4D2B92
BCF81B80
3BB81F00
3E1571BD
BE3D66FF
3F01F45A
BC91BD0C
3E5592D6
BEECF0FD
BEDC3B3E
BE7A87FD
BA661CD5
BE0C73E2
BF232DD9
BD4CB957
BD85DF20
3C748828
3F1CFC54
BDDB723C
3DF70C55
BD06FE6C
BDCED038
3D42407F
BE6DF4E6
BD395564
3E233E90
3EBA7174
BE1B29D9
BD13DB37
3BB98877
3E1D49C2
3E20833C
BDDCDB73
BE3D9CAE
3ED82745
3EC6B107
BDECE90E
3E427D48
BCDA7963
BE66A8C7
3F0F8D56
BCA3C9C4
BD120622
BEDC11AF
3E8BFA32
BF318890
BE0C5D00
3E16EC7E
3ED6AB1F
3F424742
3C939C6F
3D0FD89B
BE718417
BE023A9D
3E3F8727
3E41F95C
BEFFEE7B
BDD1D49E
BE467975
BD6CCD7B
3E8FD56A
3E25E24F
3F0CC93E
BEFCE4DF
BEE0F712
BDA288F1
3D358EB0
BDB9A95E
BE579E0A
3EAF33F8
BE78DC7C
3F01B573
BE982A79
3DD7FE6D
BDF75C8A
BDE377F0
BEF3B5C5
BEBF057E
3EBE15AD
BEE0B029
3E4C6D80
BF077818
BEDEB095
BE96E59F
BE837891
BBE47BC0
BE16A458
3E8F7F53
3E9D6F31
3D325B64
3EF86461
3DEE2B14
BE671724
3E0784DA
3E3E9E8F
3EBCEEDD
3BE951FE
BEE0DA8A
3E5A5B45
3E7B0D26
BE0693F6
3E94E205
BD48BDF2
BDC2FE89
BDFD3707
BE44F1B8
BD50238C
3E59C072
3E7F9135
BEA4FC6B
BCE03382
3F301C79
BE0985B3
3F0FDAE7
BD03D778
BE93D694
BE438078
BD7EEB9B
3E636CBF
3DC44D4A
3E3DEA2C
BEA5B092
BE996A95
BEE73F65
3E684794
BEDCE2FF
3DEA3570
3F20E1CE
3E035749
BE40B364
BE544D25
3EC1A68F
3EC5B853
3F16D893
3DC1523B
BDA12522
BE5F1682
3EA5469D
BE6BD251
3EFBDED6
BE8B7482
3E5785C8
3E84F185
3ED5257B
3F511E6F
BC631C04
3E894E54
BE659E36
BD4D55B4
3EAFC7EF
3E2738CC
BDCAE201
3D8D7BB5
3E29CCB8
BD3B1E92
3EA8186F
3ED44C8E
3D883A62
BE4CCFEF
BEC2BDF4
BC807912
3E75E16F
BE90D797
BD0B84EC
3C9ECB88
3C200630
BEDD44B9
3D8BF683
3ED02F00
BF264385
BF080BC8
3E244853
3E13CF81
BE8A6761
3D1E5DCF
BDDDC558
3DF09ED0
BDA574F2
3EF290BF
3E5A2F42
3CE55C81
BCC5AA79
3ED2CC2F
3D872339
3E6C8F5F
3E7C7891
3D8E5281
BDEA8082
3EA45339
3EA03F6E
3F1E4B71
3EF106EC
3BAACC06
BE18A088
BBD20A8F
BEB5096D
BD19B47C
3DD59D20
BC1D8E7C
BDB6DE6C
BDC14BC2
BE164F1B
3E169014
BE388207
3DFF61B2
3E91E5F0
3EDF6B9D
BE7E9149
BF13591E
3E2496FD
3D58BF21
BEFA802E
3DCFB136
BEBD3F95
3F034545
BEADAABA
BE86B97D
BF01C1E3
3DC86D8A
3E66FA8B
3DDDC157
BE6877A3
3E35EFD7
3F14B407
BE498C98
BE014352
3DD88AD8
3D351CB5
3F2533A3
BEC985EC
BBE85DB7
BE3C78A8
BE6424D5
BE598628
3C1C2AD9
BEBF12DB
BD8F4190
3CCB2E57
BED34C98
BCD457FC
BEB51C95
BCEC987F
3E35C769
3E9F2A94
BD1A8A68
3EDFD03C
BF501217
BEE50708
3C3B6531
3D91CEA8
3E271873
3E82C72B
3CBCD4A7
3EAAC176
BEB80B75
3DF7D9B2
BEA73B90
3E374484
BD8A4E4E
BD460D15
BDAADA20
3E921918
BDC7B8A6
BE27301B
BE3FAECE
3D94EF0C
3D7CAEE0
BE6FBC1B
3EA1DCF1
3DF0DE97
BF0F25A7
BEB2AEE9
3E6F145C
BE9C44CD
3D4335F0
BE657515
BE726F7B
BE90A591
BC741D13
3E37BB80
BE497D10
BEB02072
3EBDA3B1
BE4726D8
BC8AD896
3F2C0B90
3E2A8F62
3F34A19C
3D5FE055
3EA5C32A
BE01DE55
3D3C9AFB
BED06564
BCD8459C
3E163D2D
3EAAF024
BC69FB31
3E741030
3E622A07
BF032186
3D7CD5CC
BECA0936
3E958AFA
3EEFE2F3
BDE97A14
BDB0C6F0
BECF05A1
BD51F3D3
BEB45604
BD13EFFA
3E82CAD7
3DCC1DD6
BE0E09DF
BF09A302
3EA9B4F3
BC6700AB
BD58C294
3E64B318
BD3631AB
BDCBF44E
3DC3C5FD
3E3D8D80
BEACD374
3EE37522
3EA02E41
BC8898C6
3D99B3E9
3E82CEA2
3E290AB1
3D6F24E4
BC1D676F
3F0DAEDB
BDDD7CEA
3D34F91E
BE92B2AC
3DB9C3B5
3DA3B3D6
3C50F835
BE619F1A
3F0708D1
BE86EDD4
BDC7A366
BF103A9B
3D8E9DE5
BE4744AF
3D923214
3E9F3857
3E95DD35
BBB63F2C
BEA3094B
3F0A16B4
3DC31575
BD713930
3BC9C5DC
BD24AB89
3EBD8594
BE8998C0
3DE2F374
3DAF875F
BE7F4B82
BDFF3770
3E454DC5
BE97201B
3E61F930
3E82BB5F
3EAF0C65
3EAECC86
3E8A27F5
BB91B763
3ED4A41E
BE0B9E78
BD2806FA
3D9DC7C5
BF8520AB
3D13409F
3E8DBCE2
3E96EDD1
BEA9CF12
BE2BD4D2
BD83A913
3E138205
3E895DBD
BEDFB1DF
3CB21D84
BE2387A0
3E9AE584
3E927316
3BC307E8
3DFAF243
BEBD4102
BD54024B
3D9838FC
3EF2E104
BE91C133
3CC8CF87
3EC982EE
BC95E2EB
3E86AA9B
BEA4B929
3DF30241
BEA100C5
BE3637DC
BE3FFCFB
3E448BA2
BD5FE78F
BE1009B1
3D8CB6B9
3D3D002E
3EB425C0
BE56F3EB
3F18C84C
3ED3BF8D
3DB5E5FB
BEDECD41
3E27905A
3E78E747
3D291A76
3E78EA35
BE623365
BE9625D3
3ED74ECE
BE3F7036
3EC3713B
3D816DB8
BECAD12F
3E79FFEE
3F0083A5
3DA7EE66
3E61252F
3CACFCF9
3EE30D6D
BC52B83E
BE5F4B62
3DB3245B
BF105720
3E812131
BE9AFDFB
BED55723
BF04DA34
3C151ACF
BE883FCC
3E7B5EC1
BE86EE6A
3EF5860E
3ED881D8
3E35BB8B
BD76DAF0
BE8860BE
BECB8D82
3E198B05
BE0322AD
BE784FBD
BE6792FE
BDCBD592
BF0F280D
BF072CBB
BEBA6DAF
BD9BEA51
3E94C28A
BEB6EB4A
BE171E32
3DFFDBAD
BD14296D
BDCF58D2
3CFDDE12
3DCABAE4
BE986CE2
3EB90E19
3E94F780
BD306E85
BD7CEBB1
3E99DF55
3E846AD1
3E15D1AF
3EA02A26
BE70753D
3E8BAD5A
3D818F87
BE693DAF
3EE2BA71
BEC75254
BE39451E
3F08A051
3DE881A4
3DA83906
BEE738FA
3D7BF8AC
BEEC6817
3E81C07B
3E23827A
BDF9D1FB
3E9E0CE5
BDD65FD2
3DE4104B
3D7BDD56
BD42A4AD
BF410FF2
BE80CA41
3EB43F47
3E1E7768
BE13C045
3ECF8ABB
BEA057A9
BEB260FC
BD6419C5
BDC82696
3D3C39D8
3DA6287D
3E78ED1E
B92990B3
3DCB8A9D
BE1D85AF
3E579170
3D4C4909
BE67FB45
BE17B0BD
3E3AFC64
3E48B985
BDC7F9B1
BDB14E3C
BD1B0EA4
BE0CE862
BE0BDB33
BE248CF7
BE8FFD08
BED87BA1
BD174945
3ECB3D8E
BEA8109D
3EFD8DB6
3ED205E4
3EC1B8DB
BE2778A6
3D28751C
3E80624D
BE8F2F22
3EF16A61
3C90404F
BE4B07FE
3E19D8D2
BF0FD30A
BE68DBE8
BE3B627E
3EAA7503
3E7B95CF
BCB82195
BE368249
BF113E8D
3E8F29C7
3F32B29A
BE383387
3E8A5E06
BE36E442
BE2A9658
3DF963EF
3F1E08E2
3E9A7914
3E535401
3E81C275
BE8724E3
3ECAD8BB
BE1EEA1E
3CACF287
BED86E06
3DA2ACFE
3EBA5D7C
3DC3A1BF
BDA013EC
BEADB9B2
BD9081B1
BEBCA7AF
BDB98E57
BE8B7080
BE2A3D0B
3E44DA42
3E7A0190
3E6C6EE2
BEA837BB
BE0B6B39
BDF4DD34
BEDCA947
3D0BA565
BE1560AA
BD89E86D
3DF385AC
3D557469
3D0F22D0
BEA474E9
BF110B3B
BD32EDB6
BE0B0B5A
3EEA5C0A
3CEF8905
BE18E423
BD713138
BE2B63EB
3E985F95
3EB9E3F3
BDA12C8E
BDFB9782
BE5773F4
3AC9DE86
BE5A0DF8
BDBCFB8E
3D71B1C9
BE19886E
BE4A9B65
BC8938AE
3D1069F3
BE38D302
3EAE5B86
BE0F68CA
3F12BF69
BEA1FF59
BD0BA515
3DA9A4CF
3E88062D
BE303774
BE660E91
3DC08096
3E2BEFDD
3DB99051
BE0F3B95
BE3C3EBB
3EB4190A
3F0F28CC
3F258014
BDB0478E
3E4A27A0
BDFFAD6D
BE6C6AF0
BF16B10B
3E061038
3F11C0FC
3DD827FE
BEA19ED0
3E8F8343
3C3F9E1B
BE7DB742
BF06D30B
3E3946E5
3E2EAE75
BD970D77
BCE56611
3EA35436
BE7FCACE
3EA84D64
BE79A46E
BE7B5228
3E88BF1F
3E0178DF
BCD5BBFA
BECE1062
3E4EBE85
3ED79887
3D0CAF94
3F2462FB
3C6AD785
BEB4BC01
3F2D8CC9
3D5AC182
BF24A3EA
BE0D4F56
BD4F3D0F
3E1CF311
3ED90D8B
3DC9D39A
BECDBEA3
BC9E5A6E
3D22E238
BE7103C8
3D980DFC
BDDF4D96
BD9314DF
3EAB21DD
3E303055
BE9AAB8B
BD154541
3E970F64
BE0FBF61
3ECF2AB4
3C8255A5
BCC22D41
3CE4810E
3EBEF5D5
3C9296D1
3C5B670F
3DB9AB72
BEEBA3A6
BD5183A1
3E1196C1
BECED25F
3EA87FE4
BE5A5AF6
3E0441CD
BEBD7B24
BED3770A
BF0164B6
BEA656CE
3EE57383
BC2DE31D
BF03FFCB
3DF826C5
BE2BA244
3D4299CB
BE90F14E
BEB47042
3E1DEC28
BE657841
BC7F72D2
BE0B8C27
BF3B6AB9
3EF3C750
BE4EDAC2
BE17AABD
3DBF514B
3D9B0D80
BF6CCD13
3BDA7FE9
BD0464CF
3BBF153F
3E452022
BD486EE7
BF03CF14
3E85F7D7
3EE5FE4C
BDCDF970
BDCFD7DA
3E8D00B9
3DFF7C95
BF429F56
3E51B626
BF317BC9
3D224FDE
3ECDBCC3
BE8DB9CC
BDDA6821
BE640223
BEB34A5D
3E95262B
3DA1C0BE
BBBF44FA
BE99FFA3
BF234E6D
3DA8EF2B
BE02905F
3CB98AB6
BDE2907D
3E58B918
3E447402
3E83CE84
BDE6DC5F
3EE5C7D5
3DDE4223
3E9740AC
BE5D5711
3ECEF7F7
3CFEF244
BEBC0DC6
BEB57CA9
BD6A135A
BE1CCE4B
3DF9B863
BD5284AD
BD501C93
3E73E382
3D846851
3E6CE033
3F221C4E
3DA329AF
3EBFCDD4
3EE3E415
3E98C717
BF240424
BE86D903
3EB7B2D1
3D9BFEE5
BE811783
3E7A8132
3E8B7C18
BEC5E918
3EE162E5
3E05DA41
BF075F87
BE4C0A16
3CC8B5F2
3DE1BB3C
3C5C65A7
BE2DD8BC
3E828AEE
BEBE91DB
3D63182E
BE03C01D
BE8480D1
BE8A1C37
3E41E19B
BD403316
3EB795DD
3EAC94F0
BC9FBDE0
BE308828
3ECC3A93
BE238AD4
BEE8B9D3
3D6A1611
3E0B487B
3F313CBF
3EE8F206
3E1D8383
BE226EFA
BEC1B039
BEEC88EA
BC2BAC36
BEB53A0F
BE2CE8A9
BEA6FA90
3D6D2FF9
3E44C838
3DD9E349
BE42D6B8
3D6C8958
3E1F7EDE
3E8B1739
3F2F6CAA
3F082FED
3D4146A7
BD5A86BC
3D18AF49
BCDB75ED
BE3F7359
3D3BB02F
3EDDD2DD
3E0757AF
3E8B351C
BED70089
BE4246EA
BF0BD185
3E893D93
BED999E7
BF17D292
BD90ED18
BE041658
3DBC2340
3C886737
3E98D52A
3DDFEEFD
BED68B1E
3DC2096C
BD6043E8
3DADA9CE
BEA703D1
BE939B3E
3EFC7B65
BE5366F5
3E2FEE8E
3DEF3176
BE08CB76
3EA207EA
BE0244DE
BD054559
3EB0EEEF
3D66E87A
BF01B855
3E209311
BF318FB3
3CB151A7
BC9E8AAA
BDF406D2
BD04D76D
BE2499FE
3ED74F58
3DC96D44
3ED44464
BECD39F8
BE4D52E5
BE8511A3
BEB82D19
3E11A62C
3DF59AAB
BDD6F582
3EA134E2
3D6ADCFE
3E58D2C9
3E8B9DCB
3EB617AD
3E1EFC9D
BEA3CA9D
BCFFEAAC
BED2B883
BBA8052D
3F3CB8AD
BE21274A
BDAE2CA0
3E064B0C
BD69C77C
3EC4A0AA
3EAC16D7
3EF68819
3E7944E5
3D8B6076
3E932321
BEEC1C77
3E7E52C4
BD8457A9
BE439214
BE7D9795
BE019749
3E670869
3E8D2F5F
BEA23147
BF3CE5C6
3C272DEC
3C9DF7CD
3E7C3553
3ED9EFCB
3DBAF8C9
BEA2DC57
BE0BD6FF
BE0324B5
BEF69C0C
3E5E27FA
3F1759CD
3DDF2125
3E11510A
3DBE04B4
BEB35EFC
3ED8FEFF
3E6AEA5C
3EC0B8B4
3E15EAE3
3E04F15F
BECF60A0
BE0F1F3B
BDD50058
BDBAA644
3E651BE6
BE65298F
BE80F947
3E9A97F3
3E097406
3EBED444
3E6DFE1B
3DC7C9AB
BEE05D01
BE26D10C
3E064937
3BBE7A24
3EB6806C
BE0E961D
BD8421CA
BE7A6B48
BDD3FFD4
3E58440E
3E2F24DE
3E52B0E2
3D84D004
3E825277
3E95FCEC
BED09049
3C4296BE
BC962902
BDEEE8EB
BD5077C2
3F01AE72
3E2E2D24
3DD5FB25
3E74630D
3E4685BB
BE286F8A
BC9BFD77
BD65AA9F
3E38618A
BDE3EC10
3E5A2CDE
BE7ABE83
BE40B869
BE89E391
3D823754
BE689E78
BB8BB429
BEAE927A
BDB131C0
3E9FFB47
BE595BA0
3CC9828B
BEA9A453
3F0A1A0C
3EA177B3
BE0D2148
BEDCDD3E
BED37BAD
3F0036EB
3ECB55D6
3E431559
3DECF5B0
3D25D1D1
BE803100
BE47EA02
3C670F99
3E94C8EF
BE040265
BEB2A02D
3F04F375
BDF64D84
3E4E6EFA
BEAF3E39
3E938CEC
BE67453A
3CFE5D3E
3ECB730B
BF0F5D34
3EBCEF52
3DC6ACD9
BEF00F63
BE885F9C
BDFC3BFD
3E48B325
BDE1017C
3ED75797
3F114B5D
3E2A4946
3DC6C9E1
3E6E625A
BD488191
3DCE456C
3E644F8E
3EF9AC7A
3EB6D4E2
3D9420E5
3C86FFD4
BEF7BEEF
3E3DFAF9
BE2821FE
BE7EC4B3
BEC63EC5
BE8E6B05
3EAB8887
3C1AE7A2
3DE45CFA
BEA25B0F
BE828831
3D23BB59
3F0B1C80
3E97C35B
3CD5ECE7
3EA5B1CE
BE2B94DA
BEF45F34
BD729D7F
3CD73B05
BC9499B0
3E870B0B
3DF23129
BE6B8F37
BDF82321
BDC45AD2
BD3E23F0
BDEA2993
BEDACA6A
BE98C165
BEA00323
BE6C5A8E
BF0FE3E3
BEE16FB1
BEF3B4F8
3CFCEE7E
3E99D002
BF153521
BF01586D
3E9976C2
BEA0F5E7
3E9F519A
BE8B04F2
BCF36FEF
3CEDC027
3ECB2613
3E8EBD85
BD64B2F5
3DDC691D
BE2B0691
3CA49F16
3ED5E5C0
3C541251
3E3A2496
BE60F4A4
3EBB0763
3EBAAB91
BEFE0F54
3E4A7B55
3D24863A
3E507108
3DDF84B5
3BF64F7D
BE9D9CC2
3D90A361
BE246D1B
BDAB398D
BD54F654
BDAA031A
3E57D00D
BEE057F8
3E5D92F0
BC8B9B5F
3EAE1E2E
BD9F8B1C
BECF9019
3A34A564
BE62C579
BDAB509F
BE9080FE
BEB4CE89
BBC6C348
3EE55E88
3EB05396
BD8F15C0
3F36E6F6
BD974495
BEA25D3F
BE808D6B
3E99513C
3D630F5C
3E041ADF
BDBE99D5
BE6F0B66
BCC39968
3DE2B484
3DC58683
BDB66B5C
3F0DA681
3DDF6AE9
BEC7914A
BECC8E98
BE38CC59
3D8CA63A
3D949E67
BE30B63D
3E02E305
3DB073AC
3D613483
BE1D824D
3E864523
BE829884
BF03E137
3F027717
3D8818C0
3EFB86E9
BF1C1F9F
BDA67DEA
3E57582A
BD5847B5
3F161FF8
3E0F2108
BEC1E7CE
BE330FF7
BD80F981
BE6F77FC
3E725328
3E25CE6B
3B52795F
BE4ABFA1
BD99B205
3CC21D36
3DA15C21
3EAE41AC
3E92E382
BE0C2182
3C9FCBED
BE8D8EFC
3E384E8C
3E9F6965
3F0348B5
3ECDD09F
BE46E93D
3ECA2F73
BF1404CE
BE4CAD20
BE06A6BA
BE31D802
BD9A1F7D
BE47C675
3E151999
BE8C6D07
3E8DE392
BE83EA6A
BF23C71A
BEB5F42A
BC829622
BCA7D196
BD39CFD0
3E8C8D06
3D1CFE08
3DE18B56
3EDD4A21
3DF58C58
BF026AA7
BE9D14D8
BC8928D9
3C830C34
BE4B3048
3E72B052
3CA12122
BF1AAC9E
BED61DE5
BEBE964B
3E3C142C
3E9C70C2
3D9C1D8F
BDDC3C92
BDA699E5
3E94DAF8
3D00F291
BE736A09
3E2A15CA
3E80FAA0
BF217DD7
3EFF786A
BED0B9C7
BD9D5F1C
3E2360F0
BE9C0BFC
BEA5816B
3EBCEE39
BECCC6AC
3E9A5BE4
BDF51845
3EA23BA2
BDDA0015
BE87BFEE
BDB3359E
BDE70350
BE1C8844
3E9B043B
BDF279BA
BEBD0DFC
BDDB5AED
3D14E0AD
3E17AC7D
BE08B0AD
BE0B8D01
3E4C2598
3E679FDF
3D44ABFF
3EB1C391
3E0A51A3
3CBD8363
BE98AF68
BF0C8656
3E49D474
3E560A7F
BCEF3877
3DEFB453
3D953100
3EA80360
3E63C34A
3F1C1C5A
BD582A36
BDA9B284
3E12CED8
3F41180B
BDF022CD
3E1046FC
3B985435
BD667F40
BEBB7ED6
BE82390F
3E1B5C54
BF0CBA29
3DB62080
BE97299A
3E891FEB
3EBD432E
3ED94BDC
BED99105
3E35B720
BE643D8A
3E82FAFE
BE692C46
BED6ED58
3EAA723A
3EE86D19
3DE35741
3D759A03
BE3E739B
BCDCE6D6
3EA69A8A
BE4D5FCE
BDA20EFC
3F04070A
3DEE2555
BEF9EFAC
BD503D55
3E1BD4C6
3D1DA96C
BED19805
BE833712
3ECDE374
3ED6D392
3E220032
3EBF7949
3EE6C405
BE088B74
3E294DDC
BCBD648F
BB18071D
3E74CB22
BC008B20
3E4E0A04
3E121A97
3DB931C6
3E0779CC
BED33E34
3EBEE13A
3F34DE8A
BD058184
BE7AE7ED
BEC5F5F5
BF0234FF
3C9A9CEA
BE4F3107
3DE3E491
3E373B69
3D2A2423
3DB2BCC7
3E0ABF33
3EA8BABB
3E952405
3D97EF0A
BF30C5F9
3EB0F5F8
3F304D88
BE84DA6D
3F14C03B
BD939CA1
BD8D9994
BD859D15
3EE92618
3D9D58CC
BED7EBD1
BEA56AE5
BD75F39A
3ED220D8
BEC05ED6
BF2FDC5D
BE10E6F1
3E153A5C
BD38C389
BD92A722
BE252CAA
BD93C540
BED5FFDF
3D357EAA
BEE150E2
3DCA8010
3CE36DF4
3F198A51
BEC6C7F4
BEA7A354
3E3AB514
3DB9E5DE
BD72F31A
3E4EB53E
3EA840BB
BB3B7912
BE7E5C4F
BCBFBA45
BE9E0BBB
3E308B6E
3EF51024
3E2D0ABA
3DB07D8E
3E3AA873
3D91786F
3E73BD04
BD8ED883
BDECCB0A
3D63E7EC
3E0F19D3
BE80CFB6
BE346364
BB089E4A
3F450232
BF328608
3EC4259E
BD3128BF
BE6FA9D8
BF47167C
3EC79791
3CE94EE9
BD621709
BE141CEA
3D65C8ED
3E56ECAB
BE7C64B8
BE51238B
BC37733F
BE563184
3E9ED8D8
3E42ADB4
BE104536
3E4D4AC2
3BD8F610
3ED58B1E
3D89034F
3D3CB9EA
3E85E2A9
BF0C2AB7
BE1A3535
BE94F4B4
BE733920
BE2BB27F
3DFD73A8
BEF06364
BE9B8D5E
3F05EF5E
BD1FAF75
3E49ADCD
3DC60AA1
3E6EE9FA
BEABA35C
BC3F56B8
BDE0F2C4
BDFBDE8E
3EC41556
3EBC8450
3D8804C4
3EADFEE2
BF13B4E4
3F1F1CE3
3EE22FEC
3E02BDED
3CDB61D6
3E320D17
BE0175C3
3E87A0E0
BEDEC2D3
3E32E9CF
BE4D7797
BD5D2FA4
3F215A3E
3E1669F4
3E87F244
3DC0AF1D
BE664ED9
3DF93171
BD32DEE8
3EA6EF66
BE275A35
3E0172D6
BE86340A
3CA767D9
3CA3C394
3E09D4B0
BDC3745A
BE7522FF
BE386B3E
3BC6717E
3F379BE0
BEC5FB67
BDF57389
BEC47255
3E63BECA
3E90A5CB
3D882024
BEA45220
BE310912
BEAF3A81
BE078879
3DC3D6A2
3E2A2B11
BE9E35F8
3EA96AAE
3EC5858B
3CA9FD65
BD8CC6EB
BD2B68F7
3E20F75A
3EF18A59
3DBB81E3
BF36B868
BEA95517
BDE8F6CA
BD73035A
BE2BC153
3EF66750
3EA44AF1
3E8230CC
BDA5C2C6
3ED14DBA
BBB4BCF6
BD729FFB
3EAB6F7F
3DEC672B
BE878ECB
3EAA2CA6
BE9BBD16
BE8EE02F
3E97D5A7
3E50AE0C
BDE30E21
3F034D83
3B1B90EB
BEC3A25C
3E09468F
BDF3394B
3D18E900
3E2B2D6C
3D80F513
BED0EB11
BE8D1C1F
BE31A8A8
BEA39DAA
3DE868E9
BED32F47
3E8F8FCE
BE8DD338
BD85D8E0
3DA7CA70
3D1BD6D6
BF71A7BC
BE642477
3E7EB756
BD92B62C
3EC26114
3E9A7BBB
3ECE9113
BD804E41
3E0B4C76
3EB5FB7C
3DE76F98
3EA198EA
3DC1CD93
BF203B21
3E4CECEE
3D32379D
3ED890C2
3E1A8ACB
BD288664
3E0B074D
3E59C115
3E6BEA32
3E79A50B
3D5C42A9
BE0D09A3
3DBAA7D7
3E205954
BEA03F27
BE2D9309
BE184FED
BEB23117
3EA45D75
3F02C65B
BD3E4B8D
BDF5DD33
BDA600B7
3D02A2EA
3EAF8A2C
3E73A28B
3EB5AA8A
BC1466BF
3CA7CC98
3EF561D6
3E38DBF7
3C94F8F6
BCBC3AB4
BEAFEBFD
3D06C2E8
BEEA4C6F
BEF604B6
BEAF6ECD
3CD72D9E
3C699A0D
BDA5085D
BCFE1D0C
3ED5CEEB
BE8F463B
3E118162
BE3713E8
3C36F0A2
BE2B586B
BB8D5741
BF25EF9D
3EE36550
BF3877CD
BE548C32
BEEB3F1F
BF2421C9
3EA5C73D
BE4C3D7D
3E8C3C40
BD91BE3F
BDAE1502
BDA6F64A
3E65E82B
3EB29FC8
3DBC4F96
BDBEE641
BEE8313B
BE698D2E
BC41D4CC
BF0AF094
BD4CC31C
3E56FC31
BEBD8F38
3E8E753E
BD575519
3D9FFB99
3E925E3D
BE45647D
3ED56636
BDF126C0
BE39C3A2
3E1C1BB8
3DFDA118
BEE1B246
3F11A152
BC2CB9C7
3DDC188F
BE12BD0D
BDBBE57B
3DC42A02
3E9DE9A7
3F09376A
BD76DC0A
BD662ED1
3E93910E
3EF6AEA1
BDEB5ED3
BE8B4578
BBE4CBDD
BDF202D8
3D126B92
BD8DC468
3DFB4A2A
BD316F03
BE171740
3E062E9C
3D7A4518
3E47C5E1
BF1C05F6
BEB655CF
3B5B3749
BE4A35F1
BE2BA3F9
3D9D86ED
3DF1861B
3EA328C1
BE0ACAA3
BDD7F024
3F1C8ED4
BE441776
3D9CFD51
BD8375F0
3ED46EF1
3D86FFBC
BE9336A6
BD6F8C50
BE19EE66
BE483739
BE80D2DD
BDB14CA8
3CC8EF68
BE250F45
3E8732FF
3D30E093
3EB4E3C4
BF006877
3E215030
3D674DBA
BE89C708
3EA689B3
3E0DECD7
3E938306
3D2E52AE
3E36D0E8
BD9C8361
BEB75FF9
3DE9E75E
3DE44167
3E0B4B09
3E7DA7D9
BE5A66C2
BEC59B3C
BEA158FB
3F3B89C2
3D2F2A04
3E6500D3
3E283BCB
BB8A824F
3F067927
3EDA04BF
BE50513A
3E43FCC9
BDF3D02D
BE4C0009
3DF44A02
3D188149
3E3E71A0
BE9C4410
BB8A6D57
BEB37672
BE1D5238
3E696A53
BF45F604
BC74A52E
3CFD390B
BDA4251F
BD866A5E
3D6C9E03
3D7CD5A1
BE3AB041
BE83DD72
BDDF92EF
3E6CDACC
3CCD7869
3F1E563E
3B592042
3E840428
3EF41328
3DC332E3
BCDE80A4
BEC51835
3E8EB48D
BE0B54C2
BE818E5B
BDEB9361
BD22F048
3E1952F8
BE6993F3
3EB0777A
BEE13BB4
BE3546B7
BE5E5E31
BE4B7558
BEC379C4
BEA83B71
3EA6CE1E
BF06705E
3DAFF8A4
3EFFB595
3E89D640
3E88459D
BE1BC96F
BF18AF25
3EBE7D81
3E96BDC8
BE97D7F4
3EB2BC9A
BEBE7A46
BE18B377
BEAEA875
3E823BDE
3E51C41A
BE3327F1
3E240310
BE2CD0EC
BE8D0F75
BE34683F
BECA6E24
3F00E0DE
3E9A99CD
BDDD1D5B
3E36AE82
3E31162C
BEF38086
3D8434DE
BEDD9875
BE9DF13E
3EFD4E30
3C5A0900
BE396C89
3E6DD343
3E8CA95E
3EE1C7BD
BED4F798
BE3C8E14
3E018971
BE85FE84
3ED20B8D
3EFF4EA4
3ED376B8
3DE64703
3CB6F1FA
BD402204
BEB38318
3DE103C1
3E5DC975
BE6A8BCC
3F23D263
BEA69EB5
3CC9BED6
BF1722E6
3E81A1DE
3EA82317
BED32434
3DBF9C90
BD667316
BED63469
3E0D2B65
3DEB3B9D
3E4D83F4
3E3D6371
BEF08E24
3EA555C3
3E204619
3E397D75
BCA7E42A
BCF70718
3D59CCE0
BE0EAC57
BDE506E9
BE149FE2
3E852ECA
BE2CF844
BE8ADC44
BEF989A2
3EDAFA8D
BE4208BE
BE4E1F6A
BD99D7B0
3E6716B3
BE88BB76
3E570E2C
BE85D495
BC82EA6B
3E07F554
BF3CEFB6
BC285076
BEB4FF20
3EABB60C
3ECCF172
BE42520D
3E021E2A
3C48C561
BE514C7E
BE716420
3E3879DD
BBB11AEB
3E413965
BE51CB0A
BE7AE0F6
3ECC52BD
3E347010
3E498A1C
3E117824
3EE5FFEA
3C41A795
BD427AA4
BD01D8B5
BE1FA11F
3E756C1D
BD24E814
BF0CDD23
BE4EF57A
BD84434A
3ED99BA0
BE53CEA0
BE3AEB05
3EFC6583
3EDB983D
3E712C8D
3EC40BA9
3CB803F3
BE813DB6
39F5E16E
BD1715C9
3E1A8E6F
BF675F9A
3F011392
3E8B66C5
BC55B2E5
BEBB3090
3E84EB63
BD85A3F6
3E1DBAC7
3E92B4FE
3CBEFC5F
BF3B42C3
3E30491A
3E99998B
BDFAA98C
BEB216DD
3EABB4CB
3EB7682B
BCD37BB8
3E0DBAA5
BE888ED7
BE80D39D
BEF7B8C9
3E8FD334
3E2F23D8
BEBC4C9C
BD50DDF1
BE2FD745
3E8EE021
3C77AC29
BC9C799E
BEE8A1D3
3E615230
BE787DBC
3CCFB184
3DE2111A
BE1DD29E
BC562FE2
BEB9B2F9
3D25D4EC
BE3E001C
BEB7FE83
BD3779E4
BC63C9B4
BE544CF7
BEA23E1C
3EC8FD36
3D958AEE
BDA51305
3DDEEEAE
BE8E1438
BE728A1F
BCB0AD9D
BF1854E6
3E74E891
3E25D647
3EA9FA51
BE1C9368
BDF8E6DC
BE518434
BE639782
3D2AB197
BEE337A6
3CD5C26A
BED2EE99
3BB527EA
3DDABBDF
3D89825D
BDC28CDF
3E09F156
BDA8FD59
3DCFDFB2
BDFAD8EC
3DECA693
BED0C082
BE459065
BE8CC3E1
BCA3A145
3BD3FAE9
BE390E3C
BE624A14
BF0D84F6
3E0C4751
BE2280B6
BD33C28D
3E84CE48
BDAD94D0
BDD9E9A5
BF1B13E2
BD04A5F2
3CECBE95
3D4AF7BE
3C5DF9D1
3E572D0A
BC9C7470
3EFD2464
BD8B12EA
BDD935D3
3CC4BB81
BE38E3F5
BEA763BD
3C9084D8
BE43D839
3F0B5AB1
3E441B35
3E473AAF
3E09B021
3EA99720
BDB3B6F9
BEE1D122
3EBDA6F2
BE36BB89
3EA3919C
BE6DF91F
BE1AA242
BD8D380B
3E3EE5B0
3E3FBE16
BEA2D281
BE60630B
BDB4851F
3E477087
BB455102
BE94446A
BDF00875
3E0B238E
BEA7B57A
BEA6E699
BE72C7E0
3E5CC380
3B80111D
BE4778B1
BE1A42D8
3C58C99B
BED6DE6A
3E288FFE
3E9F9D72
BEE34029
BF3794E9
3E5B68EE
3F222DAD
BF1AF500
3DBC309B
BE1224EE
BDA69A2B
BE3500FD
3E3CDAF3
BE2CEB47
3E89CBD3
BD68B8F7
3EAB8CA9
BEAED89F
3E94DFE3
3E5CCDB3
BD8455C3
BEE6E6B5
BE8E13D9
BEBF1AD4
BDE71129
BE44E8CE
3DDA3BA6
3E5F90F5
BED6BB87
3C86A810
BF129D9B
3E413ABE
3D3BE86E
3E6E1403
3E121AE5
3EE4C5C0
BDDA217B
3E9555FF
BE38E544
BC94ED17
BDFE4538
3DD20447
3C9A09BC
3E67373A
BEBD5E42
3E4A45E7
3D38AD10
BDF671F9
BEC3A7D3
BEC8D5FD
BCA98418
BDA63C8A
3EDE61ED
3F0A942B
3E00B58C
3E9180F8
3A6461EA
3E35DE02
BD67C7B8
BE55CE7A
BDA9DE49
BEBC0F9F
BE093AFF
3E8B4EB3
3E0919ED
3D5F4ADC
BEC74E5A
BE397935
3E8379D0
3E5A3566
BE17F437
BEABC2F1
3DA41B1E
3E057CD8
3F282573
BE4CEC36
BE968D6E
3E05547D
BEDECA56
BCF371E8
BB202956
3E787553
3E64E494
3E3380E4
3E3BED80
BE0C4D9D
3D07A03A
BEA47E50
BD21AD95
3E0A59BE
BD82CB7E
BD68835A
BEBD7F9F
3E8D3CD7
BE2A628D
BE92EDFE
BEED1348
3D04125C
BF1DBEFE
BD10556D
3DAA6D00
3E43400B
BD2E4AEC
3E424E12
BE84FCD3
BE952C98
BE953766
BF0807D0
3EF1D2D2
3E76F5C7
3F3DCAB9
BDF33672
3EE3C3B2
3D7B7BEF
3ED481CD
3E2BD9D7
BE89DD9C
3E9A74CB
BEAEF8FC
BE8F5325
3E8789E5
3F019C9E
3E76F686
3EB4ED3D
BC9A4E90
3DE76459
3E15864F
BE954617
3DA25475
3E1293A0
3DBDA1C9
3DD3450B
3EFBCBED
3E8FE7E3
3E96D4D5
3D369BBE
3EE97BAE
B9AC555E
3ED30205
3E0B2AB5
BF0805A0
BE6CE585
3EAC62E0
BF161707
BE701026
3CC22E18
3F07A6F8
3E033D12
3E248123
BD242A47
3E2B221B
3E3B559C
3EFA7E4F
3E720980
BF35291E
BEAE71C9
3E4B5E23
BE9166AB
3D7C95A0
BEB6E9F8
BE006950
3E8D08A6
3D31998B
BE54E592
BBEA0CCF
BD92087D
BDA0956C
3EA605E4
3E10A5F2
BEA5B3EA
BE7B82DB
3E6AD718
3C390EF5
3DBC552A
BE07D740
BCF61E25
BD82CF83
BE250B8E
3D88E646
BE8AE689
3E54E82C
3E27DB1A
3E1EBF43
3DF28E0E
3F0ABE9F
3EA30F14
3CF9A6A0
BF2D33BD
3F036DE2
BD6D6328
BECA1BDD
3EBE3359
3ECB3DB4
3CBD18F5
BE1F7B73
BEB40B1E
3EB61125
3CDF113D
BE8AEBCF
BEE23DB2
BE2B8C83
3D106DB4
3E23EE31
3E8688B7
BE115A84
BDEF4353
BE5C9DF1
3DC8C2E1
3E1F9A7C
3E2F82A1
3D20A5A5
3CC7C6E4
3E21AE44
3E876794
3F2F7737
BED7EF57
BE28BD9E
3E322D91
3DE19B3B
3E6D358D
3DC761D8
BED1CC22
BE7ACDD5
BE71A60B
3E432544
BE436493
BE61A41D
3D824834
BEC5FB8A
BE817FE9
3D312333
3EAEDF4A
BEC10B82
BE77D488
BCACC3B8
BE9CC7C4
3F4D70A3
3E37DB37
3E0B188F
3DE8A512
BEDE0557
BD9D7B43
BDA0AFD6
3E500CCF
3D84C144
3E816275
BCE62000
BE3FAA59
3EB220F6
BE166E03
BE449E1E
BF3343EB
BC9A0B49
3ED4DFF4
3E1E11B2
BD9936E4
3E3511C2
BE389AC4
3D44ED02
3EF6345C
3E3D0E2D
3DB3DB62
3D20099B
3EA5017F
BF579F87
3EA0F01E
3F6181F2
3D289052
3E01456A
3ED059E0
BF2D3F50
BDB11D77
BE0518AB
3DA1A667
BC45BA3F
3CE494C5
3B83DC6E
BCD4FAB4
3DEE671C
BECE79B6
3E47078B
BEB4ABA4
BE168880
BEFC3255
3EA5562B
BD878FAC
3D51506A
BE41E3E1
BE6F9FBE
3ED8E535
3E4D7C92
BDB2A7C0
3DD97682
BC994FD8
BEDE5676
3E2FBAD8
3E246C57
BE591DF8
3C8EAB34
BDBEB886
BF25BA9C
3E100148
BDF60DB1
BE1A6111
3EACB08F
BE73132B
BEE45BCF
3E9D8DF1
BE89541E
BD8BFC3C
3E40EA85
BEA1F3FB
BEBFA4B7
BE8DC8A5
3EA18F63
3E4AE5D4
BEAE76E1
BEE12839
3E5AA1CB
3DAB6B6F
3EFDA9F3
3E643ED7
BEE68AC2
BDE7A1B6
3E55F096
BC950C11
BE99B717
3ECB0F1D
3E1DEB38
BE6FAE5C
BD8F0AEC
3E691AB5
3E8A11F6
3EBB5CA4
3EA601C7
BE919C94
BE3F1865
3D0B6737
3DAE0454
BED3F440
BF1D02AC
3E5970F7
BE70D807
3F1294CE
3C880FEF
3B86984B
BF51159A
BEE6DF66
BE95532C
3E796E2F
BE105C34
3E295F02
3D844131
BE2B9CAF
BCB009A3
BEA5F343
3E909789
BE6B58D0
3E3414AF
BEB6FD95
3EF2D4A0
3BC2769D
BDB0D369
3E5050D1
3D49CC8A
3C2F3A96
3DA08D69
3E1FF39E
3E0D3797
BECAF7A6
3D53235E
3CD4A62A
BF1765C7
BD936D7A
3E08506A
3DDB8681
BF310584
BEC0D2A5
3E633D5B
3E96DC45
BF0576BB
BF067F52
3EAAE324
BD371896
BE98718F
3DDFAB07
3E462637
3ECC95F9
BD7BBDF9
3D9923D8
BE35EA96
3E2BD8BF
3BE9202A
BDE96C7E
3CA7FAEB
BDD78507
BE949C07
3E18731B
BE2DE066
BDC5FE70
BD6628C6
BDB4705D
BED37831
3D682ABF
3DFB0594
3DC2FA73
3E2412A8
BDFC0CA1
BE6AF7B1
3AD635AC
BE10D3B5
BF1ED603
BD57C6B6
BEC576E0
BEA3451F
BCE369E7
3B8F97F9
3E8B0925
BF11C177
3E200BCB
BCEDE185
3C61257F
3ED9A98B
3E0580FA
BD957820
BD8680C4
3EE44DA8
3D4F6810
BE5B1C25
3E89572F
3E9E6DDA
3E1386B4
3E281A0F
BF1E58BF
BD7D51AD
BC867341
BE68DB7D
BEAB2239
3DC3A46A
3D961760
BEB195C0
BD9429DF
3EEA9992
3F06BF32
3D8444E9
3E13C2F1
3EB0732D
3D920D1A
BF0D08B1
3DBD2FA4
3E21C3D6
3BCAB962
3D8F8FE8
3E52057A
BF27C35A
3F09A5E1
3E6E0A44
3CA79F3B
BE4CDB74
3E2396C1
3D412E56
BCC026C7
BEBDDB05
BEAB96C0
3E4E78A0
3E1E4410
3DD5D756
3C9BD29F
3DFD539E
3DEC0EE8
BF384254
3E6778E1
3D4F1C76
BF46D1B4
BD6E8AB0
BE59EA7C
3D38C90F
BDAFD095
BE77D721
3E7C3F42
BDF705B6
BF05775F
BD0E0C83
BD9E1999
3EB70330
BE0B7A3E
BE1D8662
3CCE5A20
BF23357E
3E822BAA
BF22CF32
3EA2B26C
3E6CB0D7
BCD6804F
3EDB6984
BD841AE5
3CE8AC57
BEFC6D85
BD01B1B9
BD669AF2
BD2F616A
BE14276D
BCCED5F7
BED5117B
BE490532
BEAA00F6
3F245B60
3F0F8B5B
BF0C15A6
BDFA8CC1
BE5D5823
BDE797F9
3CFC900E
3E6F80E5
3E53AD86
3E83A7F3
3DA5F51D
3D6CD462
BE61B44C
BF087EDD
3D413AB8
BD69CB33
3E30A4B7
3D922A3E
BE82B2AB
3EA8B947
BE035524
3D53B8BF
BD8DF0C4
BE265538
3DD7C197
3E677808
3E2E2450
3E02E8F0
BE94458F
3D01061D
3EAFE467
BEEC2023
3E5F9E73
BE7AD7EF
BE878D93
BE269939
BE6D321D
BF142B41
3E5DAA13
3DC84B5C
BED45D9E
BEE591BA
3ED42833
BE71EF3B
BD4D82F5
3EDE6C81
BE8AC1FB
3EC72B22
3E526246
3DA3AE24
BEB01CB6
3E2994C4
BE8ED7C5
BE5AB2C5
BE0F7746
3E093E41
3D70F23E
BF402FA0
3C321BD1
3D9D6C09
BE440C99
3DBBED5B
BECCAF2F
3DD12623
BED6D719
BDC51600
BE7389EF
3D4FBCEF
BD261A1E
BC4708D3
3E60507C
3C9F185F
BC242ACD
BF26DAAA
BB90148B
BEA6CCB5
BEBBCBEA
3D2ECF9C
BD650D73
BECC22F8
BF02569D
BCBF9A14
3CA752E5
BE401FAB
BE9F311A
3EE95CAD
BF39B913
3E400A63
BE176707
3EE0BF07
3B98C9E6
3E2DEC7D
BE07B581
BE454D99
BE389E55
BE05B6C7
BF0DCBE3
BD1BFBEF
3DEE174A
BEC3FBA2
3E490F64
3D827402
3C85AB40
3C9053B0
3EEF4401
BD478FAF
3E4D62BF
3E103BC8
BD258045
BE8ADDA8
BEF1FA70
3B4A45DF
BE55F46D
3E00C591
BEFFDDA0
3D21FEFE
BDB698C2
BE10FBA7
3F3CEAC3
BEB25E20
BC2EB76E
3DD10745
3CA552B0
BE39E99E
BE60E27E
BD31E710
BDE29DD9
BD96C07E
3EA3C859
3EB41E06
3ED390A4
3F042AFC
3F00EECE
3A828DE4
3E7DCDC4
3EB04D58
3EBF25A0
3EC62C88
3E0D1885
BE2FB42C
BEF6FEBC
3D95F935
3E7518DF
BE25234B
3E255BA0
3E758374
BE29718D
BE15284F
3DBAEB34
BEC776E9
BDA77A38
BEAD5867
3ED0E79A
3DB3683B
BD7E253F
BE12BD14
BE583347
3E3294A3
3F350681
BDF6CB6B
BE2C3A1B
BE2517F3
BEEF5B8A
3E5CB74F
BEB6B1F7
3EA9C916
3E082118
3E21CD6F
3ED01FF9
BEAC3BD4
3EB2780A
3C5B8309
BE40A317
3E27BC0F
3F0BDF2B
3E3E1BE0
BC179075
3E22D22E
BDE3A881
BF1CFDC6
BE983576
3EBBA2D9
3E7FC78E
BD8BBBFA
3F11E036
BEAF78A8
BC14B1DE
3E923E15
BE00A502
3ECC0F7F
3E1237C1
BDEF04C4
3D105235
3ECAA39D
3E0B059B
3EB38F6B
3E2FAFCA
BE51B185
3DFBB935
BE11BB92
3E6317CE
3E35F75C
BE9E871F
BF2843AD
BD19F831
3E3C9874
3D31A6E4
3EBB779F
BDC8167E
BF68AE87
BDC3A22A
3DBE7BCF
BD9A7528
BDCF5B2D
3E33604B
3EB377A0
3E345123
3EA566E2
BE4F74AF
3F0BD2D0
3E19DDC8
3E9831BB
3F0BF2A0
3EE1744A
BE861A15
3D576841
3E86F65D
3E700D2B
BF001FD8
BE85FCAA
BDABD21E
3F0D3A75
3EAFE63C
3E478CB5
3CEA89B1
3D8C1955
3C33B25F
BE59329C
3EF995A3
BD2A5876
BA4C804C
BD5F7498
3DA7B62D
3DB28E1F
3DA741B4
3E27443E
3DD89E0C
3E7F7D1C
BE7009C2
3E5FF9A3
3E1883E6
3D66FD85
3F0183DC
BE0EB5A2
BCE6D14B
BE523425
BE39487D
BE9921DB
3D968256
3ECB00C7
3DE37875
3E4D2F93
3ED58A37
3DD045A5
BE7CA251
BD108AF8
3DB9B79A
3E480109
3E36E7CB
BC6EA133
BE9C9E5C
3E806C9F
3E861142
BE33FD0D
3D78D889
BE21BDF3
BEC9FB30
BE0400C9
3E55FE73
BEC8E0F0
BC18B1DD
3E5FEB6C
BEF8AAC3
BD629838
BCC4C20C
BEE7E990
BDE2313F
3D895452
BC5C1493
BEC36507
BEA75BF3
BD6DB57B
BF07BB07
BDF3E835
BDB69531
3EC0280F
3EC6CF1B
3EA85E87
3DA2F87F
3EB4C6B3
BCC0979A
BC996FD9
BC2CB469
BE929740
3F16FC6B
BE8DBD6D
BE5DEA16
3C5D4F91
BE361929
BCEF2897
BEE66D16
BE80CB63
BF08876A
BE105AC8
BECFE541
3BFF9247
3EC2C593
3D192C92
BE553994
BDC62EC5
3EE59680
BF0016C7
3E892BB8
BEE3CDBE
3D8C2A49
BD534AEB
3DE2ACDD
3E7A598A
BD1BE556
3ED85CA1
3EA99BFB
3D9849A6
3F1D6106
3EB78224
3DD1D6FE
BE9E9673
3F2B4CBB
BDCEC529
BE143A1C
3ED64D0D
BE8DC44B
3E24D1BB
3DD0BF16
3E42AF2D
BDE7036D
3EF67557
3E187B4F
3E7849CC
3E7298DC
BECE924E
BDE3813C
BE82B691
3E1DD92F
BD76D361
3F14DD8F
BE7928C7
BDE840C5
BDB97409
BE372ED8
3F0CAF2B
BDF7523E
3DA06DE7
BE162023
BC874C95
3E646278
3CC76A7D
BDC352DD
3E68987A
BDA6D4A3
3D916733
BE1342EF
3EA601C4
3EF6A70D
BE01DDB5
BE6DFFC9
BEA0DAB1
3E3A9AAE
BEAE9717
3DE9C192
3EF975E2
BDC0B600
BE4539B5
BE1036D4
3E543787
3B67525F
BE630D98
BE5B4C9C
BEA33197
BDE5AE51
BE0B68C7
BEA35910
3E9BAD30
BE7EFACE
3DCCC573
3E937FB8
BED22F0C
3E062E0A
BF2CFB2A
3D909D6E
BEA023C5
3E8AA9E6
BDFEAEAC
BE3A5B9A
3E63F3E3
BE567096
BE685A2A
BC3F0CBB
BF2BC5EA
BE0F0B3E
3EF60656
