3E611845
3EC9B649
BDC2AEF1
3E322D14
BE491200
3ECA39A7
BE6F04E8
BE0ADF6C
BAC4E5CE
3EAE4E52
BE8071D5
3E9D8830
3D8C14EB
BE09F892
3E90CD93
3EA18EE3
3DB98C11
3EA1DEA0
3F0A40AD
BE2B6209
3E3A3B2E
BEAD9679
BEA03820
BEE07208
3EE8B558
3EE5E152
BE8C473C
3E8DA3CE
BC2FA5CA
3D4D75AF
BF211408
BECDC466
BDA58D52
3ED1C593
BEC24FFF
BEB306AD
BF0456BF
3D275036
BDF305AA
BDE7043B
BD22046A
BC30A9CC
BE70D01C
BBBF24EE
3EB2F441
3E8381F6
3CA66F40
BEA8BDB8
3E952B03
3E837005
3DECFA4C
BE551DCC
3E5148F7
3EF5F201
BEA9E3E0
BE54E90A
3DE000C4
3E452C1A
BE88A47B
3F2603CC
3F247575
3EA8AB7B
BE697BEB
3E1378D3
3CC31B73
BEABC6D4
BE6D6CED
BECA1341
3EA52BC4
BE90ADC4
BE815874
3EA3C743
BECE5451
BEDADB72
3E1C606D
3E696A45
3EA521C7
BE0A0BFB
3E89D34B
3E89ECF5
BE2ED80A
BE84A32B
BDA18A57
BE8060FC
BE33833C
3E5C7FF4
BE93E5C7
3F048FD5
BECB35D5
3E95BCAD
3DD19979
3E3DB8EC
3D97117F
3EE1EE13
BCF7615B
BE2A65B7
3D433217
3DCB4A6A
BEAA4DA8
3EF225D0
BD7DAC96
BDE904E1
3DB34A78
3DD5A810
BE1E202F
BC6A6E13
3D484F47
BCED579C
3E01701B
3E7EFB17
3F15A138
3F03DDD1
3E0D3EA5
BEED3446
3EC98C9A
BE3915B6
3CEE5355
3E47D0A3
3E37FC69
3E5E3890
BE19052E
3D54E951
3E7F3747
3EAB4DD5
3DCE5369
BEE79F4C
BE848475
3D4FE924
