3EB84E5D
3EBA4DF4
3DFAF9E0
3E1851F1
BE364D11
3D922C60
3D4859F9
BEE149FC
3B843BFA
BD15BAED
BD8BEA9A
3D532529
3EF7E0A5
3E28ED66
BE75A4C3
3E0AC91E
3E3E11FA
3F50BAD8
3ECB157B
BE86CC58
3F3C0F48
3D8B8937
3E318E94
BE99D7A2
BE8BEF5E
BE1E49BE
3D8C451D
BEC8B256
3DF2E142
3EA1D2C1
3E99F72A
3E71515E
BD5C5B45
3E80BED9
3E5D232D
3E79451B
3E022477
3EB28B3B
BE90F7F6
BEEF08ED
3ECA0297
BE923118
BE725B78
BE8C99C2
BD1E833E
3C73D295
3E5381BB
BBF29330
3D1B94BC
BE432BBD
BDCB7AE4
BC882AE2
BE536124
3E02FA1B
3F069BEF
BEEAB9E3
BE6FBD07
3F0961EE
BEA9A01A
3EF831B2
BE97321A
BEA2AFFC
BEEAE2A5
BBD4680C
3D87762C
3E3C76C1
BD67650C
3EAC5DE9
BE04DD71
BEC2285D
BE79D3F0
3E6FCFAC
BE1A8425
BEE1DECD
3E3F02A2
3DC6C4AD
3DBAB58F
3EB516E3
BD87DA4B
BEF7D203
3E69EBC4
3EE09FAC
3C579ECD
3E1C0A8D
3E301BAF
BECDB0EE
3E1F4442
BE8659AD
BDCD31F6
BD8303F8
3EACB1B6
3EEDC913
BECE4BD4
3BE7EA60
BE850F9D
BE670940
3E3AE2D7
BF10C920
BD2823B8
3CBC8531
3E9E5EB0
BE8DCC2E
3EBBC316
BE6A9991
BE8DDDF6
BE373A86
3E49AFAA
BC86FAF6
3D5ABBD6
BE8E1510
BEDDA276
BE945806
BEF4F4CA
BD7D0EEA
BE01ACDF
3D8B0EA6
BEC11043
3D966EB3
3E17360A
3EA3441C
BE304971
BE97F38F
BDF2AAF5
3E9D0EE7
BD2DBEA7
BE113C2C
BD547D76
BE233D87
3EA302FD
3CF448E8
BDFFCC7C
3E469220
3E8A54BE
BED7FBDB
3EBBBD59
3E22350E
BDB4743A
BE8F34CD
BDDC62A2
BC76C0DC
3E6CA474
3F082D88
3E5DAFEB
BE97AB65
3D8C1A1B
3CA7D9E9
BF073755
3DC6C1C0
3D651858
BE12B89E
BE98BF0E
3F0493C6
BD7E6E83
3E1500DC
BE0EA94E
BE56E508
BE20E272
3EA3EB65
3E95DF07
BE9FEBDA
BE920859
BD581D20
3EE7C4BB
3E98B87F
BE88D37F
BEA1305B
BF1D05AD
BD57CB6B
3E66EF43
3E9A55E0
3E8E70E1
3DE83DDC
BD395551
BD6FE444
BE21CC1F
BEC52CD2
BEBCF14F
BF2EC275
3E90FEE1
3E9B79FD
BE7352EC
BD874C4D
3E28B574
3DC0157A
3E0A45F6
BED48E33
BCE79250
BEB819D9
3D006B90
3E282956
BEB59379
3E1F3E55
3ECB72EE
BD5217D5
3D834B36
3E71727B
BF27C35A
BDFF17B5
3DCF6280
BCA1B892
3DF50F9F
BD8A7D8D
BED2AA8E
BE4CAA92
BDB170AA
3C89AB5A
3DF069E1
B92711D2
3D792BEE
BEC4B8FE
BCD1EBAB
BD65B6D1
3DA5C4E7
BC4410F1
BE22AFD8
BE694021
3E8B9CAD
BE090793
3D306F1E
BEB4C1C3
BE8DA400
3E5F103F
BF016161
BDEF283C
BF0DC9E8
BE7FF3A6
BECC1AFB
BF06D133
BE84D84B
BDD1017E
3C0262A6
BCA6847E
BE36DC37
3E9DDBB4
3E47276E
3CA27CC7
BDF598B7
3D9237FE
3EBD7E65
BF058004
BE49170C
BD95A38C
BEAF3E76
3EBF031D
BE9D3223
3EA3A458
3CB005CC
BDC66D35
BEA1D529
3A46EEE7
3D81395F
BEC10381
BEB81E8E
BED3BE0E
BD08FE66
3E8A1B5F
BE36C176
BE6706A4
3E0D22F8
3EBC76B3
3EBA9D7A
BE2E33CB
BD0EFF11
3E72A598
3E50B172
3CB641C6
BD44588D
3E8A58F6
3E98E204
BEB2E6D2
BE1C2CE2
BDA13C2D
3C9C23E3
3E4AFC7D
BE992489
BE2CED1A
BF0165B9
BE2159B8
BE7A1A5A
3E7DF2E3
BDC6D5AF
3D7237E9
BE12080E
BD7110EF
3E322DBF
3FA2F4A7
3EA31690
3BD6EB09
BE9522DF
3E40B4A0
BE072A24
3D4C96D2
BF20AC82
3EF53A48
BE4EBE40
3D8791B1
3EF34796
3EE221FB
BE557E04
3E35886D
3E7D2E62
3EC8DA36
BEF1D102
BE7131CA
3EC40B91
BE86BF10
BECD2984
BDD04149
3DCC7B1C
BC03CF2D
BEBE8012
BE813E9D
3EF2EF0D
BE33AF50
BCF17D9C
BDB2E854
3E82D9BC
BEA49981
BC32A4E3
BDD6424E
BE8EF741
BD57433B
BE22C6D6
BDF8FD28
3C8A2ABC
3DE78DF9
3EA952F8
3E943C86
BEB643EE
3E34EC24
3E9111EA
3E3A459E
BF165BE6
BDB299D6
3E859D4F
3ECACF21
BDAE1855
3E82F82F
3E090FE5
BE55CEF5
3E6C3833
3E602F75
BC075640
3EF66FA5
BDBD2921
3C1CF462
3E8692C2
3E92FBC9
BDEFADD5
3EB6F7A2
BD6C54ED
BECD9963
BD731360
3DF20431
BDFFFC5E
3D8C76A2
3BADFFD8
3D2C09E4
BD70C77B
BDBF53E8
BE6A8E51
BC569EE8
BD8C26F6
BD3AF811
BF07A28F
3E277799
BED8A820
3E02F2B5
BEB632C3
BE1C5C35
3D63AB5E
3B22D603
BEF85AE2
3EDDEF57
3E869060
3E093BD9
3F03E7D8
3E206A91
3E6F2710
3E242258
BB5DD284
BEDC7BB6
3F46247C
BE36583C
3D682B1A
BED6C3E3
3DF898B3
BD933C28
BF07FE7E
BDC534C3
3E92317E
BE591107
BE918D1B
3E1E8265
3E8F1393
3E902A02
BC33620D
3ECFA7C0
BCC98D47
3E128B34
BF07889E
BDD9FB1B
BE8DE60E
3E94268D
BD86654E
BCBB4D28
BE82494F
BDB387EF
BCDC8C5D
BDA68B06
BC900E70
3EAA8249
BDD33DAC
3E592066
BE9FA4FE
BD896566
BE715300
BE897153
BD1EA0FD
BEAA3D7C
3E3BC691
BD1DC5B6
3E0EE820
3EB8652E
BC2F7376
3EE41C53
3E81AA79
BE574A51
BBEB3B22
BE155CE8
3E5A9318
3E38BD97
BECB6F6B
BEBD43C9
3E0C9920
3EB8FEB1
BE445F54
BDCDA081
3F045713
3F42AE32
BE4FF7BB
BE9A7A15
BE962014
3E93BA29
3E5782CF
3D12CC2B
3F35BB5D
3E5B3F1A
3D94767E
BD42F3A3
BDC0A7D3
3E4A7564
BD137FE7
3E533F24
3E1C3A68
BE8CB261
3E440CB9
BE32D6E0
BE25FC00
3E97645B
BC5F14EE
3D03C4E9
3E617093
BE73F965
3EDB19FD
BD9613CA
3E7D042A
3DF6908E
3E5129D7
3E1D086F
3F16C938
BE40EC73
BD929820
3E9A9DD8
3E0625DF
BDC49C91
3D6A7143
3E04129F
3F133C06
BE906F62
BD22E406
3E0CD6B8
BE1B7025
BF3EBD76
BE4EE00C
3E75C161
3EB3B635
BF62CEE8
BEF209D9
BDA6D6D0
3E0FDBDF
3CE85B99
3EA27397
3CC932E4
BEA5C204
BE69D288
BF359EFB
3EB8E67E
BD9ED3EA
BE8A4644
BD0D42C9
3D60332E
3ECFA161
3EA952D1
BEAA40C0
BEC3F257
3DCC28E6
BDCD4AC3
3E67EBC2
BC90B55F
3E1DE08F
BC24A67E
3E6FC084
3D17B516
BF004B38
3EC48FFA
3EECAB6E
BEB64B21
3D8C4DD0
3ECA4707
BE1FE469
BDADEE30
BF119A13
3E05A344
3F053DF2
3D257A30
BBB2A6DC
BEFBC1B2
BF29D27F
3E555496
3DD23D2B
BCAFF45A
BD39CD16
BDED954F
3E1B4ECE
BEBD2333
BA81FC44
3E0B7546
3EA43A2A
BE85911B
BEE56955
3E3CEEC5
3E529785
3E9DBC81
BD0CB311
3D0FF92F
3E3108B8
BDAC8688
BDD3A317
BE7E5B85
BDEB801E
BE601E25
BE94F285
BE53E2A3
BCE610B0
3EA1C9BB
BEDC9DDB
BEA718D7
BD358380
3F175C2E
3E9C5DA9
BE6E7D5C
3DCE3073
BE283CFA
3D8626A6
BCAB7534
BEE3700E
BE12258E
BE345769
3DFBC781
BD7428FF
BEA2AC39
BEC5F6FE
3E82AA71
3E5B6F91
BE91CC9E
3C0222D0
3E26FC29
3E02B901
BEF4CB97
3E5C497D
3DB66ED3
BE45465C
BE55917F
3E7C7D36
BE11556E
BB6222F5
3EE0CCD2
BE8D491A
BE2FD9E3
BE25295E
BF0896DB
BE834121
3E06B445
3E665099
3E11DA0F
BD454A47
3DA4104E
3F2EF033
BE4C85EC
3D531955
BB82AB2B
3E9989C2
BF6685E7
3F0B1436
BDA8C737
BECA6EFA
BE921F9B
BE2532D2
3DCDCB1F
BE096055
3D2682C6
3F2ECC8E
BEB16CD9
BEF3DD03
BDA1FD26
3C5DE1D3
BEC79C44
3E92AD3A
3E9BE0CD
BE13E059
BEBAC3D5
3D5578D0
BC5CD868
BEA6E471
3E901EDF
BEA8F241
3F327009
BECEB901
3E4B2E9A
3E25C670
BE611870
BE87B7FF
3F1D1753
3D8F1039
3E4BE0A8
BEEC0834
3D5C6630
BDB6E5AE
3ECEEBF7
3EC5B18D
3ED89489
BE280404
BDCF41E9
3CD0E82A
BE245E90
BE8955F6
BF029A72
3EB367CF
BF95C40B
BED7AD44
3D54FD7B
3D2F5842
BD87E5AC
BEC70569
3E0336D8
BCCBD32D
3E1ABF6B
BD6AA39D
3E99162B
3F0C4574
BD1CC586
3DF9C2FE
3DC4561D
3CACE6AE
BD856010
BE1E770E
BD9154A3
BE407E16
3E7C4F2D
3D95971D
3E2ED8C2
BE590FFA
3E5757CF
3ED5FA03
BD56C8DA
3E9F4128
BE992243
BD8CAF36
BE20F522
BDDDFD3C
BE949704
BD69111E
BEA7DBB8
3DC6CD49
BEE2D3A8
BD08E300
BED646A7
BE9C9023
3E0A89FB
3E0B264B
3F3AE893
3E59D4FD
BE321345
3E95E341
BDFEBBD2
BE0FB337
3D1DC614
3E8641A6
BE2C6FF1
3DE5F175
BF5AF1E1
BD669830
3DEA0C77
BE08ABC6
3E2FE73D
BADDD78C
3F54C88B
BE1F278A
BCBDE8F9
BEB795C9
3D16A9B8
BEBBE604
BE2464EE
3E433F57
BEF2D1D2
BD861FF2
3EED4E47
3DDFF913
BD966123
BDCB6544
3E9CAC4C
BE85B79D
3CB44B5C
3DAFDCBD
3E59BF39
3E5A1A83
3E90DF2A
BE62DF3D
BD52C9FF
BE8A80E8
BEED2085
3E84B60C
3EBA6934
BE33ABCA
3D59B04B
3EB1737E
BE99DEFD
BF16F0C9
3F00B006
3E22B4D6
BE212E9C
BEB809F5
3E57821A
3D9A41A5
BD20444B
BEA01BF6
BEFC6194
BE914C3C
3DE55034
BE70ACA7
BE82DE8B
3E2BC816
BD1BF8AC
BEAAB4BA
BD18B9D3
3DD6DD89
BC5CF6FC
BE5FFBC9
BEF935F9
3D0AA6B8
3E12765F
3B6BC25B
BEB256BA
BED80F33
3D289AD4
3D611D5F
3E91729B
3D443ED7
3E50F70D
BC60E8E4
BDCD0317
BE106896
3C6FB260
3EBCF037
3D832E9E
BF3148D8
3D6BD805
BDFDC628
3E8D726C
BE30B1FA
BD3505E9
3D1410E7
BC3AED87
BF590A15
3EDF8A10
BCFE53AD
3DCC6263
3E5721E5
BF44B7E8
BE862BA2
BEA773D2
3E86897E
3E5C580B
3E46194F
3E9EC44C
3DD5587B
BDA7F5EC
BE45661E
BD893820
3D9F2358
3E0D70F2
BE86A847
3D669F87
3C43A1E1
3E0A8B61
BE3B44EC
3DA105CE
3DE62015
BE4A9D3B
3EA02E0B
3D66DCCB
BC4E4B7D
BE0952E5
3EBC16F1
3E46EAC3
BDC90D73
BEF8EFF8
3EBCE120
BEB5C8A0
BED4F60F
3E8B63FB
3D8C2108
BEB6687E
3E0D9CEA
BF0C88D2
BE24BBEF
BE288B97
BC855193
BE2B5247
BE593D14
3EAC0EC1
3DA39820
3DE1C5DB
BE326139
BEA5E47D
3E25C048
3E299871
3E9504D8
3F03AF12
3E8CA6AC
BEB44C19
BF0B4713
3EB8DEC6
3ECFBD1D
BE861F3B
BE9E3F63
3ED54EAD
3E6E807F
BF108CBF
3E180D4B
3E806EFC
3E585578
3E50CB94
BEC4FB32
3E95C98D
BE29A045
BF0D5441
3BB2AE93
3EA459FB
BDD8C2D5
3E556B9C
BD13F692
BDB198FD
BC45E24D
3D88DBD5
3EEBC550
BD78E3EA
3E841B35
BE837194
BF5162B7
3DF8C4C7
BED1DEC0
BE622658
3E4F167A
BC4D98C5
BE0A721D
BE277CC3
3EBF78F4
BEC10272
3C9CF6BC
BEBD9A32
3EAC57A3
BE5D1587
BC979FBF
3E0A7991
3D61CEEA
3DEACE69
BEAEF8FF
3D654760
3E83457B
BE0C1FF6
3E0B41C7
3DB22E36
3DE3FA15
3D60E494
3DC7D5B1
BE6FDC16
BE87EB58
BE524370
3E8060E1
3E40B60D
3E826AEC
3E84EF1F
3E1C9CD8
3C942AD5
BF0D808D
3DA56FFB
3DCDE89D
BDAA5804
3E02EA39
3E064580
3E8D0754
3EB60E9B
BE16D94C
3E8E970D
3E072876
3E9021AA
BE56A599
3F08A78B
BE73BEB8
3DB59179
3DD3E40E
3E618218
3F11F7CE
BD452EEC
3E78C055
3E49436D
3E6B8045
3C5B5B70
BE679BFC
3EAC3246
3F0C491B
BEC8E9C1
3E0B7CE9
BE325ECC
BED1C884
3E8317FB
BEB16785
3CC772C0
BDF16C38
3E56A606
3EBBCEEB
BCA4308C
3E5B9506
3D73B6EC
BE8F1BB2
BE9C8ACB
BE1ECA03
BE8670A6
3BDA20DE
BEAD24D3
3F1990DF
BDC24A7B
BE6A5315
BF05E117
BD245D12
BED88E86
3ED420C6
BF4BD654
3CB26E82
3EBCB52F
3C2883A2
BD233935
BE63634C
3E487F43
BED3159E
BDD01D16
BE9589C9
BEBD0859
3E01E9A3
3EF9C1EA
3E41B5DD
3E84E910
3E7FEB24
BE907B1E
3E4E4A05
3E84407F
BEFB44F8
BD357F94
BF0312E6
3DB938FB
BDDAAB5A
3C83DC9E
3E699440
BEEA7ADC
3ED5A743
3DE7DFB2
3E0EADF0
3ED4EBD8
3E8BD91A
BCF89E6D
BEC0A87C
BEEB7532
3D175384
BE3A4726
BF7DCC25
BEE4AD5F
BE07C4F4
3E9E0D3E
BED10F31
3E3673D1
BDAD32D8
3E956256
3DD709ED
3D548F8C
BF6218E3
BE8CD325
BCD8DCE6
3EFD8999
BE7D757D
3E1B138B
BDD21BC8
BE690DDA
BE16CFEE
BE820CDC
3E79667C
BEE34A86
BDBC732F
3DA025E1
3E0F3259
3DDF9974
BE28BDE5
3D94C5E1
3E0B2DB0
BE9E0E4F
BDAD5047
BE7F45CA
3E10CEBC
BEFE8117
3D14AEDE
BE2CFA7F
BBE72325
BE55BD0E
BE3AA921
3E4BB4D2
3E4F3644
3E67CFDD
3C3CCA2B
3E1A13C2
BDC1F874
BEB37D57
3D9BA320
BCFB9A1F
3E90C74F
BE341D9B
BE8DD9AB
BE5EADEA
3E8C09E2
3EAB98DF
3E86E059
BD69E770
3DFF47CC
BE81C401
BE23909A
BDC19D9C
BEE6AF8E
BE8B23BC
3C844A68
BED951CB
3D44D48E
3EEED3E9
3D3D5A23
3E1C0594
BCBA7E7C
3E6CD85C
BF138AD9
3EFEEDAC
BE57490E
3EA14852
BBD58D3B
BE68F549
BE8AC508
3F173A30
BE7A6355
3D8FD0B6
BE23512E
3E02896A
3DFDABE6
3C408099
BDB8123F
3E2E2344
3D4A67E0
BD771032
3D8A51F1
BF0B62F5
BE1C9CEC
BE0AC90B
3DD1A48B
BF3E741C
BE063A0D
BE940FF1
BE2B3ECC
BE7054C9
3D0A5E96
3E614452
3E735EA9
3DA9B9F8
BEFA5CCF
3D4533AC
3F3B9894
3E4C92EB
3E51C5AC
BD9374CA
3DFCFCE1
3E19D16E
3E8B4B1B
BE67A2B0
BEC3372C
3E8E7CE4
3F266D78
BE5FBBB8
3ED78440
3E0B3E02
BF25DC84
BE217F4E
3DA4C45F
3D3376B2
BE809292
BDD1E3A4
BE07E615
3CBA7D5A
3ED4293F
BE8B19FC
BE8BB78E
BEFF708F
3E348619
BD2A13D2
3DCA8794
3DE08354
BDE22B9F
BE9BFA3C
3E30A214
BF0B0143
BEC9C49B
3D208823
BE673832
BDF8F037
3E07E519
3C95A06B
BE582D3D
BE6BC966
3DE4FB22
3E8A6DAD
BC408353
3E1A0F6A
BBF4C940
3F0317EA
3EB11F18
3D5B6AF3
3E78F084
3EC32E01
BE4B062A
BE82BE1A
BCC86869
BD93315B
BD878859
3EA79A8D
3C92D7AE
3CE37590
3EA1EFF5
BE040341
BEC79DCB
3DC30012
3E3275BD
BD8FB21E
3DA1310B
BE45FC0D
BE7C63CA
3EA198F2
3CA3177C
3DEE936D
BF2B6553
BE583AAA
3F082EA3
3E9B844A
BAB3F840
BE20FB99
BF0F528B
BDCA1EEA
3F4A4C7B
BEB1157F
BDF5E37A
BE8108F6
BE82774A
BEE629B4
3E1C45EF
BCE4C389
3C7C83A9
3DEA95E5
3F1898F9
3EE8FC9D
3E21BEF7
BD8172A0
3CBD9A8B
3E42C676
3E5D0A21
BD25CB66
BF45C48B
3D9686DC
BE878303
BE75AD64
BE0CEC09
3E2E34C2
3DA332D3
3E991D05
3DFA3273
BE92F860
3EC9C297
3E76F425
3D3E7CFB
BEA98F0E
3EF32E46
3D7BB6E8
BE36AA17
3EE6FD46
3EF6CF37
BE508D36
BD58B01A
BCF529F3
BDF7CFC9
BE36DA7B
3D8580C8
3D86459B
BF30B935
3D51BE64
3D80643A
3E02F827
3D6A7DCD
BE8A4563
3E149BB7
BC7B8C89
BE4C4921
3E51DA16
BEA6E19E
3F117A33
BF2A5F22
BE35506C
BE6B4BB6
3EA71E02
BE082B2E
3E327C67
BF05B4A3
BE52C0C5
3EB51A2E
3E6D4A41
BDA7A75A
BD66C9AB
BE7A3236
BED54BE5
BE064669
3DBE6800
BF02C99A
3D966AA6
3CB17569
BE4E7695
3EA94052
BE6D163E
3F08714E
BD141BA3
3E99D46B
3EB911DB
BF2772EB
3E13FA39
3E2AA8FC
3E9DED06
BDEDE9A7
3D1A9735
BD0DD98D
3E597155
3ECFC6ED
3DFFF14E
3ECF9CD9
3DF03B6E
3E0A2A24
BD7D68AC
3EE3842B
BCD0AD6D
BF597A81
BEDA35EE
BEE4DD42
BE799D94
BF32CB32
3C6B789F
BE5814CE
BDD42934
3EB5E87A
3EF049A9
3E07CDE7
3F07F642
3D906D25
BED1DA7B
BD138505
3EED9CD6
BE326343
BEB1A0F4
BCCD8EF4
3EA38669
3E0CF140
BE574537
BE9B19E6
BDC6F933
BE061F1D
3E54D9B3
3E99988E
BDE58834
BD167E62
3E8E64AF
BE039762
3E800D76
3DA61A0A
BF4B6A5B
3DFF900C
BEA3500A
BE106702
3EB36D61
3E3F4C88
BDAEBDA4
3F072144
BEC1E604
3EF5DFB3
BD4ABAC7
BEBF045E
3ECCEC88
3EAC686E
BEDBD9B9
3E9473FC
BEEC3FB3
BDA53D5C
BDD32C32
BD48143E
3C623E8F
3E272300
3E42DB05
3F03718D
3EB295C4
BD369576
BC8CD668
3EC7A84A
3E43FA8A
BE28A85B
BE9CF01C
3BA2768D
3D86DB98
BDB8D44D
BE5BF9E1
BC8D66A6
3E26C18D
3EAE7455
BE53BE1C
3E8CB44A
BDE988B5
3E818224
3DBEA0AE
3D22953E
3E018283
3EA813AB
3D86A120
3D72FEB8
BE0F6DB4
3DE2E1B4
BE83E5F0
BEC9909C
3ECA0E24
3EA969DE
BE8BD194
BE394307
BE600C0C
3EC96A27
BE1A36ED
BF023AA3
BF41CB02
3E8E2483
BDECA9F7
3EC52A4F
BE28C1C3
3E82A8B8
3ED9581B
BC232FE6
BD60AA52
3E0240B9
BD57C7AA
3E8544D7
3CC815BE
BD88129A
3ED8CEFA
3EAAB666
BF09BB69
3E82B401
3E85F17B
3E351511
3EA484B9
3CB7DFFB
BEC42FB3
3EFAA72C
BC283431
3D4CA606
BD8BF756
BF2B0920
3E368E57
3EFF01D1
BEEB11ED
3D477B7A
BE8BFC8F
BE44FC89
3C575221
3E8CEA79
BE2417E8
3C6161DA
BE6094FB
BDA132FA
3E1794EA
3EB5640D
BEA73233
BE992B83
BEDEFE76
BEF9D903
BC68FE06
BDCA8D8A
BE9B16FD
BE565163
3E03BFF2
BE8899A3
3DD45E5F
3BD0F44F
BDCDC8B4
BE0EA798
3E2D44CC
3E324E76
BED13F4F
BE508179
BEFB5753
3ED43790
BD4B1316
3ECB0261
BECCB874
BEC1683A
3EC23EDA
BE7C0880
3ED2532C
BDA28316
BD89E2AC
BE64F9E2
BD2C0765
BE22617A
3EEE23BC
BD72759E
BDFD4F27
3CFCB2EE
BDA29395
BDD7EB78
3DF6EA0C
BF17D90C
BD6CEC1F
3E56B9B2
BE4CE48D
BDA8B872
BE3F27B7
BE1FA4AA
BDF44A35
BE899C4B
3DE40C22
B9AC66D1
BE7C576F
3EAB7A27
3B90EA33
BE2A8A72
3E096BFA
3F0B8A08
BEF3A303
BF0DAB22
BEDC4548
BEB13365
BF1151BF
3DB4F311
BE567553
3C035143
3C9C289A
3E8B3C4D
3D35DF6B
BD146F66
BE17D110
3E83CAD5
3DD85FC0
3E67C7A9
BC967D90
BE8BC4BF
3ED0633A
3E031BA6
3F5311DC
3EC43BB5
BEA4920C
3DE35575
3DCDD1B4
BAD1BFD1
3D344D67
BEE85C19
3E3E0412
BEC4A1F1
BD927DEC
3E0924E2
3E6CA3E8
3E87D233
BF33E36F
3E40AC83
BE795465
BE291ECB
BD37C6AE
BE81F92D
BF1AFC36
BE1F8027
BE697BAC
BF1A6976
3E2B4093
BE9ACFFF
BF0DAFBC
3D8A1867
3F4E8E98
BD958809
BE0A31E1
BDDC3493
3DF65839
BC7E612F
3E1CF2C0
3EE4E670
BE8BF222
BEC4B28A
BEC8DC41
3E319A60
3E6EFF2A
3E9CBE47
BE68D49A
BEA030A7
3E590933
BEA27CD1
BEB88055
3E132B9C
3F0368BE
3EDEBD65
3D1F35CE
BE151E9F
3E9C8333
BF450A83
BD51B199
3D97EF34
3D86A7C7
BE3D105E
BEAE70F6
BD257AF4
3F09A39E
BE6253E9
3E6A14B6
BE96DBA5
BD9E4D1E
BDC772E6
3D9A2DF5
3DC11D57
BE084D6D
BED345BA
BEB5B5FB
3CB3A8FA
BE6CF88E
3E0662AB
BF1C1C2B
BE2ED851
BA520444
BE1C9BA4
3DE4F299
BE6E8493
3CFCF509
BE9D7B27
BD8DE169
BE5F55B0
3E8AAC29
BDB16134
BE6E0DEA
3EBFBE57
3D008F65
3E360EBD
3DBD1946
BE6A9563
3E822DD2
BE3F6AB5
3EADBC3F
3EBC59EE
BF1A7FB7
3E14A226
BE0363C0
BE05FF4F
3D4B5729
3E9CDB26
3D5F43B5
BF03F120
BE588760
3E49B182
BDDFABE7
3E28CEC5
BE0432C9
BF1D4642
BF43F9C1
3D77FDA5
BE49837E
BE65F909
3E18B767
3E23C80C
BF21BCDB
3F2D6B48
3E8EA719
3E775F02
3E2EF1D4
BF063FE8
3EC3E6CE
3DA230AB
3D784C1F
BE52B5E6
3DA59EE9
3F1D028D
BF036799
3EB865C7
3E155827
BE4268CD
3D39052F
3D89FE41
3CA5F760
BE48468C
3E506468
BEB610EE
BDB4C19A
3E211065
BE6A5339
3E0C0904
BE82C1A6
3D01322F
BE3A5799
BF014D21
BC00FA66
BF624097
3CE32C60
3E5F4C85
BE49B485
BE5A5633
3E42F871
BEC4E0E2
BD44B93D
BD7D9D6F
BDEBDCD9
3E7498E0
3E0385DF
BE95E066
3DF4D80E
3DBE92C8
3D282C3C
BE38D309
3DC7F262
3E878AD5
3F25E862
3EDEF9A8
BEC464F9
3C66875E
3EC42A47
BE8E0127
3E05BA52
3E05BA95
BDD4E6B9
BDFCFAA1
BE24F13F
BDC1C2BE
3C5251D2
3F0543E9
3E7B5797
3D573DCF
BF108167
BD8A5127
BC006E65
3EB17187
3E7FDBA9
BECB84F1
BD181BEB
3ED4E596
3E75C4FE
3E87C31E
3E831504
BE344FE8
BF09046C
BE800707
BE22E9CD
3E811DB4
3DCA4251
BDEAEB2C
3E1BD6C6
BD3B7F60
BEC85AF5
3E789F2E
BF2DA7F0
3F47C2AC
3DEB8FF6
BD161E47
3F13ED2B
BE36EA0B
3F1491C6
BE9590CD
3D50039B
BE3906C9
BEF0852A
BEF8AF81
3EC8A7D3
3F1DD15E
3DC00457
BC905644
3E92FD39
BE2FD984
3D8BE707
BEC807A3
BDD76CBE
BEA0E02B
BD729863
BEDE9887
BE5FF37B
3ECDC687
3EFAA722
BD110D13
BEEFB0CF
3E46ABC4
BE10811E
BDADAD94
3E1FE417
3E2191B2
3D644AEE
BE1E1702
BE8FAE19
BEDEEBF2
BC19A02F
BCAC4E2D
3E8D5B70
BF199DCE
BD7A7FF1
3EA40602
BE84E1E9
BEB29305
BDC3B732
BE852E14
3E34F3F7
3F075A4F
BE3E109A
3EFB0DE3
3E26700E
3E955CBB
3C23218D
3F397BCF
3E3FACAE
3C268C67
3E9C2AAD
BE515FAD
3DD12122
3EF1AEEE
3EA0AE8A
BDBC61D0
BE4F5E5D
3F0B8F9D
3EB88463
39D54BCC
BE09DB8D
3D7B3F0B
BE34BBBA
BEE83818
3EC225F0
3E8ACB2C
3E051EEC
3F15273E
BD8EF3A3
BF204403
BEAFAFEB
3F0AE270
3EB46E70
BE0AB23B
3D9CEE2A
3D52973F
BE83845F
BD7DD64A
BEFBCE23
3C61CD85
3C7F36C2
3C60A5A7
BEFA0C62
BE455F05
BEB53504
BDA3D11A
BE6D774F
3F21997B
BE1D6F7C
3E4D5AA2
BDDA7497
BDD4EFEC
BE5E64C4
3E77439D
BEED4799
BE99F557
BE284F43
3EE5FA97
3E4DAB55
BE165764
BE828BA1
3E8B16D7
3EAD5785
BEE1B678
BE9E27E1
BEB8CD38
BCDCF6A1
BF294865
3B50C5D6
BA97F4FF
BE0BB42C
3DE48D2F
3DAF61E3
3E6BDE81
3E668EBC
3DC75A6E
BDB4CCCB
BD5811B5
3D927FB8
3E0115DC
3E2B5994
3DEA01A1
3F25FEB0
BEBF92BA
3DC8D33A
3DC56B4C
3E866655
3D9065AD
BEE57985
BE931784
BECB263A
3E230D26
3C8B311C
3ECF8962
3F09B3A7
3E04C0E6
3E6531E5
3CF77ED7
3E354D47
BE0921AA
BF1B8009
3E5E0287
BE1BD1D4
3CA7E8ED
3E966AB8
BE1D4116
BC4D9FBB
BE216BD7
BDCBC60A
3E32A8EF
BE90FA7B
3E86931E
BE0ADAD3
3EE254FD
3D77C9F3
BD836A9F
3EE8283F
3E63B472
BEB1AB81
BE6292A7
3DE62E3A
3D762A29
3ECDF48A
3EC205C6
BEAA2949
3D7C428C
3F36F68C
3CAC57BD
3DACB30C
3E734294
BE2D1B7C
BE911A9F
BE8BF857
3EA9A6FE
3EA96763
3B8F3EF8
3ED1219D
BC3BC53E
3ECAC6C8
BE1F81D0
3E0F35A8
3EA2DAA3
3E59CC41
BDF52310
BE019F3B
3D45F319
3E1014E2
BE9740C4
BE30FC0B
3E418A5E
BE1C658A
3E21A5B5
3EF4C3B4
3ECD8E3A
BD8D863A
3F24C9DD
3E1A8A74
BE25AC87
BE8C43D4
3D829BAC
BDBCA141
BE173D29
BC8EE44F
3C16B5AF
BE08320F
3DC79C20
3DB9CB25
BEF7A63C
BC7D290B
3CA930DC
3E95F853
BE92705A
BD4ED27E
3BE42C0F
3E1FAFCF
BD72DA96
BF4EA549
3ECF4460
BCF7598E
3E0F22B6
3D80A748
BD6D3D35
3F03D246
BEA448B8
BE80C1CF
3E85E76C
3EA72A01
BD3CCD50
BD1038E0
BEF5AC35
3EA707AE
3EEA627C
BD645D78
BE23D221
BD4757D3
BE057966
3E311F30
BDD959F2
BD37F786
3E42AEDD
BC61E7C7
BD5F7010
3DAFC5AB
BB8DA153
BED59F73
3F6F1B0A
3D1427ED
3E196F9C
BEB59EA1
BE730F55
3D49A293
3EA93CB7
BF2C20F5
BE225F20
3F049243
BEA01A29
BD880CEF
3DDFF94B
3D61AA52
BE3057F9
BBAB1415
BEFF8CD0
3E887A8E
BE9D7CCC
BC53DE2E
3CA2D4A1
3C0E28CD
3E2ABD77
BDC46164
3F055DBF
BC93E540
3EBAE8EA
3D2BFEFC
BEB0CC45
3E77B19E
3E9C2C3D
3DF65054
3DB17F88
BDCBD13E
BE13F36A
3DB43F5A
BEB675EB
BDD4ACC7
3D3C1656
BE71D72D
3F022677
3EB98693
3EC4E4CB
3DC8CDB0
3D469929
3E795345
3DBE414D
BD278263
3D21437F
BE8D35F6
3D13BE7E
3D52021B
3E476F94
BEA6A05D
3DC8AE0A
BE04A66C
3E81A40E
3F27CAC5
3E2523DB
3CD86603
BEB3DE1B
BE5BF2F4
3D84BD04
BC1F247E
BD9CA9F9
BEB552FA
3DC54528
3D83B56E
BDB28DBD
BE41DBC3
BD94CD67
BF34BA39
BD5C2FB1
BE6B4B27
3E0C22EE
3D8C0049
3DCA4462
BDF175F8
BE853F08
3DBAE788
BC2FFA79
3F0B3F0D
3E98919C
3EEA76CF
BE22F607
BE06C78A
3EA245E4
BE53758D
3E6FAC87
BED7C6B6
BE2259F9
3EC1CCAD
BF205804
BE6824ED
BEA43433
3D9F19DA
BE323EF6
3E6016D2
BF03A4AB
3E7B8460
3EA6593E
3DA89C93
3DFB3143
BE6ADF3C
BE3E9A88
BE773412
3DE054C6
BD206BD9
3F011076
3EBC0C8D
BDF299F2
3E1B8FA3
BD1097FE
BDDB1AEC
3E9A2A17
BE1E3074
3EDF272C
BD1C5C0C
3D4F7BF4
3E885EB8
3EF45BD6
BE6AEA02
BF007941
3DB0C05C
3EBB4965
3E5D8E20
BEED47A5
3E5B815C
BCAC0B4C
BE29D6E6
BDF02E4B
3E1E08EB
BE0F8760
BE84CA7C
BF74FD60
3E0567FB
BBF207AF
BEC876F5
3DFD5220
BE1A82FD
BE0ACA44
3CE10447
3E7F6460
BEB337AF
BE6CD686
BF06C5FE
3EC3A63C
3E81C7C0
3DFA5BCF
BCF26E07
3D7DA63E
3E01F36F
3E1CC560
BCC62B22
BCF72266
BD332A31
3E4EBD60
3E257009
3CA5CFE9
BC75A1E3
3EA0C468
3EA8ACCD
BD5AA131
BD2287CD
BE424EAD
3F2713A0
3E687D29
3EAE73A2
BCE87387
3EF94A28
BC4DFA29
BEAA2488
BE36A641
3C775099
BF058EC0
BD39EFB0
3F02AFD6
BDB538A3
BE71D6CC
3E3BF0AB
3C93B88F
3EAB22ED
BEA076DE
3C048A08
3EB173F3
BDAEAE2F
3E39433C
BE9A7BD0
BE05E999
3E7F44D5
3E9BAE43
BF1A3DD2
BD82F8D9
3D28E564
BDD0B499
BE47859E
3E9BFC1E
BCABA5CB
3E082E99
BE1A4652
BD357D18
BE35A008
3DC4F127
BC8A924A
3E2C358B
BDC3DC4C
3C4666CC
3E33B418
3D9A01A2
3E56A83B
3BB87176
3D2674B1
BE02BF57
BDD87492
3DF46E1A
3EC84657
3E8E0274
3E12426E
BEE9AE63
BE054A07
3EA82E24
3E86A360
BD887584
3E90AC3F
BE9BB9CF
BE49819E
3E9D79CA
3E59E9D8
3EC30658
3EA21B27
3E7CC013
3D21C53F
BEEFE3A8
3D65F847
BE7AD6C5
3E71A5EB
BCFF6D03
BF1AF675
BD503258
BEA9DDB2
3A997F43
BE80DD04
BE90E4C9
3F08FAD4
3EF6F8CF
BE0DBDFC
3EBB0781
3E61FE33
BDA024B3
BF233E9C
3E3E3F41
BEDA0A1F
BD8C8AEA
BF01B816
3E05F9DB
BE25C799
BCAB5035
3E51FD5B
3EF79738
BEA6670E
BE5D130A
BECF3EF0
BCEBC241
3E137B56
BC323176
BCA2EAA1
BE92A604
BE8107CD
3E1782D2
3E285E2A
BE8A40B2
BCDFFDFD
3ED3BC7E
BC3BCFAF
BDBDB9B8
BEEF1646
BE21E86A
3E93CC6E
BF49CC8F
BEA67F60
3DDB997E
BE1F6F8E
3D7709DD
BD84EB9F
3A3B616A
3E19C862
3EC5E9E8
BF3ABB28
BC15F433
BE1CA05D
BE285F21
3C71D65C
BC1081B8
3DEAD597
BDE84597
BD1B151C
BE71723D
BF0CC361
BF147C38
3DAD9A6E
3ECD64BF
3E46BAFE
BE1F9AD8
3EA18CE3
BE200A4C
3E711C7B
3E11EFA9
3F21472F
3F25872C
3E452918
3D1A669E
3CF1DF0B
BDB0F026
3CB1AA57
BE896271
3D88B00C
3BE91B77
3E3C1BD0
3DE86354
BE6DD394
3D11F855
3E216B7B
3F14CC31
BE5C432B
BDB26031
BD7CD660
BEC56301
3DBADCE7
BDBB5D2B
BF13A4DA
3E666F6F
3D8A7669
BE19257E
3F1C96CF
3D8D9FDE
BF331BEC
3E0B473B
3E9D5432
BD16A365
3DD295B6
3E550970
BE9F21B6
3DA6C0FE
3D1B4D99
3DD78808
3D9D5BF8
BE06E3E2
3E1D232F
3E0567C1
BE84A7FB
BDA1F463
BE01608D
BEA98458
3D42D4B4
BD2B7CB6
3E86FDDE
BE9C5117
BC0E80AC
BD93392B
BEC690C6
3E2C1982
BE987CBA
BEC10254
BE17FEB5
BEB9680B
BE8D337E
BED56A43
3EB2EF19
BE512D47
BD50A81E
3E9C7A65
3E84F8D9
BD6319D8
BE8CB3B5
3E9543EE
3E94DED9
3E150B2E
BD882F3E
BC15D58A
3D164E6E
BDC76AD0
BE94D13C
BF11123F
BE6A43DC
BE0CA4E0
BED1CA6B
3F125D87
3E0218BC
BE4CD486
3EAF1A30
3E82591A
3EAF30C4
BEC38E11
BD807387
3ED22759
BED0D05B
BE1F361C
BDC333DF
3F0A565A
BDE6AEF3
BE8FFE4C
3DDEB543
BE0646D0
3D6BBE9A
BE982EB1
3DBE1762
3EE193ED
BE495039
3E316187
BDDEA37C
BECE73AF
BDFF2FA1
3E6017F3
BEAF8A1D
3E83AF5B
BDDC519D
BE707109
3F150FD3
BE791DCD
3ECBAE25
3E51F50A
3E95F4B8
BE5E10A0
BEF05140
BE7CAFBF
BE0B2049
3EBD9A77
BD6CE1FE
3E181963
BED52A8B
BE2F30EC
BE9C6228
BEA0A09D
3E54DAF3
BDBB69F8
3DC5B272
3DAFA517
3E980B4F
BE9489EE
BE5380DE
3EAEAAE4
BF7161B3
BDBE986F
BEDC3C23
3E638DD5
3D6FEAB4
BE113294
3E8F32B8
3D77755A
3E6C218A
3F014F0E
BE89C7B3
3DAA31AE
3E38A8AF
BDB2CC40
BC5C6668
3CA2AFE8
BD8B53D8
3DCFB12F
BE05400C
3D330299
3D879A4F
BD07403B
3D32BD8F
BD76D349
BDCA064C
3DAD3B6F
3D139C85
BE98BBEA
3E62F3E4
3E04391E
BDE325CD
3C860644
3A772C47
BE30A342
BE69AD22
3D856B43
3BCD7CE0
BD8803D5
BE3436B6
BDD99C76
BE65E776
3F5E0B1A
3E208696
3E9C4CCD
BE2D9B03
BD42C0FD
BEB2D2C6
3EBCB3FE
3DE25D3C
3E636C51
BED87BF6
BCB7D823
BD90C4A2
BE952F95
BF0A96FB
3D25F8C8
BE909933
BE62BD34
BE130F5B
BCF1EEC0
BECA0D1F
BD3D7E8B
BF263EA8
BDB5E25C
3E29B3F4
BEA742F8
3EB0535F
BF4059E1
BE020CBC
3E3EA5BE
BE647C42
3D41A277
BD61C4B9
BEBD33E6
BE670B68
BE38E9E1
BDC57496
3E67BF6E
BF151CED
BCECF673
BE071105
3E02E959
BE2F2E8C
BD5E0EFA
3CDBBCDA
BE2FAB02
BDD79599
3E00D65E
BE3D73F7
3D2F5F5E
BF486C42
3D917490
3D206B7D
BEC5C02B
3CE25C66
3D91B7DE
3DAF8CFF
3C878321
3E6A1EE4
3E9FFCA5
3DFE2101
BE4C9B8F
BD80A042
BEC02C03
BD9DD32A
BE385E8D
3E67F471
BD9B1974
BF0D7397
BE52081F
3ED0FCEF
BEFD492F
3EC1AB06
BE951CFE
3D3E6F49
BDC17804
3CEBE561
BEC2A569
BEF15248
3A8D8F1F
3E462F37
3E829CFB
3EFC9E1C
3E2EAF69
BC8D6F3F
3D91DF44
BE027750
BDB663D9
3C8F8BC4
3DAEDB0D
BE70BC3B
BE79F553
3CAC532A
3DE74DA8
3E967B36
3E50A548
3D08D707
3EB33037
BE242D0F
BE735DDD
BE0E8206
BE457E68
3DAFA8FF
BDD172C5
BE175531
BDE056B6
3DBE97F1
3D8EA8CA
3F0957F2
BE0B61DF
BF1F18D9
3DE8C025
3E869970
3D43276F
3E7FB7DB
3F0E9C86
3E2CABF2
BEB83374
BE24BBBB
BE19C946
BD428C85
BE8AA4A3
BDEE289D
3CD090DC
3E27F8A3
3F0C95C6
3EA7341F
3CDF251F
3ECAC533
BDFA4313
3D49FB1B
3F090B35
3E277571
BF715AB9
3E04F8EC
BD60A465
3D0D8A47
3E8A936B
BDF6CB0F
3EB35157
BE19D397
3E04674D
BEC456F6
3E09E508
BD992357
3DFA4039
BE62EBB6
3DE6B26B
3EC87A9D
BE87FB0D
BE756574
BE96260D
3E91E6E9
3DF28A66
BE1E1579
BDF1DDF0
3F001CB2
3DB081FA
3E970885
BD69F70D
3E2C713E
3E31D372
3EA1A465
3E93D5F0
3DA89350
BEA77524
BED90991
3EF00693
3E49BB85
BE14D819
3E0A9CCF
3F18376F
BC4166D3
3C808444
BF570345
BC897C00
3D96F5B5
BE7D2F12
BDB75983
3E8A47CC
BDE872AD
BE71170B
BEA3E546
3E64418F
3E2A5703
BD77F1E2
3E311E56
3ED31A4F
3E72FD00
3E4C711E
3E6E8B60
BE8DA212
3CDC0BAA
BE785417
3E1BCD94
3E7FB604
3E0515D4
3CB0C189
BE8008FA
BE2D7867
BCD6D809
3EA10728
3E0F4337
BD21CD8D
3E4896A1
BCA95676
3BCAA454
3BE4E8A2
BD0C8D2F
3D9A2B3F
BEC99696
3D6D951F
3D6E2B41
BE37D83F
BD02DB92
3E1FB4A2
3E49509C
BD8D9F53
3F756196
BDAB24A7
3E013C0C
3D807386
BE0A0D78
BE643007
BC8397F5
3F10D249
BE5BB2CE
3E0964D3
BC6CFB76
3D023415
BE87102A
3E09750D
3DBB64C5
BA349345
BE283D38
3E1BAD9D
3E5B7352
BDA18386
3EA8EE42
BE877340
3EA9634A
BDD46859
BDAE92D8
BE62E3DF
BF03B2A4
3CB6E2EB
3E4B598A
3E9E895A
BEDD567A
3F10D2C0
3E7F24C4
BDC8A41E
BECE8E69
3DB82BEF
3F0861AC
BE1F2ABB
BEBA77BB
3E83421A
3DCAAFC8
BEED484D
BEBC4BDC
BE329F2A
BDAC599A
3C76CE93
BEA37D63
3E9EA598
BE997ACE
BE47363D
3E0E8D9C
BE9BD2B5
3E3E5F42
3DE345A1
BE1FF422
BDBC5879
BE3D519D
BE865FFE
3D1E7FA0
BE965F9E
BCB59E37
BDB92AB8
3F4F046F
3E3103DB
3E817AD9
3C870AA1
3E4EEFA3
BF2B105D
3F086E19
3E9AF7C4
BDB38F69
BEA469BE
BE8337CD
BE79C356
BD2F8F5F
3E17AEB5
BD478D96
BE190064
BD807B1C
3F0740D5
3E2C766C
BCB0FB80
BEE747B4
BE7950BA
BC719193
3ED565A1
BD8AE7FF
BEBB9FA4
BE8E5377
BC65F238
3F1668EE
BE6C0CBF
BD67DB51
BE95C98A
3D62C760
3E12D714
3E141E02
3E4BE8A8
3E30E92D
BCBDF5EA
3E9342E5
BEAC65FB
3EF6AA4A
BE0D2BBF
BEEC33DD
3E334F95
3EDD2D8E
BE90C8CC
BD70867E
BD6BFDC2
3EF0FC06
3DB282A7
BE913DEE
3E8EB6FF
BC683DCC
BDD062FE
BE415CE9
BE1791F6
BE7BCAEE
BE8FD166
3DFC179A
3D3C969C
3E0A80E2
BE26EA78
BE0E1D64
BD4C0DD0
BE5173ED
BD3B2212
BE63EDFB
3E3F00A9
3D63D476
BC8A86BC
BEB4893F
3F04D890
BE1AD65E
BE6BE72E
3ED41FFC
3DE6C6A2
BDE574E7
3E1A7B02
3DC4CFB6
BD409C88
BF8DD31C
BD8B0D5D
3E7B9824
BD60644C
3E8CFE0C
BB99A9F5
3E180374
BE8437BB
BD99A08D
BD928DEA
3DFEA58E
BDF63396
3E550DD7
3E7E647B
BCBB4AE4
3F45E931
BDB62165
3E537D58
BE27110E
BE8A8958
BDC36A57
3E5AE0F7
BED56438
BE8320E6
3D66514B
BD2DEBB1
3C69656A
3DA6F881
BDFF5FB7
3E4AA0C9
BCFA85B3
3ECDD6DF
3DC07235
BCC3A49A
BDF91747
BE76510D
BE44373F
3CA0CBE3
3E836C35
BB0F4583
3DBDD84D
3DE87820
3EE0002A
BDF3C7EB
BE144D23
BDF2DCDC
BE63ABD1
BE276683
3C1A189B
BD3469D7
BF039E53
BE74D1E7
BD1042A3
3ED625E5
BE362F99
BF850E8F
BDE32D98
BDD08ED8
3E0E1CC8
BB935720
BE172882
3E0BED85
3DCE1AE3
3DB46988
BEC8AE1E
3EE5D22C
BE633C5F
BDA07A41
BEEC2FCD
BEA27A31
3E3C5781
BD205D53
BE0EA788
3E278238
BE1F3AE8
BF148F38
3C136A35
3CA00828
BE226E20
3EB09CF4
BE8673E8
3E2050F8
BE6DAE5E
3E46DB9F
BE2EE537
BE09D4B7
3CA51741
BD996D02
BEDBCF6C
3E2B4B02
3D7BC2B7
BF07BE5C
BD0D25BB
BE500F5C
3EBC4556
3EBA6574
B9EBDDDF
BE22BA5F
3E9C31ED
BE616C04
3EAFDA8A
BEF2C25B
BD818E36
3DD308F7
BE3FE361
BF3E6B66
3F02A71C
3D8DC854
3EC2A0FB
BEE42C10
BC972EFB
3EA8E909
BEE8E80A
BDE3A8DB
3EA9686E
3E2D0BF2
3EF128C9
3F063A48
3DFBF5D2
3D503F4D
3E73987B
BD219DB2
3E02D11F
3DB0F29F
BDFF5D4B
BDB76AB1
BC06F68A
BEB9DDED
BE00C0E9
BE232EB0
BD7C94A3
3E02970A
3F12A18A
3EB87C39
BEF70609
3D7ACB70
3EC3E1D6
3E91B1FD
BDB9D527
BF0C1EDE
3E02DD5B
3DFB623B
BE97C4BF
3E4AA399
3EB0272C
BF0224E0
BE38FBC1
BEB809EB
3DFD376D
BE75A4BC
3CA616C0
BEF8D687
BD377CC4
BECB9D8E
BE78D4FF
BEBD9AA8
BE17CB4A
3E96373F
BDB95517
3D94FB96
3F0E016C
3E4040AC
3E9F48BE
3DE2067F
3D756B7A
BEEF3050
BEC03149
3E167ADD
BF135F8E
BEBB84E1
3D5A29D2
BEC8C2F5
3CD18BBE
3DFC22C3
BE1A7417
3E95D445
3D967E6E
BE9589CA
3E111D33
3E332AA3
BEBF0E68
BCB739AD
3E56F94B
BE456832
BE14F405
3D1801D7
3EEB48E5
BE423977
3EA563C6
3F0C8BE3
BCC9D1B6
3EB696F0
3CD0653D
BE781C48
3E49048A
3E0A4546
BD99AE13
BDE7BAF2
3D8D6458
BE817CE8
BD400744
BDB0E1E6
BD13D80F
BE7346CC
BDF330EB
3CF92BE1
BE537AA8
BF19D5AF
BE01DD33
BF0475E3
BD7D389D
BE41A032
BD518396
3E81C0EF
3EAE74EE
BF06FEC5
3EF5EAEC
BE1AB760
BED8D2F3
BEEFFFE7
BD233B59
3E3623E5
BE205AAB
BED4B3D2
BDB4D97C
BE29F2F9
BC264010
BC97C5BF
3D339CC3
3E2BD869
BE6DADEB
3BF59934
3EBAFAB1
BEE77895
BF0363C9
3B8A09AF
3E8648BD
BDE0D8C8
3EAD26D5
BD14FC84
3F4EEEB5
BE0D5643
BE85AE4E
BE18BC01
BDD8D0B7
BEA32A5B
3CE59068
BE95B3C8
BE1D053E
BE4479FE
BCB0CD07
3D92CB0D
BD40A3F7
BE2BB67E
BEF3C0C5
BE6396A6
BE15CD5D
3E818BE7
BE22EAD5
BE262C8B
3E4E3BDA
3EE5E53A
3C894701
BB216EA5
BD8E4EF1
3E640B8B
BDC5FABF
3EB9ABED
3D8DB396
3F29835A
3F3F5FBC
BEA3DD21
BE99CAD8
3E99AADE
3ED2CFC9
3DE81AE9
3E72D558
BD9BFB33
3E97D56D
3F02DEE2
BDEC014E
3EF97A48
BCD7E8C5
3F1D0055
3DAB3E41
BE26731E
BE78B6D6
3D9AC35B
3E9CE0E5
BF0D75D1
BE989511
BD84E45A
BEC55CC5
3EF15C2A
BF00AB09
3ED8B72D
BED7DA7A
3EA6B8F8
3E638462
BEB03687
3E28FC26
B519021A
3E9720D6
BD3E42BC
3E88E4A2
3ECB4273
BEC8B5CD
BDCA41FB
BDBDDE60
3F15E1F0
BE1D7570
3EEEBB42
3E23313D
BE350142
3E054188
BDADA696
BDD430D8
BE10D782
BF195CAF
3E70CEF3
BEAC54C6
BDD79590
3D406774
BEB40511
3D999FFC
3E77E5B3
3B8D467A
3DEF75A1
BBDD4413
BDE7F87A
3DF934C4
BEB99A83
BE71C5E7
BF4E419F
3B53C234
3E83D200
3EF821BB
3CD93B45
BA98E696
BDDC8422
3D8C922F
BE449761
3EE5ABB6
BEA5A0AB
BF3F7A7B
BE8F7C7C
BE3266F1
BE0D6F81
BD566961
3EDB832E
3D11F45C
3E4332C5
3E3B2543
3E787A8A
3C9C00F8
BE01443C
3E821EE3
BEC2AEB2
BE89E1E5
3E62BEE9
3DCD9EAC
BF070B01
BE8AA3D1
3E3CD176
BEA8D58D
BE863561
3EDB1A97
BF1DCBD9
3E83771E
BECDFAF2
BEB825D1
3E2A57D4
BE859236
BCD3A757
3F063740
3D00BD98
BE92DF72
BEA450B6
3E98B36F
3EF6D080
BE70FB02
BED14F3B
3E422C5B
3E14B92E
3BCFF912
BEA042A8
3E977DCA
BF34F406
BE54350D
BC4965DA
BE1B697E
BB0E8A72
3EAB7093
3CFDCD96
3EB05DD2
3F173611
BDEE4323
BD85680F
3D313A42
BE6AD21B
3D0A9626
3D9A6D21
3E6C6DEB
BD032F88
BC09363F
3E1EC0B7
BEF14043
3E93F64C
BE9E899D
3E12BB73
BED4006B
3E648C34
BEE8F5FC
3E6619D8
3CB707C9
BD07B219
BEA1A74C
3F1ECD72
3EEA0A61
BD2180C9
3E982D64
3EA8C92D
BDF90F07
BD8627BF
BF0DA3D2
3EAB57F3
3E902179
BE3F6CEE
BE7BD168
3EC536B0
3E911D20
BE541F86
BE3FFB71
3DFD250C
3DDA3486
BF00C2BF
BDE2FD60
3E0D8392
BE758615
BDCB34AB
3E60077E
3DD3297F
BEF66629
3CF0824E
3EC314CC
BD690B4A
BDE747E0
3E451559
3EFB3B74
3E82699F
BE7B1E00
BDAD1763
3F0F3046
3D7A4F41
3E139E17
3E990BE3
BD709BA4
3DEB0261
BEED9825
BCB2D20F
3D03C9EF
BF08C542
BE83D319
3C9B96D5
3EDACB8F
3EFE4A31
BE8279E2
3E3E4E15
BE881944
3F18EDB3
3D097C83
3EABA796
BE89ABB0
BE591E43
3DF0D9AD
BDCEF3E5
3F0CF912
3E894904
BDB9CFB9
3DF0B121
3E83513C
3E75690C
BEE9B6E5
BEADEF2D
3E103734
BE7BC75A
3EFF9F94
BD87CE8D
BEA71947
BE0EFE4D
3EE8D8CC
BF00E59D
3EE099EF
BD80CEF2
3D977CC1
3E2F8DF2
3D802F60
3EB62C3C
BC5EBB2C
BEBAC0C4
3DE90D55
3E7AD567
BD69BAE2
3D8B522F
BE9B50E6
3ECA78F3
BC0094BB
3D4B0EDF
3F1B8930
BEC09821
BD70043A
BEFFB30B
3E8A4157
BEBCB108
BE0DCBF9
BDCA3F1F
3AAC8153
3D9BC1D6
3E487DAF
BE4D3BF1
3D06CC4D
3E4002E0
3D45961F
BD4A32FA
BE5B1BA5
3E57C5F7
3DA4ECEE
3E12E0B1
BF0847B0
BE1E236D
3ED1761B
BE57FE8D
BD94E59F
3E3A3690
3E66E6F2
3F086BAA
BEFF8C92
BD5BB256
BF011519
3D519CB8
3EDA9E95
3F134156
BEC0B3C7
BEB1E649
3EA07BDD
3EA0FC5F
BF0B1C0C
3DE8E38C
BE724AFB
BDB4B62F
BD13437F
3DB44A28
BDE1AD4E
3E87BBC9
3E6A6F07
3E6B9E65
BE5B9095
BE747032
3C8CA01C
BE9D07F6
BD5CD0C3
BD926676
3E4B3087
BE3AA1D3
3DCB8A56
BE30ECC1
3EB9F4D8
3BF216F4
BF2BD871
BE4A71E0
BEA58A6E
BE172F91
BE2945CD
3E5BF019
BE19E5B1
BDDC2962
3D799103
3E81E7DC
BE89D039
3F35028A
BD0A7E46
3C20B00E
3D72F327
3E3FE777
3E8B16FE
3DAA3339
BEC84EC1
3E67AFF0
3D3B70CF
BE988D5E
3E6DD834
BEC84D9A
BE416806
BEA35A6F
BEC61164
3E000CCA
3E668FE2
BE119E73
BD97E610
BECB245F
3CF8E681
BD923B59
BE8AD442
BE9A928D
BDF7C39D
BE445A3A
3DF28324
BEA0E966
3E3F324B
BE1FBBD3
3E465F52
BF2107A6
BD9D7488
3E4AA764
3E686D04
3E265762
3DCE2EAE
3D11637D
3E96C678
3D83E16C
3EA13EC8
3BE17F4C
3ED906CC
3E272FD5
3D47756A
BDD19B53
3EDB0FA3
3ED899E7
BEF0E81B
3D99536D
3C9C48B6
3DBF6C85
3E9B0FF6
3ED1A442
BF12D8EA
3C58EB69
BEA35BD1
3F0D0925
3ED7F273
3E96253D
3E300C56
3F0A6E25
3DFC5BD8
BE05816D
3E018991
BEB94585
BD0A32EA
3DE3CD03
BEFF3880
BE86E9BF
3D2A3F7F
3E62CE26
BF0069DE
BD267776
3EA887ED
BE1CB7BD
3EA5EDC6
3DEAD8D4
BCE30AA7
BEEE87C4
BE273D5B
3CAB43A0
3D253FF8
BBA51751
3EC73105
3D4AB9CA
BE626C38
BD8F43A5
39A62848
3F150759
3EC37EE0
BEEBCB5A
BEB39F36
3E5CD08C
BE0E2E76
BE9EFD0A
3F0FD4D7
BEB04B79
3E9970A4
BEA58A12
3DE37385
3D844C6E
BEBB17F1
BD621F3C
3E80BE44
3ACD885F
BE18F062
3D3B1BE3
BD583C98
BEFB2714
3E8C3583
3CF55A2F
3EC6E766
BEF0CB8C
BDC15166
BEAD9AE9
BE98B4A3
BEB3DA56
3EAF8743
BD3DFF95
3EE783C2
BF275559
3E8187D5
BE15918A
BE81D374
3ED13E72
3E98E6B3
3E40DC6C
3D24B158
BD30A552
3DD6674B
BD6C00AA
3CA294D5
BE397C01
BECC5F95
3F2086E3
BD0B0E99
3EC84DDD
3EA3A6ED
BF1F0259
BE1A88A2
BE6203C6
BE8ED859
3E70C5EA
BD8C3FEE
BE6B5057
BDE00AA1
BDFE4169
3DAF871D
3D505A50
3F109848
3EDD32A1
BEE1DD4B
3E1BAA0F
BDFD9C21
3E0AF959
3DE2E6E4
3E896491
BF01813C
3D9933A6
BE3E3EDE
BCBACE7D
BEA0E35C
BE10FEB8
3E7460C9
BD8196FB
BE6781F7
BE72B653
BEA64040
BF22B4A1
BE3512D5
3EAF851F
3EB76863
3CE2E6FB
BD524B4F
BE31474A
BD1BB4B2
3E4F86AE
3E009AA5
BD5CD7DA
BD48C86E
BF0DE850
3E55190C
BC58BA36
3DF768C6
BEBA2C57
3EB6190C
BEE7D949
3E1EF3AF
3E8ECED2
BEDE12A9
BD2319D8
BA903745
3EA4B4C7
BEE97645
3E316F86
BE0C0603
BDDDC910
3E94C582
3E761581
BEACA57C
3DD37C60
3C98316A
BE8237A1
BD93784E
BE1A3995
BF84B58A
3E240EE0
BEE7570B
3D887B2D
3D651835
3EABB692
3D80C646
BE608E77
BDB94436
BE840F9B
BE6C7735
3DDA952B
BE0D2E6D
3E1A0753
3C2D0592
BDFCDF31
BE3086B6
BE57406A
BEA45DB4
3E81F14B
3C8570E8
BEBD26A7
BECAC8BA
3D55F418
3E7FB7BF
3E9B1A1D
BF834DB3
BE466A8F
BD5C2BF0
BD647EC0
3DD47A66
3C81F1C8
BE94025A
BE3D4B5F
BDC10DE5
BE34C888
BE8A7B88
BDA12441
3D802F28
3D33BCB0
BED1547D
BEAD47D6
BC3F063B
BB05F8FE
3D1315EF
BD9C099A
BDFC81AD
BDD02A0C
3E42C646
BD890BB9
3DC199AE
3D59AAEC
3E8BDFCF
3E016AB8
3D44E3DD
BF87156D
3D182F51
3F6DB4CE
BD707155
BF0DBA06
BF0BA416
3E9AFC97
BD740929
3F06AE1A
BEA11C89
3E2EA933
3D4C1951
3E9CEF01
BE8B0929
BF02FCE3
BD774FB5
BEA8CFB0
3DFF94A4
BF15B470
BEB772C1
3E2899C1
BE455ABD
BE8CBCC3
BED62F2D
BEA336AA
3D903732
BE96E5F2
3E2871B2
BE513E87
BE7CA1FB
BEF30258
3D980872
BF09D335
BC14E3BD
BE9E41FC
BD07EFC6
3E8AAA73
3EB900E7
BD04EB0C
BCE5EBDD
3EE25DF5
3E63B921
3E62D257
BE631ED2
3CD52D84
3D9ED898
3EBD9BD2
BEFBAE94
3CE9EC9E
3D26F494
3DB527C9
BF10DA99
3E855C5E
3F67F078
3EA34FC3
BDDCAEAE
3E919291
BE4AC4AF
BEBC0E6B
BDF05C91
3E5EB04C
BE8DF4A8
3DCB046F
BD35E3AD
BE68951C
BE9BBB45
3DB53897
BE438D17
3EA05AAB
3E4D0DD1
BD1CD9EE
BD28E19B
BD9BE0F8
BDA0F203
3E12D481
BC589070
3E87CC43
3EB2936B
BEC3C08E
BE309CD3
BEB96310
BEAF011E
BEAB9A0D
BE18D897
BD90C9F5
3E8421BF
3EA1FE4D
BE8E424B
BE02329D
3DE7B0FD
3F174540
BF3EF805
BD7B1EB7
BEBE535A
BE093002
3E92FD1A
3DDC3597
3C9FC41B
BE835211
3E732D90
BDE8B801
3F05D00F
BE20472B
BE0AFC36
BDB01A79
3E8AFC8D
3E24E23E
3D0C47C7
3E210408
3DA67E31
BED7EEFC
BCEE73D6
3DFD957D
3E767E45
BD3D6A51
3DC4DFC5
3E9C3DD4
BED622D0
BDB06C02
BE520E73
3E43F045
BECA4EE4
3E937A90
BE740CD8
BDC0770E
3E1479D3
BF0B012C
BD59C1F3
BF08BA3A
3D8E7E51
3E919840
3E9A3D95
BC6DB484
BF045269
BEC737E3
3E7E5833
BF16D483
3D083B76
BD0786C8
BF731AD7
3DB95A0A
BEAF0D1F
BF0B81E3
BEE6F8F3
BE106F88
3E728B5F
BDF4899F
BD5F7A46
BEB4FB5E
BE48CA6E
BDD38351
BE92CF15
3E333F65
3D3AF6EF
3DC37FB6
BE2F22A4
BDBC7E52
3DF3EBD3
3E699F26
3CEE82E5
3E398C49
BF053B65
BE34C900
3E883F5E
BE870DAC
BE8B7E9D
3EC4255F
BEE635E9
BE274878
3F084C23
3D5B5310
3F266BF2
BE0F34D8
3E99428A
BEDB0695
3EC61F1B
3E4AC261
3DA63453
BF1721CF
BEEB9E6C
3E95AB28
BE79C85C
BD88DA6B
BEA161EC
BF1750FA
BED1C2DD
3E833716
3DDCB728
BF225E3F
3EB4AD14
3E88F4EE
3E459BA2
3E507D0F
3E38DDDF
3E7C384B
BEDEA407
BF2B9CCC
BDB89BDC
BDD25919
BE894CD2
3C4291EB
3E3871F9
BEDAF087
3F0A2A24
BD6E5B70
BF52D542
3D990EE4
BEACD93A
3DF1493F
3E98EF32
BEA66D32
3DC03439
BE83E8BD
BDBEF102
3D6115F5
3F079456
BE6DA162
BE8FB880
3DD4A224
3E46B829
BE2E30BD
BE22B021
BE321589
BE9E0B40
3DD01DE9
3EB29B9D
BEFF973A
BDCA823B
BE194158
3E9F8122
BDACD856
3E45C4AC
BE16B8F5
BF5B017B
BE1DC803
3C0C6C3F
3EBCAC9C
BE89CDDE
BE5078F3
BED51A64
BF1C9111
3E11BFA5
BE12D4F6
3E09EB5E
3E7DAE5E
BE444653
BE975665
BEEEAE0A
3E2E75FA
BE04890E
3DF69196
BA6D9CD1
BCAADFF8
3DB80FB4
BEF26C34
3E6ABD83
3E43218F
BEAD0E97
BF1B4A7C
3DDCB60C
BE93E64B
3E37AB41
BDD8BA4A
3F32A02A
BD6A4CF0
3F25292E
BDBC77C9
3E79CA94
3DAFD8C6
3E6DE9C4
BE5F0CCA
3E39D499
3E412EAF
BEB46680
BE50D217
3E3A96AC
3EAB2A0B
BE5DC71F
BE2A3FA5
3E116B13
3E598988
BE960A9C
BDF71CA0
BEB5506A
BE411388
BE423C9F
3EADD440
BE7EF42B
BE01987A
BEDCA85D
BEC9EE4C
3ECAAAFB
3E9E1E47
3D08D8D2
3D28844B
BD8D8DCE
3D8CF243
3D090FA6
3E2AEC24
BE28B4C0
3E2336CC
3EA156A3
BD96EB65
3E333B4A
3F039C7D
BDF49B9C
BEB915B6
BE2F57AB
BEA12FC6
3EADC5B4
BE547D6B
BCE183C3
3CE3C9D4
3C48DE60
BCB45460
BE598074
BDFBF928
3E07DDD3
3E9E0823
BE41DC07
3D0B60C7
3B8F6C19
BE9D9773
BD5FC550
BDEA612C
BDD2AB74
BD499893
BE57C26E
3E65C5F8
3F0A17E5
3D58028B
3ECF9695
3E5BDDE3
3EA538BD
3E63D6D2
BF27CC9E
BE5F6D9E
BE98D6C9
3E928848
3D97F571
3B95E067
3D6D0D62
3E7CE55F
3E89EEFF
BDA521BF
BDE1974B
3F22F32C
3D884040
3E597356
3F0C8610
3E0A9456
3D3E00B4
BD20999E
BDA88D44
3EC58725
BE59477B
BC37CA06
BE4CD757
3F495515
3DE3FE30
3ECDE17B
3CCF1AAA
3E8EAB8E
BE47CF38
BDE1649E
3EDCF555
3D09F6CF
BE9B7368
BE601EA8
BEDF6F57
BE002448
BD9A24F7
BE8694DC
3D6620B9
BEC321D3
BC81D456
BD8F12E1
BD9EC784
3D166E3E
BCB77A86
3D058050
BF58EC62
BF1BF817
3EB61CEA
BDFFD426
3E9CC568
3DEDD3D6
3D4B8D92
3E991F05
BE39F7D8
3EB77A3B
BE43BDB8
BF0D5218
BE1C9AC0
BE014D6E
3DBDDA59
BE88D459
3EDA816C
3E4FDA45
BD9738DD
BEA72622
BF072376
BCD92230
3E0A0FC0
BCFDA776
BEDC8A4F
BE9BE1C9
BE9F21A4
3DD2F4EB
3E6B7B15
3F09E7B3
BDCB0980
BD479F94
3D9B2812
3CD984A1
3EFD29EE
3F55FEF6
3E5078EE
BEAE024A
BE5C0725
3E0CE377
3DBB6E17
BDA80ACC
3DD7082B
BE867F2A
BDE6D6A0
3E76E459
3E411B82
BD9F7738
3E893EF2
BE505AFD
BE4BF6C6
3F1A369D
3ED01383
BEA48124
3EA97492
3E3C2294
BEAD9BE3
BF2D5A89
3DABB23D
BEDD0368
BE426466
BE04AC43
BDF69C77
BE080388
3E80261D
BE9AB154
3E7A6B3E
BD59D8CC
3DD18DB8
BE930DF0
BF01ED0D
BEAEA322
BEB16580
BE909FE7
BE00899F
3EA22501
3E402E91
3F15C1AB
3F01166F
BE369DD7
BE8D908C
BDAD2DE2
3E116F0B
3EABA2C2
3C21262B
BE01B600
3C530043
