3F0291DA
3F18D4F2
3E0469D5
3EB51B33
BEA9BF0E
3EF8D98D
3F2B098D
BF041F39
BC4D6091
3DA5C2E1
3F296C36
3E8B686A
BF0EFCE3
BF0259C7
3CEF9432
3DBB62E8
3EF8FE89
BF18A4A0
3F02157B
3E58B287
3EE605D8
3D98B4D6
BF054D01
3F07F0A2
3F0427A0
BF003F3C
3D0F1C80
3F113A3A
3EFFAF52
3F201773
3F1B1991
BF00170F
