3D8F45D1
3D681A2B
3D9876CC
3E019298
BE0E35E5
BBCE5A81
3ED324C0
BE1DADA8
3E810EDA
3DD0F886
BE21987B
BE3A7B8E
3E53EBA6
3D07F557
3EE30733
3EB3DF5D
BDAEE39F
BDF3E368
BEB1AE96
3E9735DE
3EDCF3CC
BE1F8C03
BEB2690E
BF127E71
3D475180
3D315E5C
BE37A558
3E8E8E33
BC0F3A65
3BF5329D
BDF11AAB
3F10E3FB
