3DBBACD4
BE669866
BEE47DCC
BF1B286D
3DCAAD97
3D8474BC
3DCE8957
BE046CBF
BF062394
BEBB778D
BE06D27C
3D7B2F74
3C622498
BE9E2656
3E8B7E0A
3E88B853
BE0A3397
BEB454BB
3E4DADF8
BE034C05
BD30BD55
BE385FC8
3DBEBEF8
3F45373A
BF06F4D5
BF10A33F
3E4AA64E
BEB77501
BE9F1A8D
BEE96F60
BD42A8DF
3D56C4AD
3DEA0F1F
3E35E34D
BE9A3503
BE3DF3B5
3DBB93D1
BD60A986
3E28F0A9
3F1FC08E
BEF5C206
3ECD0755
3E8A284B
3EC7BA2E
3E1D7801
3F5DB7CC
3E54D6A1
BF239621
BE1C479E
3C36F7CE
BF80522F
BCCB8C30
BE2A4E88
BD9AAB79
BB1497D2
BF09F2E3
BE9A48D3
BD0BCE1A
BEAB1A32
BEBF2D2A
BC887646
BEFFCD16
BE846503
3EA1CABA
3E0F9786
3DD5EAD5
BE4A442A
3F1BCFD5
BE2590B0
BDD6BA60
3E53831D
3E978218
3DDB9F3C
BE0ACE71
3E2EEDCE
BEF8D4F5
BE87226E
3DF5EF39
3E9C56B8
BDCDB111
3CEDF3B4
3F038F65
BCFDD929
BEDE955C
3EBB684F
BF2FA961
3E62F2D4
BE1416A2
BDABECA7
3D6D54C5
3EED2491
3F098873
BBB0178A
3E54E6B3
3DB50B70
BF3FA330
3F1D2ACF
BE5747DF
3B77327C
3E974D74
BEE920BB
BE9D34AD
3DDA459A
3EAFD392
BD8B4F6B
3DB8AE2C
3F038F58
BD4463C8
3F099D17
3DA692F8
BEBC1524
BE30F959
3F31C31A
BE9C9009
3B23D862
3E387271
3EBD4E70
3DF0B586
3E9F428B
BDFC9D51
3B3C88B2
BE01CA60
3E5E6ECD
3DFAA6CD
3E11F9FE
3E2E5867
BE6CB25A
3D162EBE
3D8F70F9
3E9B7856
BDB19724
BEDA0220
BE9F0BCB
BED4F0F2
BED93D22
BC7D63A3
3E08E0F4
BDECB48B
BE62BBEA
3E9C7F2C
3E9D7553
BED0EEBE
3F1B9684
3E943305
3E101E7F
3E6AA7C0
BDA910FF
3E248AD9
3C88DBF7
3D9A3D6D
3E67001F
3EC2E95E
3F1B4B4B
3F0505A8
3D6AE5F2
3EBE1B80
BDE8EF8D
3E98B53A
BE0DFDB2
BF754F6F
BE809DD7
3F0041E1
3DE1BB5F
3E71E2DB
3EF53F4F
BD4E351F
3AD562F3
BEF8F16F
BDEF2FA7
BD7982C3
3DD139D8
3E79303B
BE3379F1
BF0B56F5
3E9E843D
3D373058
BE28DBD5
BE4CAE1F
BEBBCA40
3D9F8EA2
3E639C78
BE1BBE0B
BDAAD3D8
BE9D5C1D
3DF7218F
BDD56601
BE989D45
BE97CB70
BDB7F928
BDEDCF31
BD1752DD
3E52297B
BEB39B0F
BF239873
BDE13CD6
BF18F2CF
BF2B98D7
3E34FD43
BE328C36
3E1E98DE
BDA77E9C
BE03BB50
BD9E4902
3E946FAA
BE8AFBE8
3B0DD23B
BD67303E
BE3033D3
3E9ED666
3E72AF7D
BE0130B5
BE113F93
3EBD3085
3CAAEF37
3F26E363
3E040EF5
BF118F72
3DD3031A
3F84AB34
3D1D85CA
BDBBC86E
3E12D032
BE59C9F0
3E97A714
BCBCF3CC
3E35671F
BE7E7A5B
BE09C813
BE0BEBD4
BE68CDFF
3F1DE1A2
BDF35AA4
BE090DDF
3EC1825F
3E5F7FF5
BE37FC78
BE064022
3EE83D3B
BDBA51EF
3E31A0E0
BCC532BA
3DF24CB6
BE07F51E
BE2517B3
BE84ED29
3EB85F89
3E3AE123
BF39CF20
BF0EAF02
3F24D630
BE36A80F
BE3D6CAB
BE0BBF6B
BE1A35BA
BE59F283
BE582334
3E0ED7C3
BC73628E
BE8A8509
BF5AA42F
3DCB3634
3D2410AE
BEF66A19
BE0C030A
BE977045
3D4B4556
3DE76919
3D62B8A4
BED18BE5
BE777AB0
BE5E63E2
3ECD672B
3E2F1722
BE09770B
3DA9D0FF
3CD50E55
BDA490CA
3E904E5E
BD7F675C
3EA19A2E
BF0D61FE
3EDB853C
BEA247D8
BE8A674B
BEEF3A53
3E641B07
BECDA82B
BEC8C0D8
3C1B5DF5
3E7331AA
BEA8F52B
BE973904
BECBA1C7
BCF7BAF8
3E9BF63A
BDABDC98
3EFA4E9A
3D620EBB
BE1F77E1
3E88B0D6
BE8336E0
3F30D3B4
3CAFC637
BF805B59
BF0907B1
3E89AC12
3E6221CC
3E06A751
3DF9BD7D
3EA9AEA5
BE1EFDF5
3DC54CA4
3E0D8033
BD15DC12
BE189C73
3DCA8136
BEFBB478
BE0E7DB0
3F0A0C43
3E2E9C2A
BDB8919B
3E63C8B2
BF12FD31
BE8479C5
3E255042
3E2212A8
BEABE6B3
BE28378A
3EFBF115
3E971324
3E365A7E
BE48A88E
BEB39BB1
3E9A0441
BE111123
BE14ACAF
3DBF3DCC
BC2376B2
BF32FB1B
BD71181E
BDDEB853
3ED95CE2
3EEFE01A
BE820A2A
3F69C057
3ED0FFD0
3E588484
BE723096
BE16EEEE
3E283C10
BE7B9E65
BEDDDD1E
3DB00077
3CFCC518
BF18B3BF
BE5977BF
3EDC5155
3DA63F9D
BD8601B9
3DE39F9E
BE0BBD85
3CE4BB51
BCA119E1
3F50803D
3D29237D
B9595EAC
3E34ECF9
3EA646A2
BCF7CAD8
3D9A8A95
3D632A1C
3E62A3DA
3D5E117B
3C1A1702
BE79920D
3EA42A80
3F128B37
BF0B9882
3E83AE05
BF21AF35
3E3F6E89
BCB2873C
BEFEA0A9
3EB42A2D
3E249977
3D2C3637
BEFD6F1A
BED1018F
3D9D229C
3EF7D5C9
3E604FC6
3D232772
3E6C2108
BCE56159
3E9021F1
BEFB7A90
3D5DC93C
3D601300
3E8FE173
3EBB0CAA
3E403F03
BE016562
BF310A55
3D361647
3D404042
BD84390E
BED0E876
3E21EB01
BC8F5E1C
BD8AB08D
BDA3BDD2
BEFB4DC1
BE0BE504
BE4B7C4F
3F183AFF
3EA1BDC0
BC957F79
3DD043B6
BF121C04
3F3082EF
3EE21477
3D79DF14
BE18454D
BD83EE0A
BDB834F3
3E8D203D
3E960C7B
3E179B7C
3F1B599D
BEE950E5
3DB46048
3E950D97
BE4B899F
BD708709
3CBEADA5
3DEC8849
BF1EEBC8
BC9768E8
3F41AF96
3E3011B7
3D86D51A
3E0CC5AC
BEFB606E
BDABF993
3C1A5597
BDEF344F
3D0391B5
BE177C80
BD0E23AA
BEBD2336
BE00D15C
3D7644BB
3E63479E
BD8D5C56
BD40B476
3EAE1DF9
3C50F2D7
3EDF10EB
BDF0A831
3E614483
3DD4BB08
BE34F3A9
BE73D50A
3DA301B6
BDFA14C1
BEC16677
BED2B2F3
BC6223D7
3D8C4F29
BE518361
BEDBC31A
BE6C71C9
BE6518D3
3E3A7478
BF18C2F2
BEF2E534
BE33E081
BE4F2E84
BF3AE663
3ED0A96B
BE808137
3D341A1E
3E7E6B7E
3CCBF105
3D045679
BE67A0C6
BCF0C38D
3E6A1565
BE655C11
BF16AEDD
3ED76D73
3D059C14
BE1C031D
3F2B4CBB
BDE53468
3E2BCE49
3D34BCAE
3BA66FD6
3E3A8CAA
3E80C8B5
3F01B312
3D0CDB9B
3E58FE7D
BE07AB39
3EAF9616
3BA49409
BEDDDAA9
BD48EB7C
3C4494E5
BE02BE4C
3E48A6EB
3E2A9E7E
BDDCC6CD
3E1EB258
3E57B894
BE4912C0
3EC9DDAF
BA974785
3E327E5F
BE8C9557
BC2A138F
BED9DB96
3E944E4A
BCF7FEE5
BEAD49AD
BE6B4273
3D7BC04B
3E8C8160
3DEF0F46
3D9C0E82
BEBFDE4F
BE349789
3DD8F268
BED97A3C
BD14A5CC
BE6F0E2B
BE5BBA15
BEC4365D
3ECB204D
BE28CFC0
BE3B2573
BE4FC66A
BE785AF2
3DDF9BF1
BE9467AA
BD43611B
BEBFEE00
BEB21AAA
3DC57748
BDD0B350
3F010358
BC20D9B5
3E935E5E
BE8A963E
3E856800
BE752018
BF1C2D55
3E1063B9
3CB50378
BF1C6204
BF305D00
3EBD188B
3E6E342E
3D7C500D
3DC30FF1
BE89CAFE
BEE4B92B
3E26DA63
BC698D78
BEA084B0
3EAF6CE7
BD819A66
BE94B293
BE1D25CB
3CBA4937
3D9F9F6E
BE2FD604
3E328264
3D94BF04
BC0B9616
3E86F2F3
3DE029A6
BD02E939
3E2E6E0C
3FA3AA7A
BCB228AC
3EBDD4B0
BCA57A48
BEE1BF26
3CE4DEC7
3E19DB1F
BF1D1CF7
3E415F80
BD35D610
BEEA6B9A
BF07C10E
BB0EBBF0
BE6056CA
3D10A620
BF0E4AE6
BE35EC05
BCFD678F
3E30A828
3E389526
BEC2E193
BE84AC76
3E12D77E
3EB62531
BE5AB2C4
BD92CDB3
3F0A7D3C
3F14C481
3CACD0B3
BC90179A
3DCCE157
3CD08950
3E20B399
3C8319BB
BEEAFD3B
3EEE04A5
3D213425
BD7BB312
3E59F09E
BD8A0E3C
3DC69EA1
BCB12F17
BDE3B51A
3E78A3B1
BD6EBFB1
3F49B43B
3DDD0AEC
3F32E1A6
3DF713AC
3F0BC417
3E29048C
3D478718
BDF3F322
3E9E4533
BE431C65
BE25C327
3D094863
BE36472C
3D95D8D0
BDEECF3B
BF013FA4
3E8DFF82
3E891A2B
BE371D11
BEA39717
BE2296DD
3EA6605A
3F0F1856
3EC7F3C6
BEA7510B
3F73E8E7
3CE15C41
BE599EBD
3BFBE7ED
3EA7515C
3E557231
3E9E0A4E
BE42E3E4
3D01B2AB
BD929FC0
3D8E0708
3D809C58
3F1043CE
3E4852BE
BDD41EE9
3E869F35
3E139171
BD0E9BFD
BF015E37
3EE6F91E
BDB262BE
BE7A5FEE
BEC14016
3E9F3EF2
3E72FED2
BDC1AA9E
BD7B4FAD
3D0DA22D
BE2D5A56
BEAE5A42
3E379865
BE98C82D
3DA0B392
BE19E6EF
3EDA13CB
BE1C5E6C
BD4F4A12
3E7B0D79
3E64600B
BF61830E
BDC4D5EE
BE2D58D9
39B9C6B6
BEA2F62C
3E5F5938
BD8F145F
3E634C04
3EE3F143
BDE4711F
BE94EAB3
3E4C2361
3E19E142
BC393B96
BE9250F6
BE9B3BD2
BEFF3176
BEB688A0
BEAFFF51
3D78735C
BDF30DF6
BEA7F407
3F06C31B
3E582176
BEF0D3FC
BEF42BB5
3EA17CDD
3EAC894A
3EC8B35A
3D3FA125
BE22FC87
3E73B827
3E1BC4C9
3E36E09D
BE77A7AE
BDCBEEFD
3EECAB7D
BDF6AD82
3EA74142
BD9DC495
3E1E27F8
3E5FACA0
BF08FDB1
3E8645AC
3EA647D7
BEC21391
3B93648C
3E50B298
BDBD13D5
3CB535FD
BE802B49
BB07DBD7
BE294683
3E4BE0BB
BD5E9F58
BED764A2
BE878953
BF06AFD3
3E47C5BA
BE248802
BD286F80
BE11690C
3E690EC6
3D71942C
BE72240E
BDEB7279
BF3EE838
3EB14453
BE4A2877
3F90B7D3
BC54D7BE
BE88A4E0
BA119036
BB08A1A5
BE9A2C4C
BE7AD500
3DA4E57E
3C9D3E19
3DAA4897
BE940322
3DACFE8F
BF058F2D
3DB8FF53
BF52F991
3D9235E3
BF1E9978
BD346DC0
BE738F13
3C41FE27
BE915F44
3F1532D9
BF303260
3EF0AA24
3D6A0517
3DD919A0
3E0370D6
BE9B4C26
BEDEE894
3DA767AE
BE601C99
BF1025B3
3CE3B45A
BD85F382
BE3DD59B
BE29F9B4
BE4E7AB6
3D02ED25
3D548805
BD0FD090
3EC01399
3DED5599
BE8EE2FE
3F0AC1D1
3E0CDAC9
3D82B246
3DFC4739
3E2E05A3
3D890AD3
3E7F18FC
BD4F6AFD
3E4C4A7B
3EB7AAD2
BD75382E
3D7453AF
3E572F68
BD7DDCA2
BF154EE5
BC9CA700
3EEA4F1F
3E37F505
BC8A538B
3D440398
3E0CB727
BDAF7689
BF28FCA9
BD9E3DCF
BEA26BD8
BBA74B9E
3F17C238
BAA1AD0E
3E2E81D5
BD921010
BE0A37D0
3E0BC4BE
3EA416E2
3E646BD0
3E865379
3BFDD89E
BE8141AD
3D680F00
BE26936D
3DBFD61C
BE86AA23
BECA786A
3E905F76
BD3CD5D1
3F02307A
BDB23465
3D1303F3
3E8ACC97
BF033106
BDA7F3CA
3E992D6A
BEB92B81
BD56A0E6
3E72E12C
3ED19608
3E24BD80
BC09FE1B
BE9A6B02
BEA0A1F0
BEB5C45F
BEA27688
3E29B9D2
3D8F9F0E
3D80D602
BE3E55F6
3E9DA021
3E10A9E2
3D427ABC
BCC0AFA3
BF05C7AD
BEBCA69A
3E0236BA
3EE4EE48
BECBC93E
3E511442
BF0F2679
3E3FB426
3D1DC62C
3E149B35
BE487877
BD530365
BDD9F120
3CDDD9B0
BDABB644
BE6EB2C4
3D83CD6B
BE0AE6AF
BDBF7C55
BEA22DEE
BCAD503B
3D434CD4
BE87913B
BED26A8D
3DA7A62B
3EC40910
BF8122D8
3CE03169
BF08A4EF
3E4B46E1
3E26B76F
3D858875
BF6758B2
BDE4987D
BD86C13C
3DC78D1C
3E48013E
BE41F2CC
3D519930
BEAFE4F8
3D9F864D
BD8AA718
3E3BEAA7
3E5DBF91
3E0BEC01
3E561D0A
BE35DE31
3E310A15
BE9615DE
BCA43AD3
3E6BAAF6
3DB63CCB
BEB08A60
BDF3452E
BE254AE4
BE2E7FF1
3FCE1E60
BEC4E6F2
BE177D95
BE3A56F5
BE315AEE
3CB7C4DE
BEB9DB8E
3DA42FF7
BDC6D4A0
3DC731C5
BE3765D0
BD9FC736
3CCED78F
3D45B0B4
BE4A4A38
BE9E37C3
3F4CCEFD
3EBD9405
3D0523C9
3E4312A8
3C0D268F
BE9636C2
3ED9932E
BE653AAE
BDA7EC3D
BEFE8D2B
3EB2E073
3D89ADA3
BE9C8A5A
BCC1809E
3DAC9AC0
BBAC3C9F
BDBA63DD
BEBF7245
3DCAA3EC
3E548195
BDF5824B
BEFEA14A
3D439DAF
3E8C0255
BE634660
BD2E8BAC
3DB0D33A
BE154786
3EA16179
3CBF2606
3E76FB8E
3E1E6CEF
3E6E92DA
BDF29DFB
BCAF87ED
BE43B4B6
BE190AD4
BE051F27
3DF04558
BEB01C6E
3EAFDA27
3DE9E446
3D35092C
BDA80760
3F4A86BD
BC943EB1
3D119526
BE3E37C6
BDC8EC07
3E8C6B09
3E12324E
BE7AB76D
3DD7A66C
BDD47B1A
3EC40A1D
BF3CC59C
3E8D84DC
3E5D742D
BEC8C56F
3E10CAA9
3DB09F66
3EA8BB2C
BDDD6947
BD8D8B13
3DADC80A
3E437134
BDB6FB0A
BEA75482
BCEEB316
BE056543
BF6C5435
BD670AAE
BE3A7432
3DFD29CC
3E20613C
BEF1169C
BE65B1E5
3F4570BB
