3DA54CA6
3E1670A6
3E38ADE1
3E6C2E2C
3D3C0B4E
BDB5D989
3E8D0D7A
3C56D1D4
3EC2569C
BEDA2902
3E2A0AF1
3EA670CA
BE98E010
BE4BA0BF
BC94BED4
3E32987D
BD9AB34F
BE0CBEBD
3F21D558
3EB4D6D5
BD546126
3ED184CC
3F1D4915
3E932CD9
3E6229D7
3DF83523
3F017C1F
3DD0CAAE
3EADE787
3E8134BC
3E24FA92
BF00BFB3
