BEBBB5BA
3EC07BFF
3E10B175
BEEF72BE
BE8EC837
BF255499
3EA5FE6B
3E594C78
BF0CD0DA
BE969335
3EDF71D8
BEB508FC
3E7D2995
BE9A633B
3E169AF9
BC8EA32C
3E6CAE39
3EAA0F65
3ED224EB
3E3E7306
3D8D4B60
3F09404D
3EEA1FD3
3D67CCD3
3F07F61D
3EEC7B0D
3F018323
BEF3D3F7
BDE79E24
3E3E8749
3DBE5B27
BF25217B
BF11E154
3D65BE6B
BE8F4352
3D821AC5
BD06D9B1
3F2D654F
3E3FE62E
BF0124BF
BED36CAF
BE276AB9
3D2B80CA
BEACAF83
3F132403
3EC46670
BE911B5B
BDEA9C28
3E5C7E2E
3ED9D718
BEBD17A0
BEA4667B
3EBC923E
BDEC8F32
3E565F30
BEA17D9E
3E76B9D2
3DE92584
BF0B91C1
BEB07247
BF0126BC
3E97DB98
BD6BF0E5
BD44EEF8
