3EB036C0
3EB74098
BE32F157
3ED1AD16
BF1A9DC6
3F0935BF
3E8C4C50
BE843B40
BF0E2367
3EEFE197
3EABE70C
3E09D5D5
BDFB01BA
BE0D3FB5
3EC3036B
3D7C52C4
3EE7246B
BEDFE128
3D6CA0F6
3D53A081
3DAD4C13
BF045482
BDAE3250
3E6A9CC9
3E97E167
BF03191A
BEABD240
3F149721
3E6669B9
3E509C27
3E95141C
BE291F8E
