3E6A3442
3EA15C89
3F0AA4D9
3EA19D83
BF0525CA
3EB7A4D2
3E9C7C56
BD0D8908
3E8552EA
BDCE1236
3DF56807
3EEEA41B
BEAB84AB
BE5F8C64
3E9F8285
3F0F915D
3E6C5FEB
BEA7C0BA
3F1B0E27
3ED10550
3B05BF47
3D114DB3
BEF1C4F6
3EED2485
3EC59B15
BEB41537
BD8B5198
3EE841CA
3EECF03F
3E9942AA
3E60DAB1
BEDDC966
