3E105857
3EF558D9
3E10577D
3E79C434
3E988921
3E80E0D4
3E2C38D4
3EC40CFE
BF93DB88
3D988E2F
BFBDE9A9
3D8B5CC0
BEABA981
BF57DF77
3ECEEEB3
BF7BFFE4
BECDE7E7
BDF7893C
3DCB4437
BF66353E
3C999ED8
3E930194
3E972817
BE8CCF42
BF65A0D7
3DB6D5D6
3D1B3307
BF224974
BF4F21C0
BF6BAC5A
3EE3C7A6
BE81BECF
BE14921C
BE28051F
3D0B66F4
BFB58141
3D56E072
BFC3B1D0
BD434EBF
3E7E6CC2
3F12189D
BE6606EA
BF6E9833
BF2B49DB
3E5F8526
BE40E8ED
3E8681C3
3DF0F470
3E873DE2
BD8BF65E
3E2E7F2B
3E60308D
3EA2CAEA
3DD50B8F
3D3D4F54
BE00E200
BE901DF6
BED64AFD
BF8E55D6
3D8D7329
BEECF833
3E959D84
BF9DFBB1
3EC6EC3B
3E530FFE
3F134681
BE4074C7
BE999F08
3E23F13D
3BA10A51
3DF7DA17
BE81AE4F
BEFF1808
BF9C9377
BE91F679
BEC21770
3D418E80
3E3A9467
3E39799B
3E03EC52
3E027478
3E398788
3D8A13B0
BED8795A
3E8F1E1A
BFA2F286
BF94052E
3D5473EB
BD06A6E0
BEBBE3CF
BF3E6824
BF5F64BC
BF7B5144
BF029554
3E543AEE
3DC554AD
3E5DC2EF
BF9304ED
3EC12D11
BF677020
3E8931F1
3E672EE0
BF8B2380
3D10999B
BF3EBE33
BF0699FA
3EB12FA0
BF147B62
3DB7DB64
BF14A707
3D826898
3D37DD64
3D393DFC
BBB6E5B0
3E1643DC
3DE1BFC5
BF0FD741
BF039C29
3E9555C2
3DD26F41
3E762EBC
BF53E1F2
3E3FCC99
3E5A3E6C
BF835E57
BEC8F82B
3E922FAC
BCFEAEE7
3E3B69DB
3E824121
BFA6801F
BF5C6659
BD978B52
3D6236C4
3E3FD86C
3E86CE50
3F6358C6
BF2A8B25
3EC961DE
BEA187A3
3E5D38DD
BF10ED20
BD8AD79F
3E36A3DB
BF0D1669
3ED08194
BF961117
3E369F4D
3E8F4A93
BE103522
3EDACA26
BF630D03
BD037AE4
3DD77F1F
3E51DF41
BF0E1357
3DEA512F
BF5A68D5
3EA0D427
BE6583D6
3EDEDF79
3E4832F2
3E925031
BE4116BA
BF67DA37
BE83E5C6
BF8748FF
BF24C2E0
3EFC5932
BF41045A
BDB6D234
BDAFEAB3
3E5C555D
3E48F7A9
BF525345
BF8FB244
3EA75B47
3E6C90D2
3E27703A
3E827859
BF35AFEB
BE983DAE
BDC95C3E
3EB8C49F
BEFC1D49
BECBC722
BF40C3CC
3EB5AD84
3E6375C1
3EC349E4
3E370D5D
3E8A3DBB
3E553945
3E832F6E
3EB46052
BF7B3B95
3E83D21F
3DF11B4D
3EA996AD
3E12DA1D
3E97882C
3DCD30CD
3E7B8B66
3DE8366E
BD1B3F9C
3ECF2255
3D9B020A
3E135E6C
3E4A1D32
3EA4A9C5
3E1C785C
BC9826C3
BEFE1108
BD2A543C
BF368A3F
3E9316FF
3E574CF9
3E59B197
3D7367E4
3EA9926C
BFAC16D6
BF79425D
3C8F94A8
3D92D781
3ECE67EA
3DFD4892
3CEFDBC0
3EADF3BB
3E8993AF
3CFF3413
3EB5C6B0
3E9E923C
3E2EF3ED
3E796DBF
BF3624D7
3E312ECC
3E3D44D0
3E3092B7
BED1872A
BF9FBBCC
3EC7B93C
BF374984
BF26D518
3EAECEC6
3E018B4E
3ECFEE31
BDC45D6C
3DEF14B3
3DE72404
BEE8BFA7
BF6F312C
BD359866
3EAE00D0
3E821273
3E5A81E5
3E2CD86A
