3ED6D8B3
3EA7062F
BF080EF9
3DE81DA9
3DDA123A
3E651CD4
3ED7ED86
BF178712
BE64913C
3E1008C0
3ED19F08
BEBC1E0C
BEC86DF7
BE8187F4
BF0859D0
BEFF38FA
3DA6638A
BE32BC2A
3D409480
BF037B8C
3F0DDA23
3D2D135C
BE61524E
3E9EC100
3E8B53F2
BE41620F
3DE1FD67
3DE73344
3E6BF0CE
3E96D1C0
3EEDD008
BE85CD14
