3E270B2A
BF978988
3E388834
3E0B7246
3E751A0E
3EBB8E03
BF03EF0B
BEC4BFB1
3E9BDE2B
BE9D720B
BDCA9CA0
3E69B111
3CCAAA93
3EB9B84A
3EEE21C3
BF7DB9E5
3EA89693
3D5217F8
BE9377C5
3E6808C0
BF10E7E3
BF498BBB
BF1636B8
3E7742F6
3E79626B
3EDC2FEC
3E6995B0
3EC38263
3CA93AFD
3EF94F6B
BF03978D
BF5D8C81
3E8DB644
3ED56C87
3B8520A6
BEBB42EF
3E4646E8
3D312CBE
3E0E38D1
BF08B9DA
BEC361C0
3EA90C46
BEF19DDF
3F014677
3EA6C06C
BEDB31F0
BEBC3A2F
BD292BB6
3DA9E96A
3E80B227
3E40599E
BE87FD26
BE540EAE
BF520D47
BEAB45B1
BF02B584
3EA9A2DD
BEFF6CAC
3E395582
3D0F5591
3EBADA9D
3E87AB3F
BF929FFE
BF1D4986
3E480247
BF12FADC
BF57D711
BFA92A56
3E6312A8
BE009429
BF242CE3
3E4C2629
BF5F9708
3EDCF3A9
3F050F90
3E6B66EA
3E0FD3BF
3E7ECF0B
BF4CB969
3E35F4F7
3DD9BD98
BCECF5ED
BF07F42A
3EB04343
BF48A44B
BED49D96
3DFABCCE
BF0F66F1
BE96D0A0
3DAB3683
BF74B254
BF74CBA6
3E71BF04
3EA8C856
3DC89D77
3E89EE9B
3EC7BBC8
BECE751D
3EFE9A80
3E6F11C5
BF49BA51
3E527725
BF239E57
3E97D894
BF4A7863
3E2CFB08
BE66EC44
3E89724F
BF5AE382
3E834262
3E2AE85C
BF0173A6
BF9D34FC
BF43DC55
BE9EFAAA
3E55A6CB
BF1FEF8D
BE830451
3E34A038
BF849810
3E7C37E0
BE1AE752
3E1C5177
3E853DC6
BF0711FD
3F065BDD
BD9EF345
3EB28490
3CB77867
3D989A1C
BF675677
3EB31448
3DAC1DD3
BF47FB3A
3E76DB6B
BDA3BF37
BF2252A6
3E6E4AD3
BF0C1D50
BE8EA973
3EB7EC38
BF2269E7
BEEFCC6F
3DFF2103
BEADB0F7
3E92F10C
BDBE90B4
3E42F052
3E22A3A1
3ED2C8AA
BF5B5443
BF768232
BF2511D1
BEF476A4
BF218532
3CB62C67
3E624B20
BD5C54ED
BE6F92E3
BF9FE90B
BF983D63
3ECE4D97
3E6AD3A7
BF5C098B
3D832909
BF7BB0A4
3E60B04D
BDD5CB82
BF3E430A
3EDC2ECF
3DF8F860
BFA27DC8
BF4D3234
BF33EFBC
3EDF00F3
BD513CE9
3DBF4072
BC52BD5C
3E94F7BA
3D2240AA
3E70B495
3EE5E3CF
3EDD0034
3EB9B59F
BF081F85
3EE114B8
BF1D50A7
BEB83EE6
BF008CEC
3E805FC0
BE5AB67D
BECD0F4D
BF10F4EC
3E6DACC8
3AD152C3
3EB1E704
3E9F866D
BBE41655
BF22E3C7
3D89D946
BDF5ABAA
BF809D08
3E58BD80
3E811BF2
BF13C326
BF94B24A
3EF829C3
3DA99832
3EA6967F
BF131460
BE2070F8
BF5FB69D
3ED7446E
BF81AB40
3E299C68
3E8C1017
BE1FBC48
3E1DFF20
BEDAB0E0
BF9F335E
BF16E99B
3E85FEF7
BED009D6
BF1DDB74
3E371040
3E1F7E81
3F165A94
3CC5E603
BEBEE854
3E926358
3F149163
3D99B6EC
3EA6397F
3E0DFBF2
3E4D98DD
BEE0AB2F
3EB508B0
BE0E63AA
3EC8891E
BE07CF61
BE916E9E
3EB03346
BF3B9F72
BED78594
BF431E6B
3F0304F5
3E368698
3E1D17D4
BF890E2A
BF5AC755
BE910E20
3E4D0AEB
BDA218A0
BE035105
3E4A49CE
BF4DC58D
