3EAE9FEA
3F190B57
3E14DE2D
3D85322E
3E9CD5CB
BE6B136F
3F0DC1F7
3F07D364
BEC67C86
3ECA8914
3EE098EB
BF2CD8B0
3F287B47
3E1ED189
3F144593
3EE0B80D
BEE93219
BF0EE91B
BD7F1391
BEB874E8
3F24C790
3E702E9F
3E91587A
3E2D1E3C
3DC6AED5
3F0D80AE
3F4A02AE
BF118C7E
BEBDCAF1
3F220CDC
3EFBD12B
3E6CF54E
BEE6A4A6
3E3DEDB6
BED028ED
BB795D4F
3EEF00A6
3F512F19
BF33A1E8
3EA05779
3E011639
BF09DC04
3EEC26E2
BEE2BC68
3F2E08A0
3E959E7B
BF2064F6
BEC715EC
BD91BA88
3F133D9B
BEA97B6A
BE81F693
3E8CD07E
3F00C596
3E960F66
BF00E030
3F084307
BEEAF22B
3E784BF9
3D47A1C0
BF35D08A
3F3CA8C9
3F21455A
BD935818
