3DA3C124
00000000
3DF7A9FA
00000000
BCA1CF5E
00000000
BEB12D4D
00000000
BEA68E02
00000000
BD0D8FA0
00000000
BE5FBAD6
00000000
3D07482B
00000000
3E780476
00000000
3E66EC01
00000000
3E97331E
00000000
BC83E3C0
00000000
3CE7FE9C
00000000
BE0199BF
00000000
3DD4502C
00000000
BC1D0F90
00000000
