3C770464
00000000
BE208B76
00000000
BE8FFF3C
00000000
BE2AB9CA
00000000
BEBDF987
00000000
BC2235F5
00000000
3D868097
00000000
3DE87839
00000000
3E3D6915
00000000
BC42A11A
00000000
BE0E8558
00000000
BEB4670F
00000000
BE74B394
00000000
3E993D1C
00000000
BE598A18
00000000
BEB773A1
00000000
