3E9E7D04
3E9F7CFE
BEC04E61
3D7928E6
3E81438C
3D5E86CE
BF4150F9
3E403222
BE47CE09
3E29A3F1
3D8F55DE
3E4DDDFE
3F09727E
BE42DC53
3E1ED391
BEB96AB4
BDB5CE19
BEF36C22
3E80219E
3E90B25F
3E45FFB3
BF1704A9
BEE0A42B
BD2912AB
3DB57B59
BE23518D
BED6595D
BE8FFA94
3DF26142
3EF431C8
3ED09780
3EC0569B
BE993505
3EAAF989
3BDB8A3F
BF1D1EDB
3D8A5B37
BB34FBCB
3ED88102
BD9ADED8
BD02321C
BDD0CAE6
BE8E66DC
3ED24705
3F02B935
3E60BDB7
3EA1A304
BE924A58
3E7E3C8A
3DA87B9D
3E45C54F
3EF9988C
3E5E7F13
3DC2F770
3E47F185
BDCC83A5
3EA77DA7
3C91B3D2
BE70DA4F
BDBB6249
3E8FED7E
BDC4DDF2
3E1105E0
BD8723C7
3E48507E
BE9934CD
3F28F3C0
3EACB108
3E13F03B
BE1990FA
3EB94714
BE1BAFC6
BD961D94
3E3F2D4B
BC9EF620
BE8F3194
3E1D7781
3F03CF11
BC8D0480
3EFC1796
BD205D22
3E82C0F6
3EFDB89F
BB4DD890
BD8CA362
BBFCB385
3E52FA9D
BEC9118C
BE99525A
3D1A1DC3
BE0A0B14
3F06CC95
3EB7D6D4
BEDBA55E
BE9E7101
BDDE235B
3EB461DB
BD12B9D4
3E1B8E52
3E08A75E
BE2B0D41
3ED9C244
BE819A3F
3EAD1D13
BE27B9A3
3E979897
3E869F6C
BEB63ACD
BC037850
3E837A6E
3E9B7A12
BEB5E1A4
3E9243FF
3E793877
BEA185B5
BE368A5B
BE81F30F
3E4A1FC7
3E59900E
3B7067B2
BE3C1A19
3DBD73F3
3EEBD89E
3CAD7529
3EC8135A
BE8EE982
BE8DD5BC
BD64CBD2
