3EA2C699
3E5BDA00
3EE07BB6
BE36DB58
3E2C904C
BE44017D
3EDA9586
3CDFE8C3
BEA0FA4D
3F026DF3
3ECDC180
BED9089D
3E4571B8
BEEA96E9
3E725721
3E5CF7A6
BE201D2A
BEB26111
BDACBE81
BEBB9A57
BE5E0BE8
3E92772F
3D920F9F
BF2053C8
3D21C9C4
3ECA08CD
3EAC69BD
BE9BFD5D
BEA525FA
3ED41F59
3DCCF08E
3E16DFEA
BE93B92D
3EA159CB
BEC3016A
BE93DCE9
3ED5BFBB
3C5E85A7
BEA0A404
3E3B94E2
BEA0F4FE
BE9FF2D4
3EEAE827
BF2930CB
3E0F5111
3EF9D2B8
3EAE912E
BEC14AD5
BECDCBA6
3E9A3914
BF1A51C6
BDBD83A7
3EEB4DC4
3EF8E315
3E85D2EC
BEED7EF2
3E371D4A
BF0E089A
3CC45E74
3E856877
BE3E74CB
BD55B452
3EADC341
3EEC399E
