BF6FE605
3DF800EA
3DC26949
3E98959D
BF6111CD
BE3FF3F8
3E79EDB7
BD078181
3E36F9F2
BE86D97A
3E27B648
BF51BC8A
3E7D14F4
3E09BC1F
BF817B2C
3CE8DC0D
BF024F0C
3E094EC5
BE955EAE
3E868DEE
BDFE5A24
3E752559
3D6D50F4
BEDED28F
3E7CC8C6
BF3DDE33
BE65A0F0
BE04CF67
3E3D4AE4
BF1F31E6
BF4887FE
3F0E3A7B
BDC2DB93
3E04DBA6
3E227727
3E81B0B8
BF2F28DB
3DCFA25F
3E9CC4B6
3D966EEB
BF994500
3D044C73
3EB0605B
3E4E7CEC
BF92AD9E
3ECAD221
3C02897D
3EDAE81D
BF888A60
BF440383
BF419DDB
BE132E05
BB508843
BEDEE6BF
3E928C0B
BEC81CC0
BEBDC918
BF166B5F
3E8CEC45
BF764C15
BF07AB8E
3EB4F3AC
3E04ED3F
3F1D6990
BF85D0A7
BCCBE04E
3E1EF978
3E439AE2
BF325B81
BEC7BB92
3F0DDED4
3C6CEBC6
3D5659E1
3E9FBAC6
3DF41738
BA88016C
3E92EE75
3DB3128C
BDB089F6
3EB2A75E
BF1A54EC
BE0AFEEF
BE9E3550
BEB9A80A
3EDFBFD9
3E2EA790
3E807318
3E51DEC5
BD152BCE
3DB97CAF
3E60E376
3E4B6CA2
3E37508B
BF27B55D
3CE63B7E
BECD4A70
3D15E3E2
3E8C7C40
3DD91C3D
BF19B6CD
3EE03BB9
3D496554
BEC77746
3DD4078F
BF54B822
BE811A32
3E5817CB
BF265B66
3E18BA51
BF62DD29
BEFBB252
BEEDFC0B
3E05D9D0
3E832103
3EA8CEA7
BF82AE9E
BF164D6D
BF1C7881
3E813C38
3E3E7548
BE50D6B0
3DA2472A
BEAB35E7
BDADF20F
3EB27680
BF0D3591
3C3A2372
3D61B42D
BBE387A4
BDA9AE33
3DDA3977
BE34E243
BF31F54F
3E5C2447
BF2B2887
3EC1019B
3D83DE0E
BEFD0A69
3DCA1950
3E46DDB8
BF35C9D2
3EFC7837
BF52186E
BF3AAD96
BF11B39B
BE30A6A5
3E0A612C
3DCF9484
BEFF3962
BE32C6A9
3E874424
3DA89267
BD236507
3DF9B684
3E0C5AC0
BF14EAB9
BE5C58E3
3EBC10C3
BD2F6515
3EB1BD1A
3DAE5484
BDC50177
3E0DCC3C
3E04DDE8
3E8C55C2
3E1FF442
BD7A6FA3
3ED78F84
3DF7F9CE
3C7FB2E9
BF308F4C
3E4C317E
3EA361EE
3E5D6EBB
3E987EC1
BB2BF76A
3E238501
BEB86042
BF6EB227
3E572693
BF41544A
BF2B8E50
3E4B6EC9
BE8A1896
BE94A488
BEF0970A
3EA3D1B3
BF36E3C4
BF439CEC
3EA305EE
BF47A57B
BF3C8816
3DC45070
3E5B069D
BEB24878
BF14BD3C
BE827290
3E05AF38
3E9D03D4
BF4E1150
3E30442F
3DECBBF0
BEF4EB19
BEF6882E
BCB01E0B
BEA9FE02
BEC4F414
BF6F1CB0
BF69DD28
3E87EC49
3E14E021
BF032DEB
BF3F97D2
BF440995
3E85DA23
BF35AAF0
3E4CE83F
BD2A6F70
3E01DA3A
BE455842
3E24892B
BE6EEDBD
3DF97E87
3E24117E
3EFB6CC8
BF7BF041
BF7EC9F9
3E2628F6
3F0A5AF4
BF995124
BDBA97C2
3E93B60E
BE8537EA
3F0C8283
3E30D872
3E4AA8BE
3E82BC00
BB3F3C16
BEEA653F
3DEDFAB5
3DFBBE34
3E14F0C6
3BE1876F
3E642084
3DD996B2
BE33243B
3E9FD274
3EA98B3C
3E11E64A
3DEC25F5
3E9263BC
BF89B8A3
3D458293
3D699634
BF5366A3
BE983F7F
