BCBCD239
3EC8AC29
BF1BF16B
3DD452DA
3E0A4E8F
BD92D723
3E60009E
3F2F0506
BE21584F
3EB4D58B
3E5C88DA
BEB732F9
3ED0942B
3E9100F3
3E8C4ED3
3E93D9E7
BE09FAB2
BEE063A9
3DD8720E
3D95EAB0
3EB9A616
BF0274A2
3DCA3638
3EEC2772
3E1DFDD1
3ED009B3
3EAA1DE1
BE93A4AB
BF17868B
3EB3F122
3ED35B5E
3E13D2EF
BF08D0CE
BF0D0B1C
BE4F67EB
3F00C61D
BE864429
3EC1E7A1
BE9825FA
3E8363FC
3E22DC48
BEEE6E12
3E5227D4
BE0012FE
3F0A6E65
3EAF19DA
3E3B957A
BE69D3F2
3EF50B20
3EA87E80
BE61167A
BE009DAF
BF0552D2
BCF8810B
BF042706
BE5D9FE6
3F0F3377
3DAB2101
3DC40A35
BE1EE0F5
BED6FEEE
3E828839
3E80F324
BEC8E649
