3E8427D7
3DA4D5EE
BDE806DE
3EEE3A5E
3F006976
3D9D0783
3D34885B
376DE6A3
BEDF93EC
3F2C2A50
BDF5C84C
BAB359DF
BDB7D40D
3F2D1E27
3EDECA5A
3F1E6094
3F052DF3
BF158694
BDD23196
BED104AC
3F3C36B7
BE1330C5
BEE9BAE5
BEF1255A
3E8CFE3C
BE1487FB
BEB1419B
3E9F2895
3F0503F3
BEA05E47
BECFD2A1
BE88849F
3F29A478
BF3D578C
3EE5ED02
BE230871
BE45AC75
3F682BBB
3EB216B2
3E149FD4
3F08716C
3F3B73F6
3E160927
BE64EA76
BE6B2AED
BE5CBE5D
BD941BA3
BEBF9042
3E8E40A2
3C232E0D
3EFE3A8D
BEB9E648
BF107C55
BE98971E
BEEAB275
3F049C77
3D861576
BE9F75A1
BEB88C5C
3E0E3E17
3E087673
BEA9A1CA
BC5E62B7
BE9FA9A0
3E121F41
BE67859C
3E7EE117
BE886F5E
3EB54D6B
BE9D69A8
BD2AD93A
BE9FC849
3EF9339B
BEC518EF
BDF5E22B
3EC3BEC7
3F16C23E
BEBEB1CA
BEE11CA2
BE442A37
3EE2E52C
3EA66011
BE41A44B
3E80A5D7
3EF25402
3F338138
BC47C653
BD05F7C6
BE7CB2D3
BECEA7C6
3F3DF251
3E85F6A1
3E1F2618
3E758B17
3F466A1A
3F048A0F
BF08FAE1
3F44EEF1
3E6189B4
BE2A0A55
BE1E6892
3E9709EF
BF06B742
3E5DB2E8
BBF570C5
BEF4D596
BF08CFCD
3E86CBF2
BF09833D
BE408BA7
BE0DE7BA
3F1FE3E4
3EC76E77
3D2277F2
BD4D2D8D
3C89DFA8
BE8EE50C
BE50E5B7
BEF7B306
3F323F06
BE1B9266
3E9582B2
BEDFC36D
3E8356FE
BEF0B55E
3EEAC98D
BDBF93C5
BF114E5E
