BEA4842B
00000000
BE851759
00000000
3E18B99A
00000000
BDC0D17F
00000000
BE12636C
00000000
3E7E0C68
00000000
3C40F62A
00000000
3E730ABB
00000000
BCD1952E
00000000
BE2AED14
00000000
BF13A976
00000000
BE5AA23C
00000000
BE53CA13
00000000
3E65828F
00000000
3DA1773E
00000000
BE159A6B
00000000
