BD957AF7
3E1D6DAE
3E52D37D
BDF42CA9
BE141301
3DEC421B
3F121BCF
BE5D13C4
3E86D246
3E850D05
BE5E54C2
3E60483E
3EEDA3B4
3E7009A6
3DE242A5
3DFE659D
BD020EBB
3E93B310
BE5A68DC
3D94D629
3EC65E64
3D891488
3E2595E6
3DB8F3E6
3E4DADF3
BDBD08B0
BF27D7A5
3E93F1CE
BEB3FC6F
BF18960C
BDFAD1B4
3EFFF2D0
