3EA665DC
00000000
3DD75658
00000000
BE22D8EF
00000000
BE9773E2
00000000
BEE8D5A2
00000000
BEF916A4
00000000
BE95C76E
00000000
3D44FD55
00000000
BF39E4B5
00000000
3EB33D3E
00000000
BDD1F0B5
00000000
BDF02826
00000000
BD832C2E
00000000
BD562434
00000000
3EF22F0D
00000000
BE4A653C
00000000
