3E1CB62F
3E4A77F1
BEF0E059
3EA390EF
BEB30918
3E71ED0D
3E459B0D
BE08A95C
BEAB88DB
3E36F441
3E3E78B9
BE1F7659
BDF4D39E
3E3601D5
BD1AB157
BED91CB3
BE212CBB
BE820FA5
BC974CC3
BEB85C8C
3D757149
BE8BA7C5
3CB0652D
3E00E94A
3E21B1C5
BE188E80
BAB85BA7
3E001735
3D6DC6E8
3DD28DF4
3E4D2D0A
BE9CE75F
