BE8BC5E3
3E880E6B
BE9B77C7
BECEA739
3C827D89
BEED4C5F
3DEF39AF
3EABFB57
BE8290E5
BDC5B40B
3E0821DE
BE16B785
3E127A1F
3CE59332
3E0FBBF7
BD2F0DAA
3E8D61F1
3E6DCD16
3EBC6662
3EF4588B
3DA87DEC
BE12B70C
3E166EA7
3E8B0D88
3E837278
3EC9939F
3E4793A8
BE79AC1B
BE5B7A32
3E0454BD
3E362A56
BE8D40D5
BED6A2E2
BEDB057C
BE9F331A
3F2F3F83
BF0CCEC9
3EAED21A
3DC04A37
BE950CE3
BDC8D32A
BE1637FB
3D059368
BD94EDB7
3EE67D32
3E87430F
3E2321EF
BD3DF856
3E9468BF
3E54C7F6
BDF5A3CF
BDD01EEF
BE5E5FF7
BE397825
BF038C7F
BEAF3CDF
3ECE2D39
3E86A85B
BED5FC43
BEC92462
BE9EEC61
3E33B5E8
3D1C14F9
BE6CD99B
