3D2F4E09
00000000
3E4D863C
00000000
3D115555
00000000
BE43CDEE
00000000
BF06F746
00000000
BEB55014
00000000
3F02768D
00000000
BE871E80
00000000
3ED5B250
00000000
3E3250D3
00000000
BE492909
00000000
BB89E485
00000000
3D648573
00000000
3E130614
00000000
BEC03FD6
00000000
BE81295E
00000000
