BF04921A
3CD2B79D
BF7E6B16
BD53ED05
3EDA821C
3DEF9E09
BF332FCC
BDA265D3
BF06A8FC
BFA209DA
3E02FF45
3E1C3223
3E9C9AA7
3DAF35A9
BDE31ED8
BE11630E
BF340BF8
BEAA7432
BF6C9511
3EA62D89
3F0B843D
3E9ABA29
BE6A1A9C
BE5AF2CB
3E304A42
3F0A7243
3E11D92E
3EA76450
3EA61D1A
BF30E2EB
BF08B262
3E0DBA20
BE6A6FE4
BEA56D6F
BF40EE56
BD4FEB50
BF0FC230
3CFE1EFA
BE6FD8C2
3E83395D
BEEE4D97
BD2FA70F
3E3C1767
BEF6A289
BF4BA02F
3E0D7F5B
BEA1C8DA
BE8E15FF
3ED883C1
3DFE32C2
BF0230F8
BF23CAAF
3EFFCB83
BE89042F
BF126725
3EBCF8F7
3E3EE4B0
BF2402A2
3E80C2F9
3E62EEFA
BF26620D
BF8046FB
3E6877B7
BF2AA984
3D3E0564
3D012762
3DF343DF
3E0FA11B
BD2D4840
BF32F9D7
3F29AA0C
3EE548F3
BEE1F2FE
BF05F9BA
BE433F74
3EDD858E
BF08EC2B
BFAE5B26
3EA742EF
BF0D4865
BD1D7EB6
3EEDBDC8
BE16D0C9
BE9AE5C9
BF5C471A
3E7D353E
BF15C9A8
BF11CEF1
BF113570
3E908F6F
3DF60F62
3EC5DC56
3C9D7688
3E0F1DF3
3DF42F52
BF8D606A
BB068799
BDF97F19
BF1A2867
3E262D86
BED14316
3D56B5CC
BEEE8B56
3E280E74
BD8A9278
3E1F4CA4
BF0DEDAD
BF22C23D
3E24F862
3E5F4405
3E9B9DB4
BDE267D4
3E719960
3E618521
BF3B2AC9
BF4B1CFF
BEEC4EA2
3EA4615E
3ED19D13
BEE93A98
BEBCBDCE
3EBE485D
3ECBFE84
BDEA4320
BF3EF893
BF091DDF
BF5A35C6
3E09BFDD
3E9CF282
BE2A5263
3E34DA85
BEB9FD6C
3E923C9D
BF98B91D
BF4629EA
BF06978F
3D04E331
3E90B3A8
BE4978A6
3E941AE6
3E11F533
3F1932EC
3DD99EF8
BF46338D
BF242A84
BF0D64D6
3E3179C8
BF6984C4
3E96315D
BF451433
3E630BFB
3E37D88B
BF537972
3DA25989
3E05D95C
3EBA59A6
3DC94A46
3F0B82FA
3EF386F3
3ED6510C
BEA09BF8
BD90D3A8
BF333DC6
3EAF33F2
3E88675E
3E88FA7D
BEBB921F
BD5EEFE5
BEE98B17
3E06FEDA
3E883E84
3E89B492
3ED37003
BF7F4B5B
BED4229F
BEED7697
BE9FCB97
BF2BDE63
BD5EF0A9
3E07A96C
BF80197E
3F036733
BEFB68B0
3D2851E1
BEFE9F9C
3E170BF0
3E1C78F8
3D48757D
BED2AC99
3D12BC6E
BE48174E
BF7B3623
3DB0145C
BF492C0E
BE7A838F
3F01BEB3
3F145071
BEE9CDA6
BCC79596
3F016777
3F554C6D
3DBB4A55
3DFC54B4
BEDB89D8
3F617446
BF0C1D8C
BE75D38A
BFB1D7F0
BF6149C6
3EFBA73D
3E8A39B4
3EEE4C23
3CFF12E0
3F2C7341
3E8DA750
BF2E9F0D
3EECEFFD
3CFEF6A6
3CE3B83C
3E2A5698
3DB8271A
BF2B81E1
BF7694CB
BF1ABAD9
3E801BDA
BE17778A
3DBE15E7
3EA8567F
BF43323F
BD79C828
3EDDA423
BF677EA0
3ED373AB
BF5BEB76
3E6A45FD
3E9F1328
3DAF8860
BE5790C7
BC5189A0
BE91B2E4
BD9F593D
BF493DF4
BE1E6439
3E2D5FE7
BE980ECA
BDE8408D
3D51F0DE
BFA87421
3E31468A
3E6E537C
3E4F694F
BE0A87DA
3D2C5020
3D1CAD70
BEF2085F
3E654E34
