3E99ED39
3EA81105
3E53C0C2
BD87FD76
3E727F48
B94C4DF7
3EE40BCC
BEB53E58
3EDF5780
BF01CED9
3EB9C254
3E8C5C6A
BF0314E6
BEFB4452
BEF4D26E
3D73D1C7
3E2EB5DA
BEC3A069
3EE1EFB0
3E7123E2
3EC56B54
3ED112AD
3F036734
3E7E5696
3ECD7523
BDC01FDE
3EB489F6
3E0A7553
3ECCCB4A
3EBFAE6B
3EDBE3BC
BEC5F245
