3E8A9CEB
3F264A85
BDF94DEF
3CAFBEDF
3E52DFE9
BEF24636
BE3A78D8
BF3049DB
BEA60B53
3F08ECA5
BDF6E2B9
BDE20F23
BF24F507
3EC848D1
BE1CBCCE
3F12FBF6
3DDF329F
3D77AB6B
BF31D040
BE134F04
BD39B19A
BE69F8BC
3E1B5266
BEA28D4D
3D28AD89
BE74594D
3E6F3EE6
BD81F4F2
BE55789E
3E16CD1E
BE0B5F1B
BF46D1FC
BE345331
3E175BCC
3CD17E72
BD07D6B6
BDD2C9C3
3DAA5234
3D9E8D33
BE5E63BD
3C895DD7
3CF9E0D7
3F7811A8
BD86F333
BD260D70
3CDFD85D
BC827EC6
BC762A54
3ED43599
BE2668F2
BE90BAFE
BE8255A3
3DC8DEEB
BAC4A104
BE481275
3EE02A30
3E127607
3E3646CB
3E2DB826
BE80C38A
BE03F14B
3D697905
3F878AB2
BEA4DCAD
BD2F9049
3D9FFF57
BF258D37
3D153A1F
3DC9A217
3E15FB9D
BD74C821
BF16885D
BC418B10
3D4B153A
BD274851
3F29308E
3E9C93B6
3F4FA927
BDA4C58E
BE554D99
3E9F0BEA
BE89FF67
BE0AABD1
BD24C841
3C11D3A8
3FB1C1C2
BDB971AD
BDB53B1C
BE250884
3C468408
BE632B2F
3DA7FD1E
3E5F6F20
BF06AC02
BD22E78E
3EF3B759
BD860844
3EA20184
3E13D634
BEC982E4
3E523997
BEA8EE39
BC69CB55
3F0086FE
BEC849AC
BEB72983
3DE7087A
BF7D3D98
BEA80FE5
BE6ED108
BDCEA922
BDE7B584
3C253A57
3D871DC2
BE1AC5AB
BEF5DEDA
BE9D0219
BE12E1D6
BD1FC87A
3E09C5C3
BD07B1BB
3D06EB1C
BF9A9976
3B980F2B
BDC5D853
3E01D7D2
BC0BE8CC
3BB52795
BE9762E5
BDD80504
3E2B4C5A
3D43EAAE
3E1D436E
BD594B18
3E173796
BE1936C3
BDD7DD38
BD86021D
BE2BC066
3C3694E8
BD93A921
BEBB932A
3D315220
3EB82A6D
3EB54948
3E4AE9FB
BD48F7F1
BEDB8622
BD557916
3E6ED3F9
3F1F0FBC
BEBEAD40
3CAE439A
3C865193
3E81386B
3E26031F
3E4EC5D0
BE867C59
BCB40AB4
3EAA687A
3E95339F
3D618E93
3F062BB1
3EE91384
3E7AE132
BE27EEDA
3CE779CC
3E66A188
3D5288C9
3D23BBDC
3E636034
BD1B6AA2
3D304634
BEB19034
3D0F4FAC
3CB456E5
3E19C559
BC124F6E
3EBADE64
3C4AF2D8
BC973CA2
BE1A87AE
BE0A550D
BDE131FD
3E9B5D3E
BDB76CCE
BDB39907
BF74B5F2
BE0CC0BF
BEB51285
3E5A0421
3DBE7F15
BF320E02
BE922956
BC802280
3EE066E3
3F520F69
BCB25451
BEDB4F15
BC824D7D
3E2A515C
BCA78FB7
3BAA4360
3DF9BCA2
3DDE7013
3DBA1C4D
3E93DA0D
3E54F4AA
BC1A0113
3DA9B77D
3EDD3C5E
3EA61CDB
3E8111BE
BE26BFAB
BD75CC60
3E10BA9A
BDF8CACD
3E10B39D
3E97C00E
BD5A23EB
3DA616DE
3EB75B2C
BDCAEA31
3E1877C9
BF91E8DD
BF5A4EF9
BD43FB37
BCA7D17B
BDB96801
BCE4F0A5
BFF58108
3DCA3F8B
3E7EA575
BEC68E2A
3DF9A867
3D716A05
BF8F2724
BE6A64F5
BE0A1BBB
3E7C9E71
3F1D5627
BE73F3FC
3D60C42B
BF6E1E6A
BF194CBB
3DB5B6D1
3DAAFFB4
BE6CC949
BE5AE72E
3D5A4866
3EAD48FB
3DFBE3A3
BEFDBBA7
BE0DD98B
3DC5F519
3E1FCD20
