3E81CC28
3DDF24B9
3E140F4F
3EB9C776
BE8E20D9
BF9663BD
BFA2C947
3E5BBF70
BF7C0894
3EBB5EBD
BECB8CD6
3E94DDA4
BE3D49D7
3D638241
BDE61034
BF7948BA
3ED7C2AA
3EE656DC
3EED7ED5
BF5420FA
3F2495FB
BF1C6589
3EDE2969
BE5CD49C
BF811C03
3D6E213B
3E3C11B4
BF011D41
3F10627A
3E64E86E
3EB60245
3E523E23
BE2BFB28
3EB9FEB8
3D60C9CF
BF43640C
3E8E6158
BEF589CD
3ECF149D
3D09C14A
BF42A97A
BE4589AD
BFC2E26C
BD976EE1
3E6D5FE4
BF878ECB
3ECA0488
BF2B950E
3D8B885F
BF73A95F
3E3F1D95
3E830033
3E885ED8
BF7C9410
3ED99D27
3ED4ABCD
BF0599A8
BD9ED395
BF9855A7
3E050F36
3E7A1D81
BE7F4822
BE536EFE
3EB474CA
BE84866E
BFA8788B
BF93768B
BF9C1F75
BE0E13D1
3EA70F55
3DADF879
3E9E4062
3E1850E9
3C3EAB6C
BF8BB713
BE64ECE6
3E77AA90
3E15A6CE
BF55399E
3E3C83C2
3E29A229
BE31043E
3E319A6C
3EC5F85F
3D6A8381
BFC24DAA
3F4030A8
3EB949B0
3E6B2BFF
3ECF753A
BF397D5B
3ECEA342
3F355D77
3EEF68E3
BFC6E1EA
3E84C463
BECAA70E
BF60B357
BF818FEA
3E8FA390
3EE82A50
3E6D26AB
3E908FED
BFB676E1
3F08723E
BEF33B90
3E24648A
3ED3A321
BF3CB1AF
BF000AE4
BE688DDF
3E9BE513
3E2709B3
3EC1483A
BF7C7EA5
3D4409D0
BF14C915
BF24CE3B
BF71C9AE
3EC14D67
3E9D1275
3E00E653
BF8F6B0D
3E679BBA
BEDB8650
BF1DD651
3E2689F8
BF371154
3E2BFFC0
3E3C8386
3E9FB741
BF24963A
BF07D563
3DD1A786
3E8C4541
BF56FC57
BF606656
3E5A3589
BFC19883
BF7659D1
3E90C4C8
BF1CAF06
3ECF5C9A
3E10C474
3ECF40F3
3E46E560
BF593CAC
3DC62D18
3E8FD421
BFA94B68
BF9138A8
3E672EFE
3E9084E8
BF5E2817
3EC0582D
BDD51934
3E2AA38D
3ED3ABEA
BF324624
BD88E931
BE78A6E3
3F07E2F8
3E1ED0A5
3EDA183E
BF31AA21
BF7D343E
BEBDC308
3E11F7CE
BF102B82
3ECE18CA
BEF77AB5
3EB544FE
BF376B3F
3E4207BB
BE9B4DE2
3EC4FAAD
3ED870EA
BFAEB9D3
3E80A4F0
BF256171
3E52443A
3DD907AF
3E33E6F3
BED574B3
BF12D1C6
3ED5D0AF
3EC46AE8
3F125E9B
3EA9A16F
3EA4D52F
BEF85943
3EABFE92
BF3B4096
3E73AFB3
3E916D5B
BEA4F454
BED759AA
BEE99106
BDF42C06
3EAEAC75
3E82710C
BE59D9C1
BF7E7488
3E259E13
BF9D0CBD
BE9ACF2A
3E9F95DC
3C737436
BD980183
BF0820E3
BFC03395
3EC8AC13
BD5D2364
3D47E572
BE2B0295
3E9DF559
3CF0DA23
3DCA8A1F
BE9224B3
BEAED5FC
BF67F29A
3E4B9400
3E2F392A
3E56525D
BF00766A
3DF0E906
3C87D51C
3B28EC73
3E70CA8B
3ECC0A6B
BF89C945
BF08EFB5
3E9E7ACE
BF13A286
3E88E2E9
3E84018E
BE6F847D
3E4B7E79
BF14946F
BF7173E2
3E3E37E7
BEE4698A
BE8229F8
BF49F84E
3E388028
BEF6AC74
3BEA970D
3E5E9456
BF0900BF
BF2E5A7F
3E1B611B
BCBC861E
3EA16F32
BF2D63B2
3DB90091
BF401FD4
