3E6610D4
3DA8915C
BED99518
3EE118AE
3EC277E2
3E220F3B
3D926058
3EBC58FD
BE3E572F
BE57B155
BD4F43A8
BE787DD5
3E6BE8BA
3ED0905D
BEBF1C8F
3ECEBE55
BED27CDE
3E1A2D50
BE66B502
BEDD2E63
3EB52975
BF00BAF8
BEA4B5E4
3EB3AD12
BDD4884F
3D608A31
3D841177
BDE02369
BEC58D60
3E5553F0
3EA9C76E
3E7E2CC4
BDD16E0D
BEC3BBFD
BE77D454
BD81603B
BDE2E63D
BDCCFFF4
3E803375
3E923EF7
3ED7A655
BE811B23
3E0B5922
3C424906
3DBF3025
3E3E9948
3E85A13A
BEE8FEA4
3E885CE8
3EA560CE
3E7609A6
3EC0AFE7
BF01252E
3D53562C
BE7F9505
BB0206D6
3EA69FA2
BDF3D7E5
3EAD9ED7
3C20482A
3CE61553
3E800D68
3E72111B
BEB8DB17
