BBB16324
BD61DC41
BE7ADB38
BEC1E752
3E62DE72
3EBC2856
3D4B18A0
BEBC8083
3C72E3B8
BCBEBA7B
BEA5C71C
BDFE691E
BF3183BE
BE34F5CD
BC43AB10
3DCC6F5D
3E4BC13A
BF0D266E
BDA30A75
BD3D71BE
3DA96595
BE5F793C
BF47DCDF
3DF43ECD
BE91F789
3E0FF1CA
3C93C53F
3D970894
BE09E5CF
BE82C4EB
3E94DF00
3F200CB3
3D726753
BF1B655E
BDE141F4
3EA2B08E
BD58D5AA
BE79DC5F
3EC82EC7
BF5F9420
3C6635F5
BE980E9F
BD8DE3FC
3DD463E7
BE25D2AF
BE240895
BD267D48
BF355772
3D1729C0
3DE5247A
3F400A89
BEF7C186
BE8F32DE
BEF5ED3E
BE449BDA
BE07A755
3F88E843
3D796D01
3D92DF18
3E0A768C
BE24371C
3DCBD780
BDACC605
3E38D525
BDBBB31B
3CE3284E
BE4894EE
BEA7BBC7
3E56892B
3D5DB7A9
3F48489D
BEEF0DCB
3DA69271
BDEF29FA
BCF2E667
BF324FC5
3E4CA417
BEA0661E
BE406235
3DE71644
BD8758C3
BA1351D7
3E222C15
BEF33D2D
3D7954EE
BE104C56
BE5C4462
BE285030
BE596792
BEFC0182
3E2EE75F
BD32C110
3F33B70F
BE117546
3E2F0A01
BE5AE8FD
BE645E30
BE50EBFF
BD48E4F4
3E463234
3F561631
BEBB740B
3E1C3947
BB8BAE1F
BD939453
BE2C7639
3DFA3277
BEB85F1B
BC9D847B
BE5D7C3A
3DC86640
BEA7ABC0
3C539675
3E5BF281
BE91785E
BEE620D9
3BBA93FB
3E47E40F
BF12C283
BF19EFAD
BC80B4D6
3EE82050
3C54758E
3E50E7F6
3DA088EA
3E3BB677
3F1A5CAB
3D265CF9
BE65C61A
BEE3A468
3E9B21F4
3F8DFBDD
3E93B356
3E263A8C
BDC128C5
BE21D7EA
3BB24D04
3F5BD0ED
3D40200E
3E6FE87F
3E576B49
3DF3FDE0
3F792463
BE7A1F25
3F4D3CEA
3DC25F79
3CAB341B
BE92F3F0
BE634534
3D93E20F
BD9F47D7
3DAA9E80
3C4B2639
3E45EB74
BE8671DD
3F16E0D8
BEE17D1A
3E978ABA
BDFF3C05
3F0BC3DE
3C1E43A2
3EF558AE
3E784CFE
3DD09D6E
BE2267E3
BF356D1E
BE4622BF
BD3D66B8
3CB13F02
BE0FEC92
3C8D87BD
BE24BB39
3E09C195
3CA013C1
BFA571D7
3EF3E82C
3D9F842C
BF64E0C2
3D755438
BD6E4197
BEAFA78A
3C827200
3EFB0264
3F085C76
3E9CD944
3E85F0C8
BEA0C393
3DE7DEA9
BF0DDC2E
3DB554BD
BCA3CC68
3E6CF55E
BF0BFAA2
3E5540A0
3E5B6D5A
3E10C046
3D77C6D6
BE186571
BDF233E3
BE0BC1BF
3E2CF161
BF5DF72D
3E87C4FD
BE294889
3DB193E9
3E3AB0C1
3F0735F8
3DFFE880
3D1E529C
3F8C88D0
BC918A77
3DC3A2E0
3D075765
BE856854
3E3ECDA3
BD3F695A
BD1E6F92
3EE7622E
3DA2E847
BD841572
3F200FD1
BDADEBE0
3DB41739
3EF98BB4
BFEA4752
3C44800D
3DBE2B1E
BD9D7353
BC05A5E7
3D99BA47
3C2461DF
BD3DC553
BDD0DB9C
3DCFC711
BF667564
3D7AAA46
BEDF931C
3F83FBE8
3DF142C0
3D86E947
3E71ABCA
3CF6C63B
BEA2C34F
BECA2919
BE02D4CB
3E92D5DC
BE1911F7
BDC090D6
3C2C16DF
3E204484
3E95CE05
3D8082A0
3EA21E30
BDB6B08B
BF31C5C6
3F109742
