3E5F0CCF
00000000
3C9060A0
00000000
3DD07867
00000000
BE3401D7
00000000
BEA4B221
00000000
BC8DA9F2
00000000
3F037A27
00000000
BDFCE095
00000000
3F091777
00000000
3E160C73
00000000
BEE99357
00000000
3EB15E09
00000000
BD984AEA
00000000
3BFDED56
00000000
3F04FBF9
00000000
BE72F9A6
00000000
