3E27426A
3EDC2D2B
BDCB049A
BD063F04
BB907DA7
BE84B2B0
3EF0F056
BB20D1F2
3E7F5AF4
3E24951F
BEBF2E13
BEAF3C18
BD1B8514
BE2BD6BD
BD3CC0F9
BDAF25CC
BE2BA8C3
BEC7866E
3E369A27
BD09F214
BE8FE5D9
BCD8D711
BE6D98A3
BD81DD0E
BE63D37B
BD7B1D85
BF11ECEA
3E7D7548
3E48DA38
3ECAFC72
BD4979BF
3EAEE361
