BE4769DF
BE4DE3E0
BC5C53FE
3D554DD2
3E2BE71F
BCCD0597
3E5F4891
BDC9A2B2
3E1B2782
3E5C3BE7
BDB91759
3F14A759
3F3A97D2
3DB8CCC3
3E4AB6C2
3C456DFE
3E47F538
3F0F9600
3C9302F7
3D051DDF
BE7E0401
BBA5ACCD
3E947AFF
BDB9B43B
B9BA57AA
3E18FCC7
BED3FC20
3EB16B47
3E8803AA
3E36480D
BD8723ED
3E219597
