3DBF94FE
3CF1F362
BF22D911
BDABA222
3E97FD3D
3E34EDE9
3EA34B3C
3E194022
3D5578F9
3E1809CE
BF0549DE
BC364699
BE430567
BE2419AA
BCCC93C7
BECFF214
3D1A3A74
BE67454C
BD7AE287
3E2DBFC5
3DB7EC35
BF0A2DB7
3DBF394B
BE0CB703
BD0F2140
BDAFD838
BE8A0A82
3E56471B
3DFBCE4B
3EB14875
BE557CE1
3E76EFCC
BDC363D1
3E8C77AB
3EE19E46
BEEF0935
BEDFE746
3CE550B7
3E44E709
BE22091E
BDDF1BBA
BDAEA2CE
BC8B7D52
3E98BDD5
3EBB0EC8
3E8F5F49
3E9E9EED
BF04571C
3DE30E12
BE178808
3DEF2643
3EC895FB
3E8C0EEA
BD32649C
3E36BF98
BDD95023
3E9BA228
3B84323F
BDB830A7
3E118A21
BD990DC4
3F061A27
3D679522
3F2587A0
3E3DC3AF
BDAA9CB3
BEC52012
3E85066C
3DD4D491
BEC1D1EE
3E6BF5E1
3E6C85BF
BBE6C922
BE7C875C
3E5BB7F9
3F27D952
3E5A129A
3E5F70A4
3E2B6CBF
3EC5259B
BE346A88
3DD4E27D
BDFD069A
3DC45A75
BCB39CA5
3DF124F3
3E8DFD56
3F1BB292
BEECEE1C
3E157086
BE4CBC1F
3ECE0A80
3E077CCF
3EE7E193
BE8AC561
BD6EDC16
3EB494BC
3C122485
3E37FB4C
3D9F7CF8
BCC1593C
3D4BC44C
BE28E91D
3E9143B8
BE8CFE09
3E17D3A2
3DC79FFF
BC654970
3C94A823
3E812DE3
3ED210B0
3D98C514
3E5F698E
BEEDD275
3E346F41
BEFDD811
BE1289FE
3E8027AE
3E176E73
3E285BFD
BEA55E0F
3D514FEC
3EC05E7F
3ED513FE
3E85399F
BDBB16CD
BE822231
3C966B97
