3D1F4EED
BD1694A2
3C3F70B9
BF0A9ECD
3E170810
3E69D4D2
3E48C6B4
3DED50A1
3EEAEF1D
BEC52635
BDDE2283
BED87E05
3F126A5E
BD965BC8
3E335E26
3E56F7CD
3EAB1A73
BF283979
BF0D3B3E
3D69EFE0
3E5C89C7
BE17122F
3DF71A0D
BDBE0029
3E427A36
3D013E5C
BE8A3645
3E63D892
BE2A02F4
3E474218
BBA062CC
3C9EF9C0
3E610CD3
BE82189C
3E7DA978
3DD23AE8
BE49C703
3E31002C
BE2D1582
BEFFC1FD
BD1DF7C5
BEEAA329
3E1E6DE5
3C1A4C72
3E9FFA70
3E3FA8D7
3DB6601E
BD56313D
3E081930
3E7D3459
3D89C51A
BE9EF4EC
3D56D2D5
BEA840D6
BE2B779D
BD4A6061
3EDA0EFC
BE2FC510
3F05E58A
BCEB46D6
BD14DB0E
3EE825E3
3E8C17C1
BECCC07B
3EC4F679
3D9307EC
BF867CEB
BD8C63AA
BEE81A42
BE5B7DCE
3E1C06B0
3E681924
BB4E13F5
3EAE1C74
BE8FA785
3EF8213C
BEECBEB6
3E2FA4AB
BDD51A41
3E8286D4
BEE294E0
BE620C8A
BE357BDB
BEE964D0
BE98686A
BE8EC7EA
3E9160D9
3DE07254
BE8853B7
BD8BF925
3E96699F
BD6AF0DD
BF045E99
BE3A9B7D
BDAE1BE5
3ED33175
BCDF67E5
3ED07626
3E2334E8
3E4C587A
3E7B1FA4
BE2ED2A8
3D13B757
BE8765DA
3E477845
3EAA0363
BE9D9049
3DAD10DC
3EA32529
3F0D44BC
3DA49726
BE536B9A
3D56FD80
BCDE4DF4
3E91A69A
3EC77DD8
3D1E7BA6
BDC6BCCD
3E7E6D32
3899930F
3DC385C5
3E163048
3E8905B7
BE559465
BE2024D8
BD926652
BE3F9D0A
3E9DF767
BE9FEDB2
BEA4CED1
BDC8631B
BEA99381
BDD9D9D1
BD9D8A03
3E67A619
BDCB0E27
3D0EDCDD
3DB750CC
BC74EAA3
BF192E2F
BDDEF2AC
3DD231DE
BF0137DB
BF14A862
BF1F4540
BC82846A
BE0E9991
3D98F6C2
BEB55C97
3E4AC9D6
3DA3D225
3DC45B90
3E1808AA
3DBA724C
3E858D53
BD702496
3E0BB21A
3DD1CE75
BE063FDB
3E307FE7
BE778A33
BDCCAC74
BB09745D
BE35C006
3ECF25B2
3CC7DA5A
3DEE75FE
BF40A1B0
3F0CAADE
3DAE678E
BD1E518A
BCC687CF
3E20CAB1
BE03F381
BE607A85
3EA2B53F
3EA31E90
BEDDEE0D
BC89DE80
3C6A1B7D
3E88824B
BDA89B9D
3EB08622
3E8D3D47
3CBE9D85
3EDF44A0
3DF2E819
BE6FB1D1
3F043D18
BF201FC9
3D89E02F
3EF8429C
BE10D703
3D1A3EBB
BEC0CA6F
3C8515BF
3EADE7FD
3D2A7DBD
3E2AC4D2
BE0050C1
BEE0C65A
BCE25981
BD984D7B
BE0E576B
BD19D566
3ED34AB1
3CDEF894
BE822F8D
3EA73B85
BEAC868C
3E8A12B9
BD8B9A6B
3DEC5D80
3E563714
BF1BEAE4
3E5998B2
3EA5AC40
3E9CEF31
3E8C8A0C
BDF6969D
3F14F680
3DD1631F
3E240A0A
3E710CF5
3DBB7E89
3DC62867
3E4186D3
3EF6A3F2
BCDB28C0
BEC0C4E2
3E80B595
BEBA2F31
BDEF2E5E
3F00F859
3D7FF444
BF5B9B40
BE2F9A26
3DEB097D
3BDB40AE
BEDA50B4
BE3D8A6F
BEE8DF58
BDE5AC6F
3E2033C7
BDE8A5AA
3E8CD2E8
BE56AEBA
3E8157C9
3EED24CA
BDFB5518
3EAA8C9C
3E8B7AD6
3E5979B5
3D4DC012
3EE26530
BC699194
BF225F0B
3D36C33E
3E0A08E3
3D67A9D5
BEE4F486
BF3858CC
BD352AA4
3E43E21F
3DF6993D
3EA3E23A
BC4E0F42
3D8F0A14
BE9F8D32
3D007AA4
3EEA87C4
3EDBE16F
3E827AEA
BE2F4DC4
BD1BCDBC
3DEF066E
BE6ADE42
3E558A13
BD891191
BE643F81
3BA013B1
BD90CEF2
3E8C47F4
3E32B5B0
3DE3DD1C
BE51E2B8
BE6AA481
BE91C8F7
3F007BB1
3D2C9DDB
3E06821F
3E9C7D2E
BEA2D87E
BEFAE15E
BCE4810E
3D9594D8
3C7E69FE
BD2EDC06
3EF3119F
BDF5CE53
3E86754D
3DFBBBDB
BF1B56FE
3E545C17
3EBCD813
BDE2CC8D
3EBADC58
BE7FD4B0
3E230F11
BEAB3FBF
3D607E8D
BC2F6FFA
BED6830E
BDD2CBA9
BE212F28
3D28B39E
3EEE9B5C
BE98E602
BF1BF4BB
3CC3820B
BCAFF922
3E4C4FD5
3E840186
BD06B76F
BE01F4A1
BEE4CB6C
3D949FC6
3E29D790
3E1ADA8A
BE44AB8E
BDD7A379
BEA92E99
3DC2A6FD
3CCB562A
3E3C0BED
3E947EB1
BE98BF4F
BF049EB2
BD9B8989
BD56C24C
BED38220
3E54D959
BEEE813C
BD287C3B
3DB69A81
BF0E3C0C
BE663F18
3F2324A3
3DE853EA
BE5755D5
BED5CC0F
3C802148
3E8AAF70
3B9F8079
BE9A844D
BF0DE06F
BDFAA849
BDBCD365
BD4D4766
3D0A82D3
3EA65C8B
3E60B96F
3D669EFE
3EB73558
3E3978E5
3EA00B2C
3C00A35E
BD57965A
3F46F909
3F3CCFFC
BBADE414
3DBDD60F
3D427B42
3E2BEF57
3BB2A559
3D14B9D6
BE32CC89
BE11F83C
BB40F325
BDC55E95
3D57AE62
3EB70C5A
BF054BCC
3DFFEAD6
3DD336E3
BECC8511
3ED48F84
3EE1BBFE
BD8055F4
BDE500B0
3ECED914
BE0B2C30
3E540969
3D7A0B74
BE67F5D3
3D943701
BF12FCBD
BE576F02
BEF9B609
BE601470
3E3495D3
3E7E0644
3E2CC242
3DF28CBA
BEA7CA7C
3E8FF04E
BC7A8313
BC01F67A
3E5047FC
BE93A574
3C5AA0AB
BE5E9FD2
BF039512
BCA510E1
3D0D8EEC
BD795376
BD6C3BB8
BDA65DA9
3E1E8F26
BD2674E1
BDAABD38
BCB3DCD1
3E97A6F9
3E17100E
3EE87733
BD3423EF
BE910BC6
BE454B1E
3E656204
3EA3E0B1
BE5E81F0
BF0EFEFA
BE85EC20
BE40D11B
3EB2E5AE
BE73CA58
BE84F68B
3E834818
3ED954C3
BE695F4C
BE4C289C
3E8BAEFB
BE04C0FB
3E224F6E
3EA50240
BF0F49AF
3F17490D
3E82FDF2
BE2CFF99
3E3A3B85
3E8E6016
3EA7AA11
BF1DE77E
BD9B6598
BE8C3DA8
3DB84019
BE5B6362
3F040382
3E185F8D
BE9B4B3E
BE92BF1A
3E4EE008
3EAC8814
BE4D8BEE
BCB37CB5
3E72AEDB
3E609388
3D8B8EAE
3ED9C490
3EE54C40
BCDD7B51
3E1E0088
BED2534A
3D9E7179
3E85BD7A
BDF976A8
BA5E5A69
3CFA796E
BD833E84
3ECA4761
3E24B135
BCED3781
BE621715
BE62719A
3E077724
BE1470CA
3F033BE4
3D05CA37
3E1DC6B7
BE974F17
BE40A51A
3DDD86BE
BE08FC0D
3EC29912
BE76B055
3CAFC3F3
BE7A3E6E
3E0ACC6B
BDD2292A
BEAA3A81
BE6EF875
BEAA2CD0
BE7AB710
3CC26245
BED78264
BE8B49EA
3E9FA9D3
3E2FA563
3E53ADA0
BD847730
3EA7D776
BEF9CE55
3DD2C34D
BEDF8255
3E0EADB5
3DD12E0E
3DD138E5
3DD0AEFE
BE56E4FE
BECDA4D1
3DA8B68B
3E1170A8
BF2A974B
3E63C3C5
BD4F3FB1
BEAE1111
BECC99C2
BEE113A2
3DA5DE50
3E9CADC8
BC5E6AEF
3D6C1A40
BE99BFDD
3E5F441D
3E800E9D
BCA6CE50
BC824EEA
3EDE88F8
3E325F5F
3EBC6029
BE3991CA
3E459F18
BE0E7EFF
3F0CA266
BF260109
BF05DB7C
BF05DBE2
3E81C1D7
BD68A263
BE874AB0
3E537A4F
3D73EE77
3E8425EE
3D8D293B
3DA67099
3C8A734B
3F23C743
BD97D604
BDF7B173
BF256E34
3F0349BA
BEA11849
3E20EFDF
BEDE79E4
3CBEA54D
BD74D3E2
3ED3513D
3D917D40
3EC142DB
3EB21345
3C5BC7DD
BE711C24
3E28E104
BD2A298C
BE745230
3E589FB9
3EEE195C
BF510DF5
3DB7189C
3E376662
3D06E8BD
BEAF202A
BE0EC3C2
3CB5F8CB
3E1D5063
BD966241
BF29A98F
3EE6DB9B
BDDFF293
3EA30EED
BD7809BF
BCE122B5
BD0AD99B
BE3F0B6B
3D5466C2
BE8418F2
3E04F991
3E4F591D
BD68FCD1
3EAA0220
BEFBB448
3DF0C405
3E9B5D96
3DEF89A7
BE68CAB3
3D623339
3DEA7B09
BCC63E48
BEB1EFAA
BE98A08D
BD1C197E
BBB4B4BE
3ED3F75E
BE8D6B8A
BC0E6863
3DB1E50C
BD5FEAD2
3DE684BB
BEC88E0B
3E682DB3
BE0EF991
3ED0EEA8
3E9331C7
BCF50C61
BD07E923
3DD5093D
3D5D8C28
BC9510EE
3F5516AE
3DEBE901
3EB9084E
3DAE7D9E
BE2C449B
BEAAF5C6
3E80DA59
BEEF448B
BEDF820F
3BFA7AF0
3E633FB1
BDE7D45C
BE8D2CDE
3D6A7D19
3BE0D7C7
BEFCBE25
3DB0C90C
3F10CC80
BE5D04F3
3ECF6553
BEE1A318
3CC1306C
3EB4128B
3DA99E91
3E17C94D
3D6E532F
BD5602F7
3ECEC2BA
BE96B9D6
BCA43138
3F0DF597
BE0E49D3
BBAC71A3
BF2585F5
3E90DA8E
BF1428C6
3F05D559
BF0CBFB8
3E4A0BC0
3E014AC2
BE07FDE3
BE8D4309
BCEB2C29
BE09AE99
BE1054D1
BF26076D
BDAFF24E
3E74907E
3E670F92
3DDD05CC
3DACC6FB
3E6BCCBE
BE8C5176
3E947E13
BEACD77F
BD2BB159
3F05E29E
BDE4B410
3EFE5709
BECA0F93
3CB0DB80
3D146B8D
BE565DC9
3DD09B7C
BEC4AEA8
BE8AD28F
BEBEE2EB
3E09B857
3EA037BE
3EB2E882
BD94E1E4
BD28D5FD
BF257E30
3EBE3A28
BE8B0536
3E4506E2
3EC8A919
BE4DAB84
3E71B5E0
3E9F4FCE
BC6B8E2E
3DCB02E4
BC715766
3DE25D77
3EDACC9F
3DBAF1C9
3E0FFF63
BEA347DF
BE95D1B6
BDE2FBDE
3EA57D11
3E6EF440
3E98B829
3DB88094
3D159672
3ECD1F29
BC7AFECF
BE4B172B
3D928CF0
3E9B0C82
BB983A74
3EA4CCD7
3E889363
3DBF2A78
BE4DC088
3F4EC938
BCEB2EDD
3F0F6AD2
BEB053D5
BD74DBDD
3EB63885
3E0B24A2
3E6D89DB
3DFA73A8
BF1A43DA
3EF7E64B
BE9991D5
BEA76227
3DCDD579
BDC42B0D
BDAC078F
BD9A28BC
3E4ADCA6
3E3C9055
BC8E5E82
3E339AA0
3E06325D
BD81B895
BE110F22
3EB59550
3ED3473A
3E92A127
3E149F71
3ECF745A
3EF0C9E1
BE1622C8
3E1AAEE3
BEE429A6
BE39133B
BD79F8B7
3D735130
3DB8FE56
BEF77326
BC0A66CC
BE054067
3E875C41
3F07CF3A
BDC4D104
BE8F10B0
BC560419
BD14D18E
3EAACC72
BD382101
3DF425CB
3EBE2EFB
3EE2B404
3DD8227D
BF1AA31F
BD894BBD
BDD47DA7
BDCBBCFA
3DB630C7
BE89BC64
3E093575
3E3B806E
BEB8BB21
BE80A74C
BEAE4598
3D1BEA64
3E8B31E3
3CE9B4FA
BAAEBF1B
BC62CBF2
BD3319C3
3D9EC1EA
3E0E767D
BEEA70DF
BEA61AB4
3C8F4B32
BD85F4F4
3C03EDAB
3F3B6752
BE7088E2
3E5B8B8E
BEDE2948
3D966332
3E57C966
BD94710A
3E5696DA
BCE31757
BE725E1B
3DC9BAF5
BE096CA4
3F088D21
BEF098CF
BE7B25C4
BF0BDC69
3C1BEDBD
BE8CC535
3E42BCD2
BDFD9824
BD812139
3E00EB12
3E383D0B
BE22D9BE
BE8B9C14
3E3466C6
BE860DC4
BE98C23B
BE3DB75A
BE87F971
BD5890FE
BE574300
BEF5FB4B
3DF4F3DD
BCA9EF02
BDB99CCF
BECC70B8
BF0D9059
BD4D4494
3CBA62F3
BF4110F0
BE4F0CCE
3DE54D56
3DEE16E3
3E9EA900
3EBD7E89
BE95C185
3EACF5E4
3EDC27B9
3E26C375
3EBD8414
BE08D396
BDE0777C
3E4F30AF
3E23DAE2
BECD170C
BDF30C40
3DE02F2C
BF06B906
3E0362CA
BEC71883
3E1ACE77
3D96794D
3BBB9C8E
BE4397BD
3E277FB4
3E97D31D
3D2A4F39
3DFECA75
BE0DF578
BED8229C
3E6BC6E5
3C9ED096
3DCD008F
BF012392
3E471658
3CEE39AF
3E5D913D
3DF6FB97
BD5148B8
3E5EE050
BD92A0DC
3A3E90CA
BE600FBC
3E33CB15
BF3BB952
BD46605F
3E361A49
3DFE8672
3E1A6882
3D7E8C85
BD831807
BDC26165
BE397CDF
BE03E732
BE9EE473
3E1AB555
BEE7CD68
BD9BDB00
3EF27F17
BEB3CA7B
3E277F0E
BF160610
BD4B649D
3E518FB5
BD8943C8
BE9881E7
BE722FC8
3E86A118
BE0052E0
3EEE409A
BD8F752E
3DE613D7
BEE6D068
3DFC9CC9
3E3FA80F
3E11765A
BE4E8B1E
BE5BF72B
3DFA99F6
BEF69E6D
3DDF0A3C
3F083D5E
BEC47BA9
BE451FFA
BF0B8783
3F0A71C2
BE1ADCA4
BE9E9F95
3E51633E
BD643998
BC04E5C3
3E206A60
BDD31E47
3EC0F68A
3AAC3E8D
3E956ABF
3E74AB37
BE703AFD
BEAA9382
BEEA268E
BC75D8CA
BED9A397
BE55BA46
3E3C6554
BEBA581F
BCF580BB
BCA8DA6A
3E37D261
BE53555A
BE8A7D09
3E127D51
3D866FE4
3DC1A2EF
3D977079
3E7D9834
3E4D57B0
3E58FBE0
BE204532
BE3DCAEB
BE91A850
BE4BCF9C
3EF4C585
BEAD5620
3DA4D26A
BE92C62B
3D17B12F
3DF35D8F
3E42E357
B91E2011
BEBD9129
BEF03FF4
BD833CC6
BC5450BA
3E1DBA52
3E1F3B86
BD7A38AE
3EA81D80
BF21C0C7
BE09E766
BDCA92BE
3E70B9C3
3E33D405
3E024B69
3E9815B5
BDB49CBD
3F01DDBF
3D8BADE5
BDA71878
BE169BC1
3E8236CD
BE4C743F
3D244F98
3E1EA2B5
3EA4C9C6
3E5E5AF8
BBEC0AEB
3D8F7AD3
3E09D060
3AD39F4F
3EDB7EC8
3DC95A2D
BE6829E3
BD67C71C
BEA934EC
BE2E22A0
BD98D449
3E06C96A
3CF3F6F8
3F1F8F74
BE3C96E2
BF0D83A0
BF5C3868
BE30E6DE
BCDC2545
3D16AAF2
3E24B7F3
BF0C0B5F
BDE856DF
3E06163B
3EC92988
BD2A90E5
BEDBDF98
3E1010B5
3E815438
BC8C6DB7
BDADA2BC
3D0E58FC
3DD1F15F
3DB61BDF
BE0E272C
3DB09D9E
BD564FE6
3DAC3EA0
BE56C9D0
3E939CFF
3CF9A065
3C91D0E8
BD769451
BD1A422E
BEDCC6F3
3F516D0A
3E580D7B
BEFB294F
3E180799
3E8680EF
BE17BF93
3EAF50B0
BC8F42C9
BED1222A
3F2A675A
3D50F675
3ED014E7
BCCAFF17
BE1F73FE
3E566271
BF0FC732
3D8B6B38
3DC8372C
BD404585
3D47BC2A
3E6A92D9
3E6440FA
3E353B73
BE969E2B
BEE9E81B
BD947D7C
BDE3997A
BC0C8905
BDF08BD3
3E9A9DEB
3E357978
BE3E11BB
3D96533F
BE5329E8
3E164E93
BF4A5133
3E879896
B8E09023
BE9D7E52
BEBF164A
BE991717
3EC7E372
3E3DB0FF
3DC2B5D2
BEC11BE5
BDAD21A3
BE2E528D
3C8BE3F9
BE574B43
3EBEC190
BF1EB213
BEA15136
BE09F449
BF2F5701
3C59800F
3E883B6B
3D65D613
3D9D6361
BE8C6415
3E0F6BE6
3E1234AB
BEEFBA71
3DE9CC0B
3E7C2A0C
3C8342D6
BEC7ED3D
BEEB157D
3E34BDCC
BED2466C
3DB176D6
BEFA23F0
3C846EE0
BF14979B
3E87FC55
BE23945C
3D9400C9
BBE9F694
BDDB4779
3D90A1AB
3D9245D0
3D9E862B
BCAD2A70
3EAA475A
BDF01879
BE161798
BCB77DE6
3D90C15B
BD9D94C3
BE8CF138
3F14135A
BEAB835D
BED2F6AC
BEDD8995
BF0DA64B
3E03EB2A
3DCFA364
3E75F3C9
BE1798DC
3DE86DF4
BD42E230
3E270F5D
3ED5883A
3EA584CE
BE813B25
3E097575
3D08968A
BD5B5A31
3E0AC048
3E874D0E
3F0D27F3
BDA19D42
3D8F4802
3E522A94
BEDF7D60
BD551CD2
BDC21AA7
3ED01041
BDD87466
BF5BCA6C
3E29DB64
BDA61F3D
3C027032
3E4B017B
BE84D3A4
BDB47732
3D88DA0C
BEA9E48A
BEF2BB28
3EE02BB1
3ED17A8E
3E921E15
3E9D0044
3E6BD788
3ED743E4
BDD4A1EC
3E019694
3F1066FA
BD557BD3
3C9E1A62
BEC013D8
BC8B4406
BD14DEAC
3EBE1658
BEE48CE9
BE928A08
3E0A11AA
3E77FAC7
3EFBA5E1
3E9325E1
BC91C57A
3B5AF605
BE051EA4
BC1EEC7F
3CC43198
BF01DC24
BE644948
3E9E1B4E
3D93265A
3DA7D282
BF2A70C9
BDE7ECED
3E31EBB8
3EBEF54C
BE84DD8D
3C912689
3E1EA690
3D7BA38D
3D42C7F1
3E3CCBB9
BEC90CDC
BECB5833
BE90A5B8
3E03ED58
3F385037
BE08677F
3D95A767
3D1709F5
3D8E9950
BF30936A
3EE26FD4
3EED3FEC
3D608BD4
3E736E35
BE624D49
BDBB319D
BE0764C5
3E41F5F2
3ED6736F
3B17CEE9
BC9139EF
3E5C5B90
BE94A7C1
BF3A770E
BF096BAC
3DB36C4C
3D46DE6C
3E6A559D
3DFA4891
BEA72814
3D896999
BCF351CC
BEC7C835
BEDF3046
3DF44139
BD9CB14E
BD784E0D
BE462AC3
3BCC1DE6
3D5BBDA9
3E799B8E
BE3FB146
3E08E706
3DB61EB5
BD4CD7FA
3C74F5E1
3D8CC45B
3ED16416
3D15E6ED
3C85E272
3F0BF757
BE40FA9D
BE596C0E
BE897416
3E33F2A1
BE695DFC
BDB173C6
BE2AF139
3E7ABB92
BEC8A6AC
BD99ECAA
BEFD119D
3E0A125A
BE8D108C
BDD543B1
BE15F14D
BE0D59EF
3DAC539C
3E2412A8
BECE07E1
3EAC6D16
3E8131B3
3EC18AA4
BF007DC4
3DE1B65B
3E4160C8
3EF04B42
3D9A3622
BE3165BB
BE47A312
BEAE68CA
BE91688A
BE73C648
BA619E96
3DEAEBBF
3D79BE32
3C5BE85E
BEEB0051
BDAB1096
3ED7BAAA
3E61C4E1
BE48C044
BDAAD7E8
3EDBD1E0
3F115FEA
3E1A7701
3EC51675
BDFE4D2F
3D077504
BEE90F6B
3BDE442E
3D07B523
3C711891
BD9E0F66
BDF3262F
3BCE0E15
BE0C0BAD
BC131E40
3E8DEA27
3EE1DB9C
BE97CDC8
BDF6132E
3ECDBE9F
3BD1F7EF
BDAC1BB3
3DDABB40
BEE2829F
BEDFAD22
BE3FEDC3
BE4D7B34
3DA16FBE
BDC53078
3E5147C3
3EEE9ED0
BE51F18B
BE476176
3E290180
3E93DA11
3E526A73
BF1A9949
BE4ACA14
3E0E7DB5
3CD28472
3E240854
3E79D5C6
3E7CE3B1
BDAA9787
3DE53963
BEE13A64
BE64929B
BEBF1591
3E588F95
3E3B804A
BED04774
BE7BAF07
BE15486C
3D1028F5
3DCADB06
BE1B43D0
BED14E18
3DCDE520
3DC6DEA9
BDE3E939
3F01AD0A
3DDDE783
BD0DEAEF
BF16AD5D
3EA55866
3D8E4AB4
BEAD5EDF
BD7CC33A
3D513084
BDD73BD0
3E0C77C6
BE7D08AF
3DD65D0B
BE769C37
BD8ECF22
BE90717E
BE194349
3D9B81E0
BF0C4B34
BE75B807
3ECED529
3E1D0409
BEA7FD6B
BF09966D
BE73CB4D
BECC2524
BF1AAA1C
BE967A5D
BEE8D045
BEA29825
3E433A43
3DA25EDE
BE3220EF
BD35E89D
BE5B0C8E
BDE75F58
3DFE1024
3BCDACDC
3E85E4B4
3F052A83
BDFBE9A6
3E56B10B
3E344A8D
3E924D3F
3DEBE31B
3F2B90F2
BE015104
BE580AB1
BE34CA9F
3E9B7C1B
3E19C79D
BE6E9496
BF632C10
BE1A11E5
3D8AE399
BDBC7784
BDC14AFE
BE3187E8
BDB37771
3EEA50AB
BEF1DE8E
BED484E9
BE2851DA
3D050283
3E55D82C
3E7C6F02
3E0289FE
3EA1CBA2
BBC259AC
3E444B28
3E11D258
BE226690
3EBFCBE9
3C04534C
BE364966
BE60B789
3EAD633B
BE0F810A
BD184B4B
3E12BE32
BE82749C
3EF1834C
BC425113
BE4FCF4D
BDD7DCA0
BEE55ED1
3E5A9A90
3F20C55E
BEBE1CD0
BF13DD3E
3DB51ACE
3CBCEA31
BED2EBE6
BF2EDA1A
3CEF538A
3DE695ED
3E972C3C
3E94B591
3E7AD4C4
BDBB1D97
BEB5A6D7
3E9161DE
3E322AE3
BC2C1CE9
BE542209
BD7CF9E4
3E98EF0B
3E50CF53
3DBB6022
BE8B3474
BE109FEA
BD9293EB
3EDF1A35
3E0AAAC7
BDA6779B
3E441847
3E3F30AC
BED007B1
3D7A9A1D
BD2F95DD
BEABC705
3EB047C9
BE7D9397
BEE23DED
3ECBD67C
BDD31C3F
BE7ACF15
3DD3F23B
3E135666
BE56BB6F
3E89B64A
3E297CED
BEE0B4B2
3C7A05E0
3D73C6A4
3DA8047E
BD09CC7A
BC300D19
3CD70BCB
3E865A41
3F73330E
BE1964C1
3E2F6282
3DAAB457
BE52B550
BF323952
BDE35471
3E22E669
BA893D81
BE0739B4
3E8B55DD
BE9377CE
3DE08731
3F3172CF
BE3AF2D8
3CC8BE80
BE840A4F
3D213336
BD87305A
BE340C67
3EC3CE98
3E441293
BF119111
BE323DA2
3E969E82
BDE8DB46
BE179B6F
BE47666F
BDEE1FAC
3DBF4210
BE3EECED
BE1ED548
3DE2F7F9
3B89F1B1
BE31A4A2
3E8819C1
3D9B7683
BEB91DF5
3D5C0F60
BE9B4112
3D504BFE
BEFF1DBF
3EE921EF
3F033ECA
BD33665F
3E922431
3E1CF8BA
BE5C0AE8
BD2BDB10
3E9036AF
BD937F06
3DCC94AD
3E010AD3
3DB76AD3
BE1BD634
3BF7AE78
3C42887B
BBC9BD63
BF0767C0
BE4AC878
BF1AE750
BF241848
BF19B1CA
BD42865A
BE1EEB93
3E9E212F
3C77A218
3DDED428
BEEAD5C4
BF198C62
3C95D057
BF0EF221
BD896691
3D336CFD
BE928146
BE8A1747
BEC353F7
BD505B92
BBDE41BF
BEB762E3
3EB3D24C
3C9E8800
BE9647F9
3E368B93
3E79378F
3E80D1E2
BF4EF8B4
3E3EE910
3ECBAFD1
3DF1A4CF
BBF0BB14
3E64EF89
3DB53E24
3E4A9941
BEFB80BB
3B2BDA0E
3D80CB1C
BEA934EA
3D8D8780
BEAD5759
BD300B2B
3EA29133
3F1B1A3B
3CF6DF35
3E102C84
BE34C3FB
BD597F28
3E592617
BF14C0F4
BEDB392D
BE7960CC
BD3A3022
3ED5B2D9
BE396617
BEA55B60
3E4B6F25
3EFE5C5E
BEE2288A
BE74C50C
3E3ED388
BDB95977
3EE251A4
3EE966AF
3EB52F2D
BE19347D
3E7AD5C4
BF061A39
3E9A3924
BEE124E5
BEA50CF8
BE8AE121
3DA2EADA
BF0C5205
BDE1CF39
3F10FC35
3DF1E6A1
BD9DD27E
3ECD78F2
BE4B1D1A
BD686DBD
3E12CCD0
BEBE65F7
3E019BAB
3E5DAFC3
3E2499D8
3EBDF8A9
BD90185A
BE176CF2
BEC8A0D3
3E86A04A
BF1ADAEE
BE53FF8D
3DC09EAA
3EA4C9FA
BD7A499D
3EEE7E23
3E1D8C4A
BE83D5F6
3E6A3772
BDC60E8C
BE70029A
BE7845FF
BE9D4822
BEA8A807
BE90A11B
3E84AEF9
3D96C0E2
BEA2F185
3DF458D0
3EE9831D
BDEAB95B
3E856209
3F177E31
3E8E8678
BEC3EC5D
3EE7E7B5
3D69C503
BD154AD8
BEA149E9
3DB9919B
3EAAFFD8
BD7851F1
BE8454BF
BD8B26CC
BE7BC570
3E51454C
BD01B1C4
3E42442F
3E5244E0
3E77BB19
3C9B9491
BF0A1A5D
3E8AEADE
BE622767
3EB5ADFE
3E32BAE0
BE23030E
3E7BFF35
3D4C6A72
3F0C829D
BF0955A1
BE679322
3D84E789
3DAAC7C7
3E21D801
3E40A5E2
3D5E06FF
3E9F8776
BEB1B514
3ECE28CA
BE8997B5
BE33C829
3EC43363
3EBC8AB5
3E082DB7
BE2EE888
3E642C2F
3F0D1A21
3DEF946B
3E187268
BDFFF0E4
BCA3192F
BEE3E610
3D5CF8F7
3DF9AC2D
3C731EDC
BE7C6135
3DCABA55
BEFB6493
3E82F13C
3DC2516D
BF128DCB
BE1A75F4
BE8B8A85
BE17FF02
3F493BCC
3E11E807
BEC478BE
BF4A3E0A
BD9E8EC2
BE8919A2
3E91D653
BE5F11E3
3E390A61
3EA983F4
BE3857AC
BE70F3FD
3E4CF8B7
3E3C2D6C
3E87AED9
3C9F8023
3F327675
3E2EC31D
3E55CCAC
BE1356AC
3DB66951
3EE15CB6
3E957175
3ED35DB1
3DE5291D
3EA72C04
BE9A1921
3DB64A17
3EC512A1
3E06CC7A
BD65BEB4
BEADCA10
BE9A1413
BD4F1671
BDCEEB6D
3DD07CBA
3F2D924B
3CEA9387
BE1D2ACB
BC3FBDDB
3DABDB74
BE03E8BD
3ED5F561
BE9D21AF
3D0F87D8
BF15CEF4
BE8FBC9E
BEB74091
3DF0A5FD
3DD5ADF5
3E4FEB4B
BCBAA2FF
3E2F4EAD
BF316B7D
3DE59C8A
3DA8E286
3F114952
BDE69A91
BE82D824
3E4C81AB
3F302D27
3DC79EC8
BE2FBF0A
3F07177B
BE01451F
3EAEEAF6
BD6BB9C8
BE9E6E15
BEDD5CC6
BE940420
BDC192BF
BE722A4C
BEAB393F
BD2EAEF5
BD849D75
BE2E3C95
BE76B747
BE51ACA6
BE8649B5
BE31BD54
3CEBC921
3C5B7B10
3CE4055E
BE293129
BE299316
3E30E3DD
3EADCE14
BEFB09C6
3E390524
BEF15ABD
BECF9B49
3EAE59EE
BDF2C3F8
BE24796B
3F0037E9
BEA9A64C
3ED409AF
3E94D371
BE807F07
BF0D3286
BEA899B2
3BDDFDCD
3DF77C80
3E23876A
BE8D3EA6
BD03A0F2
3E7756ED
3E5D692B
3D0A19AC
BDBFBF0D
BE62A713
BE85B5A0
BBA827BC
BD2BEA37
3DD5A69F
BB9F6FC7
BE569A1E
BDE503B1
BDEB98F6
BD56CEA6
BE0D406D
3EFB375C
3EADA207
BF5FF348
3E434EAB
3E77ABE9
3E8E22CC
BE17AB0C
BE2979CA
BD6DC7CC
3E157E15
3F509571
BED68B40
3EB33FF7
BF3602BA
BA2D1349
BEAE1B1E
BDE01813
BEDBE09B
3A71B30B
BD9DFF72
3E958B6D
BDDD7084
BEA9C450
3EE88ADB
BD333F75
3E65730B
BE8992BA
BD9E7C5E
BE855A79
BED4F8D6
3E855B06
BE4ED067
BD878FD7
BEAECE3D
3D253204
BD8CC013
3D61CDDB
3DF71D85
BF04DF9E
BE0F73C6
BD4C8775
BE403041
BDE2BF3D
BD96AB14
3E110B91
3AC88946
BE4CEAF6
BF2D9670
3EF74051
BC1BC808
BE383E8D
3E4AF0ED
BDB34E1F
BED5B1CD
BE2D193B
3D024014
BDEB2272
BE82BB8E
BE905B22
3E23FCD5
3D36F5FB
3E8743FA
BDBF4F4B
BEBC81ED
BBB2D9DC
BF02F9C3
BE971212
BE0EFA7A
3E4DB274
3F090794
3DBF6A43
BEDCD00A
BEF5F846
BE627201
3ED7D3DE
BD45915F
BECD08F2
3E1DCED5
BE4A999C
BF12E902
3EF37CA1
BE8E6B17
BC7FB623
3EB699E3
3E8FB02C
3E7DDFB8
3EB56B04
3E01EC19
3E54B384
3D9C56E2
BF465C82
3C0D05C2
3CB21EB6
3E0EDE76
BEC148BF
3D984CA8
3D1A3289
BD437CD7
3C8C6AE2
BE9A6A29
3E8318DE
BDC1912F
3D4BF544
3E987A45
BEEB4817
BCF6B036
3EA02D71
BD9C3EE4
BDCB642A
BED1FE71
3E11D7F3
BEDA63CF
BC857220
3C5AF6BC
BCCA9555
3DF31709
BF0D1618
BD348876
BE13A7F2
3E46094A
BD1A8268
3E3FD970
BDA43D8E
BDD06E04
BE58355E
3DE770BE
3E320FA2
3EAFD86B
BF266A57
BEB2D18F
3D911974
3D5B8DF8
BE2335AA
BDC1F8C7
3E4D59EC
3E30C95D
3D8D67A9
BEC53850
3E771B14
3EADB320
3EE1273B
BEBE9025
3EC34C89
3DAA8C3A
3EABAEC6
3E78F70D
BED6E732
BD88084B
3E09C950
3D1849C0
BF12A224
BE592719
BCE0D5BE
3C709CC0
3CFBDCB0
BEE6F76B
3E54525A
BED46E31
3E6A38B7
3EE4377B
3D633F1F
3E43D52F
BE8D8FB8
3E3A4A78
3EBA738B
BE2856C6
BF163FA9
3EA5E6C2
BC3CE229
BDB9B303
BE584829
3DD35CAD
BD04D20F
BBC3B58C
3F11C65A
3E90F1F8
BE366608
BECBE8BE
3DE2DA24
BDDE4F17
3E6C753B
3E88ED85
3EC8BAE2
BDEC2FC1
3D5FBEED
3E91B763
3E373AFA
3E1094B9
BE111074
BD64EDA3
BE26AE47
BF236BC2
BE652C40
BE837475
3E3BC441
3F02A5AB
3E05A1DC
3F0FFB86
3F15EE16
3EA20B76
BEDADB6A
3E3BDD99
3F43E3C8
3E5256DA
BD2757DE
BE35455C
3EC36B68
3D0080CF
BDD72614
3EF9EE02
BDB325CA
3E8AEA1A
BD330CE0
BDA57DDE
3DA2149E
BEB0CDF1
3E079AA2
3E18EF92
3E32D7C2
3D862A9E
3E1852DD
3EE22EEA
3D52BCF4
3E0653B8
3E9F6461
BF1B6E0C
3E88C8BE
BEABE3B8
3E37A978
BE8486CF
BD6A1E6F
BD659C4C
BD62E34A
3E45E3B7
BEBA7257
3E5045D7
BBB7D1BE
3E0C13FF
3EDA6775
3DF77BEB
3D9F95C5
BC1D8099
3E167594
3EDEDE20
BEAB55FA
BEEE59DF
BDC1FA70
3DF50E4A
3E9EEB78
3C4694FA
BE3BD79A
BE3B9F91
3DF4739A
BE476E31
BEBF9858
3E087F29
3D3065FF
BE65763A
3DD2D516
3E3812F2
3E8E9AB0
BEE5D949
3E0D6F77
BDF4BC5C
3EBF58E5
3EACBE8A
BEA59ED8
3DC6803B
BEB01368
BCDF0081
3E02B1AA
3DA1EBA5
BE38F6A5
3DA1774A
BE2F90DE
3D8BE651
BCC84B6E
BF16C9F6
BE603FF5
BF000D30
BEFB5559
BE292648
BE256B17
BCA12DAD
BD9C590B
3F0E70EB
3D9905BB
3EA2E5BE
3E0BC02F
BE740809
3ECC9AA7
BF785280
BCD5AB99
3ECE80D6
BDE1A67D
BE0C7381
3D080D2A
BE5069F2
BE341CA7
BEE0C582
3E8F4309
3E67F54A
3E80F430
BE8ED782
3D103F25
BCAC4131
BC2D9402
BD04D33C
3E97AE62
3E998C5B
3E12D1EC
3DD64278
BEEC44E1
BE60425F
BE9F25CF
3DFDE32E
BE3881FC
3D26F156
BE87B827
3D9F4921
BDFA3826
3E59F96F
BE0B7E32
3E0A529B
3DD09526
BE2B1344
3DC36D28
BDADA287
BE204DF6
3DA21B21
3D8CBA39
3E340996
3E059548
BDAD353A
3EA02D66
BDBD8914
3EB0C1DB
3E213C6B
BE13FE48
BDCD8B87
BEBFD219
3C547BA3
BED420CC
3E13979D
3ECAF9F5
BD0D4855
3EB74742
BDFA914F
3EBF719E
BEEDC0D6
3CE479DD
3E965B5A
BBC1987C
BDE8EAB1
3EB2D69A
3DA4201F
BE912865
BE958337
3E4DEC0B
BEB53E81
3D2DDCED
3E89C255
3EC3C837
3DB34E8B
3E141A82
BD903CCC
3EC12E67
BEA7AF0B
3E9F7996
BF5CDCC1
3DE11A1F
3E0B759A
3E996CA2
BCAA4B28
3D85574E
BE13408A
3E09B0B8
3E83FF90
3EF49D7A
BD91A186
BE1D373B
3CE0F6E6
3D8A1D39
3DD50210
BDB011B7
BEA81C5D
BCF12B1B
3E8BED24
BE649C68
BCB8C5B4
3EDFEB2F
BE070728
3EA4AE61
BEC9B2B0
BEAF8010
BEFF2FA0
3D90D1FC
BF0890A6
3DDE3E7B
BE6B847D
BEAB0CBF
BDD125EE
BE9AE7B5
3EC07149
BC020142
3DF8DD32
BEF4C2E8
BD119A34
BE80557E
3E341BAE
3E9D4ED8
BEA9C765
3C84937D
3EC2FA11
BEBDA8A2
3EF313D4
3E014CFF
BDAFF39A
BDFB6171
3D8B469C
3E181E57
3DB462BD
BEA55361
BECE0EED
3D811997
BE582BA8
BE520B2B
3C7F2FE1
BEB22A3D
BE3B46EF
BED2EB30
3CDA0413
BEE45AF6
BE957991
3D41631F
3EE4EB36
BEEE2055
BE20F015
BE826601
BE2578D2
3DFA0847
BD5D2212
BEBEF56E
3E90DD09
3D60C4F4
BE315C81
BE513A68
BE1DFAE3
3E1A7892
3DDD3BC1
3EFEA732
3E45B128
B9FBF0FD
BE0BA330
BE36F26E
3E3470FC
BC3C00AC
3EE56FB6
3EC9AFC9
3E0AED41
BB404E8F
3DFC3C2A
3D6C5266
BED628F5
BEA85BAA
3F46AFD9
3DBF196C
3F162AFA
BEEE49CD
3E926497
BCA8584E
3F24904B
3EEDC712
3D8F31BC
3E9D6455
BD1997C1
3E816200
BCDD3DC9
BD9C7D90
3F09D280
3E69415F
BD1DC62F
3F427093
3E831C54
3B9E603D
BE9FF967
3DC1BEF3
BECAA1A8
3DA01E62
BE933DB8
3EE509C3
3E77459D
3DEAD4EB
3E02CE61
3C194D4E
BE09B626
3DB0C739
BBA4BA9F
3EAEAC17
BEDDC97D
3DD22D54
3D534BCF
3E80EB4D
BE823775
BEB7E100
3DCF667A
3E2D8D3E
3E7D5B8F
BE977E98
BECDF9F4
BE6980DB
3E57F8ED
BE6B834E
BEBD64AD
3E28C859
3E54283E
3ED9A127
BF140CA3
3D09164F
3EB85E38
3E2C1D03
BE992056
3ED55FEE
BDAD6081
3E2A7D88
BF0C443E
3EEC0D34
3D45A89E
BE90DED8
BEAD1651
3E4E44D2
3DC37F08
BEC357B2
BE308881
BD89BB1D
BE69936E
BD812295
3E96E2BD
3E8B44E3
BE190E0D
BEB61C94
BECCE7B2
3EF1528E
3F012E32
3D27C393
3DE32899
BE9978F6
3D97B431
3DC27529
3B806B8B
BEF2CCF9
BE3CA191
BE971C37
3D2C66AB
3F5429A2
BE9CFC68
3C866438
BDAEE346
BE5D58D8
BE654BB1
3E0F7AD4
BE621CE5
BEBED383
3E25D12B
BEBC45BA
BE5AD117
BDA7AB5F
3DBB4E51
3D815A82
3E0C2837
BDDAC148
BEFA38AB
BEF8B0BA
BDA1D8E4
BE3A4E6B
BAE9FF0D
BEB7DB5A
BEDFE7EC
3BDA7948
3F265FF3
3EDBE514
BE81C0FD
3ECD8CAF
BEC4DCA2
3EA616F1
BE7EB59B
BE728F46
3C8F45A3
3F41D01F
3DD92F3A
3D5573DD
BD77A8FF
BD7C083C
3E7F298B
BE5CD357
3E9DCD6A
BEAED4FC
BE8E9F8D
3DFBE764
3D98F7A0
3E6A1EC3
BF2CCC8D
3E2C1788
3DA26295
BEC12B55
3E42209C
3E25397F
3E3F566D
3EADD9C3
BDC4DE66
3E97E658
BD93AAD0
BBF9B893
BF13237E
BE81FEE9
BE4800F0
BE1B5295
BEA2DB6E
BEB5FBE0
3EBEC2D1
3D3A0AEB
3ECE64E9
3E4ADA57
3E3A10DA
3CE4519E
3E9F9B95
3E83D2E1
BB05D745
3EF49ACB
3E917D22
3F0E5F48
BE86C99A
BEA3F081
BDE8F5B8
3E4CE41B
3DF57420
BE775BEB
3D3BBD53
3E0CBABA
BE85FC1E
3DF05561
3D9DDC7B
3D828405
3DF0CF3B
BE490962
3E945D08
BF180D6E
BE840956
3E02A4C1
BF14DE95
BF333DC5
3ED5E459
3E47B9E0
BE8D9EF1
3E2624EC
BE876F8C
3E89C5C0
3BF236A9
3D17588A
3E917659
BEB2634C
BED9D7E8
BE59768F
3F16B26A
3DB89394
BE8E36A4
BD662D0B
3C50890F
3E5D5DC4
BEFB101A
3E768AC4
BE2C5F9B
3D4B19EA
BECCA6A7
3CEA9ED0
3EA1498A
BE3BD655
BE9B260C
3F031F87
3E23156C
BEDE76AE
BE15B8A0
3DE73837
3E2E5EB7
BE0ADF7E
BF0E1654
3E942FF1
3E8A1047
3E2762F8
3E83C1FF
3D48CCC8
3E6CBDA4
3CA69C01
3D88F1D8
BE1834B0
3F02FC9A
BE4DF73E
BCB402A6
BEDB72D2
3E168C3F
3EB58BD2
3E1816AF
BED777BD
BDA7BB05
BE6B8671
3DAF0026
BEA4CEE5
BDB53127
BE245226
3E37945D
BB5D40B8
3E769550
BF10F514
3F17AD23
3E981116
BEA7D6DE
3EA14640
3E0DE6E0
3EAFE36D
3D1E9079
BF0083DB
BEC0E7A4
3EA8A8E2
3F26DB45
BE8ABB75
3EA3A5D6
3C87F557
3E9FC884
3E3A8EC3
BDA89BF0
3E38498F
3ECB331A
3C9F9D09
3CD7CBAE
3DFE90B4
BEA9EE05
BEA70816
3EA98821
3E46CAD0
3E953154
3E17F29D
3EACED44
3DEA18DA
BE5F3110
BEAB7D3F
BDB32D3E
BF03D8D0
3DDD6D46
BE7849BC
BE2FBEE1
BD8F4BA6
3E000863
3E29BF88
BE3014EC
3E1A51FE
3E975FF4
3E46678A
BCB1E682
BE12D334
BF102D0E
3E4A3004
BE62FB30
BE29DD67
3D6D6F72
BE1FB494
BF1CBBC7
3E8E5284
3E8610ED
3E552324
3E146B70
BD271FF5
3E1714BB
3DFAFD0F
3E09576D
3D7FD075
3F11D370
BE0403E1
3E2F0B0B
BD0B252D
BE7616EB
3E175D1A
3E7F3BEB
BE944CFA
3EA871A2
BAA46550
BC235113
BEFB7634
BD9CEA01
3D83DEF2
3C601A47
BF0C4546
BEE9621E
3E74ECDC
BEAE30FF
BEB9DB45
BE04DF31
BEE82A1D
BD89ECBD
BE33D60C
BEB156AD
BDE5A766
3D86097A
BEAC39CA
BF0F03BC
3EBEA0EF
BF0C0EFF
BEBDA790
BEBAB9D6
BDFA3435
BD4BBC5C
BE8815F3
3D9C3AA0
3EA6E1C7
3E0A1603
3DBBBBAD
BE6CB4C7
3E654099
3DA9FA41
BEAC296C
3E2066BE
3E48446C
3D8EF42A
BD9B3B5C
BE3C40B0
BE872036
3DFB006A
3E8B4D3D
BCB6491D
3D231297
3E62A4E8
BE409083
3D9CF4B8
3EF0F51C
BEF434D8
BE5B6B0F
3F15ADCC
BF5158C1
BE9658FC
3DDF7F20
3C897A27
3EE461FB
BE7EDFB1
3E11FBEA
3E77DDAE
3DAB46B9
BF008212
3EAC4F95
3E9F6B7B
BE166117
BE7C96A5
3DB1F01D
3EB62343
BDB0E09A
BD96C1C5
3D8D8DEB
3D83B551
BDEAA1A8
BE2861D9
BCB6C472
BED26F12
BD9B9C1F
3F1E651E
BD823EC7
3EA99A30
3E9D5F45
3E6AB1E7
BD972F93
BC5473CB
3D5EE6F3
BD9137C9
3E81B8BC
BEBCB064
BDF73CA8
3EAA6757
BCE1850B
BEA6FD94
3D92BBD3
BE6CC351
BF3F8870
3DE61D00
3D89C85B
3DC05547
BD0C01BC
3F392D47
BE0B1337
BD764B36
BC716B93
3E476DAD
BEA02B3F
3E202DAF
BDD04C78
BDCD5B9A
3CBB6800
BEF961BE
BDD23F81
BEF9CAE0
BE394670
BE62A589
BCD1A60B
BE663A62
3E1FACA6
BE93BAD6
3DDD7A68
BE0CE9A8
3DD14780
BF7436E8
3EBE3677
BE32BFDB
3DE1E201
BE5C3E33
3F0E8B10
3E3681D5
BEBB9EF3
3C00FABC
BE44645C
3E9CBC81
3CFC00F8
3E35FC8F
BF3A3BD9
3E4A7D2F
BDF3D9B5
BD30AC45
BCCB86A1
3E4009AA
BE228BF3
3DA5ED20
3E847770
3F105603
3E2EF10A
BDFF80D1
BE71D8C8
3E93787D
3E3C216D
BE867CCE
BEB6F438
BE9E6004
BEBFDE07
BEC36342
3D967F98
BE810082
3E9C5F09
BE0A5FDA
BE19907E
3E0F1A5A
3DF08EF6
BF1498A3
BE24496B
3F111BD1
BDFA1434
3D825D0D
3BE1B903
BD87F970
3D6B2A18
BE099CE7
BEA68D6D
3F03E6BC
3F065BE8
BE2A80B1
3EC20F22
BE11FF7D
3E210467
3D96E54C
3E03E81D
3E1AEDCC
3EAE90FB
BE93932D
BEA3024B
3C0543C1
BE72EE7D
3DCE2A89
BD82A8F5
3E7FC53E
3DCD5BE1
BDBA930C
3EC9B25A
3EF576D3
3E52929D
3E8B0DDB
3E69FA92
BE62F103
3E19CF09
BE31753C
3F102442
BE5170F1
BE0D32BF
3D575432
BE165102
3EA4DEB6
3E0AAA3D
BE38D4F6
3D91194F
3B3108F7
3E018FF9
3EBDB1E7
3DCCB7CF
BEAC2998
BE3CC9FF
3EA9A6E6
3EB97DDB
BD8924DE
BF4945B3
3D434969
3EB7852E
BE0C78BD
3E0A9898
3E8C00C6
BED710D7
BD5B2D68
3F144B19
BEC1F81C
BEDF9DCD
BE5B33DB
3DB8684F
3E141056
3EE2D66A
BE46E6E3
3E048634
BE9A1AC6
3DF6DD29
3E8F747F
BE5911D1
BD221F98
3C351BCB
3DCFCA09
BE716C9E
BDF3A89B
3E5943BD
BCE1E518
BEBD2093
BE237930
3E814CAA
3DACD210
3DD7C509
3DFA7880
BE33268C
3CE7B0B4
BD1246D4
BD95305F
BBC351FA
BE9C3AE4
3C834036
BDD9AA9C
BE9F93CE
3CC2C0EA
BEC3C87F
BE6870E9
BEE026F7
BF0BA3B7
BF020CA1
3E17AEA0
3F27E18F
BF475A27
3ED29541
BEBD4739
BE660668
3E3CE557
BEF19F3B
3E90D32E
3E0A8114
BDCF27CB
BEC39315
BE1CAF0B
BE44F790
3DDACEEF
3EB3AEC3
3F02A6E2
3E5410BD
3DBB222A
BE1ACAC3
BE147953
BE33B723
3EA906DE
BE9CFCC6
BDE17558
BF00AC94
3E1657B4
3E8B176F
BEA7148F
BEE923DB
BE2E8AE3
BF07FE32
BE882E59
BECAEF6F
BE363D69
BEA25D41
BEFF8F0F
BD2D1D1A
3E810BA4
3E893E1B
3C43E78B
3E9CDECA
BE14834D
BED9E397
BDB0D2C0
3D716481
BE9DB689
3D84967B
3E8D9FEC
BE33DD5E
3E8CF8D5
BE98A23F
BEA09627
3F0A0F6E
3AFB391C
BEB0F407
BD4DA1E2
BEC0FAFF
BD211DC2
BE1CE607
BE75B79E
BDC3D4B5
BD4C6081
3E976F3C
3E44EAD6
3D92C39E
BEE5D91C
BEF46033
BDA3A51F
BD9D6469
BD0B7F35
3E73AEC8
3E81066A
3EB30695
3E9017D9
BCAF78A4
BE9030CC
BC3CD1F8
BCBF9A2A
BDBFF47D
3E74DAAB
3ED3E24A
BEB0004D
3D82C309
BDD1CD75
3E2FA57B
BF00D77D
3D98D032
BDA70743
BC285C40
BE098CA2
BC6C08FD
3DD6763E
3E6226AC
3D46B6EE
BEAB3B8A
3F0DAA0D
3D1E38C8
BDDC5A6F
BE26FE56
3E393837
3E1041DD
35E83259
BE8D9188
BE90C3C0
BD8A2F8B
BEB6E05D
3C1BE27F
BDD047EC
3E044AF1
3E34C472
3D785AED
BF086387
3D9FD3F8
3EA57894
3E9DB7F8
BDCF4FF4
3E153B6A
3E39C3FF
3DDA30AC
3E813ED0
BE456A9D
BE9FE50A
BEC14817
BEA3A3D0
3CA8EF02
3E3E165C
BDF56B33
B9A4161F
3E15F7C4
3E59F425
3DE23096
3E60994B
3E21DB71
3D11AD6C
BD81CC47
3DE1521A
BEC7FE62
BF5746F7
BE8256F8
BEB76BEC
3D4D24B6
BE7A1A9F
BDC43C67
3CDE3022
3CCE5EE8
BE39C454
BE042BD4
BE299355
3B955AF1
3F0F174B
BE9EB767
3E3D73EB
BE66936C
BD3E56B8
BEFA0F6B
3C0FBC36
3E8312F9
BE9ABB7B
BE8C329B
BF2EC602
3DB3ABF6
3E9626BD
3E472BEC
3E1A267D
3EA1EC90
3E858118
3DCD9061
BEA8BDD8
3EA5C277
3E3B9C0E
3EA541CF
BE9EAE5B
BE279C47
3D298F86
BE41D74D
3E54BAAF
BF1D8D88
3E35124C
BEF39D99
BDAC6885
3D5D3789
BE9B58A2
3EB11D06
BDC2B70F
3DE8EE4E
3DC1F583
3EBEA188
BD357FFF
BED9337A
3E67B0A9
BEA74AA1
BA9E33DD
BEAF0877
3ECCDD2C
3D9DA738
3B1A0651
3EA46E97
BE012E50
3EB3D4BD
BEA52C3A
BEAC58DB
BDC75CF0
3EC702E2
BE112A0B
3EB27720
3E000C2B
3EB34C9C
BE75FFB4
BD80BE38
BDFAFD93
3D759E37
BCF578E8
3E51E786
3E3EE16A
3E61D958
BDA1ECCB
3E3C922F
BE3A4334
BE263C39
BC2133D7
3E4EB68E
3E7B65A4
3E96303B
BC9ADFFB
BEA68D7D
3AA034E9
3E75EE08
BEA3B744
BEB08607
3E773BDF
3E2C9A7E
3E8F363D
BF05C325
3DC43FD8
3EB5A440
3E59EAC5
BDCC3CAC
BEAA6E5D
BF122114
3D704C59
3DFACD92
BF48E08E
3DA92BBA
BE0CDF66
3D58F7FC
BEC1941A
BD711B81
BEBD708E
3E0A9DFF
3D57AF57
BE476948
3DAE5096
BDD7A56A
BB1B1D52
3E976FD9
3EEFF427
BE7A4403
3E8EC38C
BE296E72
3B000950
3DC007CA
BE01DAE1
BDC97DC4
BD24D656
BDC64C6C
BE01B048
3C5E2361
BC0DF597
3F58CF51
BF863A0D
BF390DCA
BEAD15A6
BF02BBE1
3D9F372F
3D62C2FB
BE30EE54
BEC40C4C
3E140A3C
3DC3B856
BEC49B01
BE795BC0
3C9885D3
3DAE1FCF
BE9B31DE
3EBAB3DD
BE774F59
3DCDADD4
BE15E2A3
3E8A568F
BE3BFE09
3E9B4442
BE65788C
3E2F401F
3D554483
3E70272B
BEC53A23
3E5E0FEA
BECE3F65
3D182A69
BEF6F8D8
3D36B1D8
BCF76069
3DFFFD35
3CFF027F
BEFE5D5B
3E800F28
BF23DA48
3DC430F3
3E20480B
3D855BD3
BE2F7159
3E804276
3D8656FC
BCE55966
3CCF7223
BD014413
BE95BD88
BEE03163
3DBBFABA
BDF22B70
BEC44EC0
3DEC1981
3D03DE69
3ECA864F
3DB7C585
3D981C92
3CC5609D
3F26C74D
3E4EA193
3D2C5A13
BD516EF3
3DA04FA8
3E47A26A
3CF940EF
3F110D17
BF604E13
3BDBDCF6
3F1D0789
BE6EDFF9
BC5B9217
3EFC7545
BF05702F
3D1D4F66
BE9EC277
3EB6A7D7
3D859460
3DD33962
BE8073A2
3DB6D1A2
BE09ABF0
BD696B49
BED8BB8F
BEEC36A1
BC185394
3D4A9484
BE393F28
BDFCD125
3D5C4FAA
3EB496B9
3BF71159
3EB3FDE8
3D343EAE
3E9AEF9D
BE4E0BAE
3E8D58DB
BF0AAA63
BD64FAEC
3D679AEF
3E87F801
3EFA8084
3E59C6E7
BDB920A4
BE804342
BE20D509
3F37B832
BDD5D3CA
BDF084DC
BF3C24D4
3E7F38A7
BE3CC33B
3C9DB542
3E1F5126
BE1D0AA0
BE79C0D2
BD32AA1F
BB5308A6
3E86EF56
BE44528A
3EEF3A5B
BEC34371
BEC617F8
3D076778
BE452E32
3B9CE8AE
3E110B4F
3E55BF23
BD95EA27
3E358D13
3EEF4450
3DE05B3F
3E0DAF68
3E548167
BEFA137D
3E14B35D
3E0F925C
BEB7BD26
3EEC3B55
BD205027
3EC158E6
3EA6E7D4
BF5DD521
3E8AB46D
BD2848CF
3CDDCED8
BF33E732
BE92DE97
BF0B7EA5
3DAD853F
BE0CF2F7
3E15C900
BE0DE644
3ECE2194
BD372D94
3E743627
3EAF587C
3E733B92
BC1B69A8
3B237916
3EA63455
3D1FFCA2
3E7A8CE9
3E4BDE72
3E1DAC64
3ECF5C8B
BC7B4998
BEE1FCE0
3E57A3EC
BD23A719
3E24329F
3EB058B9
BECCCC20
BE6E46A8
BE93873F
3F05B7A4
BDCF1D8E
3F076C28
BA8F22C8
BD8775B0
3E1F71AD
3E575A3F
3EACC78A
BF36F511
BE290F8D
BE077B05
3E00C73F
3EA5A9EA
BE896EB3
3E13059D
3DA63C69
3C81AC02
3EA48C29
BEA317FA
3D75FB6F
3CE8E8AC
BE0E5AB4
BF0AC0F3
BEBDC334
3D2FDD4B
BE91BADC
3E984806
3D73A0C7
BEEE93A5
3E8AA52B
BD986BB7
3EB9B239
3E9D8A1E
BDA52995
3DF187E2
BEC04CD3
3DF4E8C3
3ECFD6FE
BF0D915F
BDD973C0
BE57BEAE
BDE12A59
3EE8A30E
BEF46C0C
BE1FB0DA
BED881C0
3DE16576
BDD4C4F5
3F0EB4CE
BE245F13
BE97F40B
BEFB6597
3DA1D081
3E98CAB0
BE08515D
BB5E46C8
BE255488
3EBAED39
3E6E13EF
BED01110
3E0DF251
BDC1030A
3E477D48
3D8487EE
BE10E474
3E95B01E
3DEB9BCA
3E16E2CE
BE0753A5
BE1C6F04
BB9EAB67
BE018A7F
BD06D511
BE94BCB5
BE5E0B03
3E284C11
3EE3C024
BC807454
3E576C22
3F11CF2E
3F07B433
3ED76072
BF46A7C6
3E01F448
3E914114
3D991601
BE08C6D3
3DCEBC41
3EF562F6
BEE9CF54
3CBB7AF0
3E2DFF93
BE7EE4E4
BE14FF85
3E1A2B7D
BEFEBE50
BE369B3B
3C0EEDCF
3CEA0E1B
BEC6EC42
3E8F28A6
3E7C200D
BE7C3B7C
BC149604
3EC58964
3CB0E5EC
BDFD4C77
3DA7479C
BE9780D4
BDDAA8DB
BBFBF519
BF2D31E7
3A0EA3F2
3DE8D472
BD9133E9
BE871E29
BF102847
3E82749C
3E90C23F
BD69D44A
BE7DF218
3EDA251E
BE8CB968
3EBF6A9E
3EB50911
BF1A3A2E
BE036EC2
BEE9BBDB
BDBBCA41
BE93EA25
3A9DD492
3DA3158F
BD46AC67
BE011BB1
BF079A20
3DAEBD56
BE31308A
3D94A2E2
3EEF32FC
3E269709
3E8E7028
BED38CB2
BCD01745
BE0AE68D
BF166949
BE7A55D6
3D45EB92
BE3EC43A
BDE65C0C
BC11C829
BD816C74
BE0F3022
BCB35075
3E45F8E0
BE2A13CE
3DEF7C09
BE4BD8D7
BE583523
3E59C258
BC041B6E
3E896443
3E9483C1
3D50E362
BEAF06AA
BEAB24C4
3D675788
3E093426
BED54BC1
3EAB4AFF
3F20A3F2
3EA56544
3DD7C063
3D2D1E16
3E0385E9
BEADFCDC
BE1C46BA
3ECDD43F
BF11DCAC
3E6EE117
BDE11E5C
BDB3693D
3DB0669D
3E21F4D6
BEE80D23
3D6024E1
BE9FF04A
BF31B9C7
3E3E3F4A
BE348A36
3A75C9F1
3DE82FE9
BD823FC5
BD3BD44C
BEF544A0
3BD231A6
BECB2E7D
3EA12B1E
3AC968BF
BCDF684B
3F041ED3
3DD3537B
BE7422FC
3ED0E039
3F24E60B
BF065ECE
BED2E6E4
3E824D24
BD2A81F7
BEB0955A
3EB25682
3EC7A33B
BED2AF14
3D2BA934
BD9574CB
3D0C4208
BC8F088C
3DCD6266
3E9A7B52
BE75D4CE
3EB04EAC
BE3E585E
3E700E90
3D1457A6
3E318916
BE6A546A
3E5DDECD
BEC866E1
3EEB2049
BF0E6B5F
BE3A2974
3EFB77CA
3C736A9B
BE056E14
3E38C50C
BDBDBDC1
3D4839A5
3C875DAD
BC2A461A
BE14223E
BE275F78
3D46A800
BDABAE56
3E484360
BE4E6BEC
3EC7123C
BE97AFA7
BF18915B
3EAE351D
BC05AEAB
BC3C4C16
BDB80608
3EBE9948
3E892A6D
3EA78358
3EBC1F9D
BE149B21
BED63EA2
3EB8DBFD
BF271841
BEA84BCA
3E433573
3DCC0414
3E474C14
3DC0011F
BDA77D6C
3EB9AAEF
3EA65721
BDBE30F2
BE74B31C
3E80BC3D
BE66109F
3E17CECD
BDB3D734
3DBB04F7
BE4AFAE6
BEBC0FC5
3E95D581
3EAE1D57
3EB94E81
3DEF2779
3DC60D80
3E980788
BE905AF4
3DE8DFD0
3DC44D58
BEB153C4
BEBD5DD6
3EA2C4F1
BED5F8A2
3E8DB33C
BBEE9DD8
BE5C220D
BE8DF062
BE8D8B05
3BFD8A04
3E1A0DC5
BE4FC2DF
3E55AFBD
3DBE965D
3ECCB176
3C8BEC58
BF1A3EC9
3E189667
3ECA4388
3ED79D89
3C413428
BDB97868
BEDF321B
3E645C13
3EF0ED39
3E4B37D9
3DD0AF07
BF221872
3E83CAB1
BED9C7E7
BD8C80C2
BDA03773
3E374662
3E313939
BE34E283
3E0F9922
3D2F8249
3E822544
BE2F586A
BD5C3EED
BE15BF51
3C864163
BE33B4A8
BEB22DCF
3EA57D85
3F16251A
BCFB8D85
BEDA370D
3E3A6C76
BB7BB065
3DE4C784
BEFD7893
BE0CA685
BE3BE8B4
BE2E7CD3
3E8320D9
3F3D29A7
3D7DE76F
3E4CDDBD
3DE9EFF1
3DB69A3F
BE9D0105
BE88F7A7
BEC28DD6
3F05F7C8
3BCC4DB6
BE0EF801
3D9BEF8E
3E409960
BECB2CDD
BE030890
3E82F2E8
3E27D20A
BDDAF1D8
BD9759EB
3E171A1A
BEB025E0
BE13C4C0
BE8B6A63
BD449B4B
3E5B5717
BD50534A
3EBB4AE3
BC1083DC
3F0E5019
3DF99E74
BE3B2101
BE22B2BF
BD793548
BDC6233A
BDEF77DE
BD69BD33
BEC31BD9
3E8C4E88
3E5308CA
BED9F0DF
BF030068
3E6BF43A
3EA31932
BF16ACE6
BDEC94B9
BE5D4E3F
3D51D085
3EC6B33F
3E266091
3D90BC1F
3EE82379
BD3F2940
3D22D199
3ED5E8DD
BED0D4F3
BE22D68B
BBBD8242
3EADB487
BCD06731
BD028EC9
BDAB1B8F
3D0CC129
BD949416
3EAE5278
BEA765B7
BE010A49
3C8ABE24
3E27A052
BDDAB85B
BD09ACE2
3D17EBD2
BBA9AC21
3D72C5BB
3E003880
BEC6E0B5
3EE63709
BDE28729
3E22AA89
BE81731F
BDC22A5E
BE5A43B9
3E6D97A3
BC7C20A2
BD7EF767
BE4D6529
3E64CC33
BDA74559
BC90B2E0
3E2F0CAF
BBA917E7
3F046D74
BE05B5CA
BE891B53
BE2B0B81
BDC1DEA9
BCBB8943
BE2A168A
3D850E51
BF1E83D8
BEC255A1
BE4D3FB6
BE91A91D
3E7CB44D
BEEBB719
3E7564F4
BD9E63F8
3E3D9F2F
3F056A43
3E7479F3
3EEFE353
BD8DF469
3D191E7A
BE3EA3C9
3E686855
3F151D5B
BE77126D
3E69994B
3E9BCC05
BEA1300D
BEBB82AC
3E950E0B
3E401043
3EB428B6
BD0BD843
3EAC963E
BEF7E529
3D7A2D7B
BDD4271D
3E57D44B
BECD49CB
BCD4DD42
3E5CF94E
BD3E5EE6
BC7BC04B
BE3BB696
3B02E44B
3E569DB4
BF048959
BEB6BFFA
3E1B3FD0
BDA726BC
BD159F1E
3E48DC8C
3F1BDD12
BF14B102
3DF0DF56
3C796CB3
BEAF15E7
BD478243
BE93CB6E
3DC7864D
BDB95A56
3EDBD734
3E4329B3
3E0E9692
BED3AF14
BD687710
3DD0FE75
3EA36C27
BEB1DAB1
BF1E6C87
BE42850E
BE94A344
BEE3A599
3E6D2038
BD37CED1
BDB49325
3DAFC775
BDE6A798
3EA87C7A
BEBCF5ED
BCB873A4
3EB3A83A
3E16F290
3E101CB7
3E54EE01
BE621984
BDD14758
BE8CC160
3CE351C4
BD2DEC8D
3E853E34
3E8560D6
3E1EF960
3EE01EAC
3E97B660
BBC576C2
3E072DF7
BE5B9962
3A7FCF84
3F23AC52
BE5C880F
3EDA3885
3F198862
3F0C4D29
3EB87259
3DF46C33
3CE2A6DE
BDF29BED
BE7BB168
3E311733
BEA952C9
BCD5EF25
BEDC9B0F
3F220514
3ED148F6
BDEC2B5B
3D37CCB3
BC86912F
3E47DA72
BF23475A
BE13C1C6
BE6E12C2
BEF42FFB
3D6D8846
BE9EDEB9
3DAA02BE
BF2D5EA1
BE8FF951
3D3B18C5
3EE05052
3EA26E54
BE0587CC
BDD26890
BC269119
BCBCBCF5
3E4BC654
BE9F7DCE
BDF47C5A
3F182EF1
BDF5DFD3
3EE057F5
3E14953A
BEAF957C
BE5942AB
BE3060C5
3DB694D3
BE4698B7
BE5530FD
BEBCC938
3ED535EA
3E147F66
3EBA552C
3F022FA3
3E3D91A5
BDE5E0E7
3D8EB880
3EBD6B1E
BE848C74
BEB81B04
BE5057B0
BE72E489
3E1A8502
BE798512
BDC0C814
3EAAC225
3F043000
BDE819EA
BD850AAC
BE88E6DB
BD082CA2
3E2254B2
3E26B6F8
BC6E1029
3DB1CDF5
3C90114B
BEFC77FC
BDF29378
3CF1D73E
3E7FB8E6
3D558AB1
3EE1A428
BE744E67
BC210BE9
BE62419F
BD4B4749
BE19A02A
BE735469
BE023C53
3E0CE1C0
3C176AA0
BE96C6CB
3EC1E4A8
BE9F49F3
BDF44CB6
BAC97B8A
3E1DEA29
BEBA2135
3D4921B5
BEE0F44D
3ECBEC72
BE631209
3EC9161C
BF84FFA8
3DBE6B5F
BDBC8E72
BE858A7C
3E588B81
BE15C5B0
3D8D76D4
BCDFCF33
3E565C25
BEB062F7
BDE2B166
BE8588BC
3E6E1321
BE1C81B4
3E6C810E
BF88404C
3D8779B5
BD939015
3E1C21F8
BD0FA049
BBE1D8CE
BE32BDDF
3F0A81C1
BEB00A7B
BE1F1A22
BE7FB0D6
BE24ED63
3EE1F12E
3CF4C122
3EA8DCB7
3E4C8CFF
3D9C81C2
BDF15644
BE0B31FC
3E27AE66
BEEB5D49
BD3F3D12
BCC00554
BEAA9183
BD553C8B
3EA01237
3ED4ED71
3D7F17E3
3E5F64EF
3EF3A02A
BE42D957
3EFB7A7F
3D173178
BDEFA9AE
3E841D1B
3E01A8E5
BB9849CE
BE053D34
3D266FB6
BD876E95
BBA0A1F7
BD8D9114
BDB8F099
BD9A4439
BE0419AA
3E821B0E
BE72548D
BDEF5C16
3F3B21A6
BE67DCDB
3DEB9B9B
3E78752C
BDC0D29D
BE3CF185
BE1D9116
BEDEAA7C
3C88877E
BBB6CEDF
3DD13EE1
3D32E6D0
3EA13181
BF2BFE7E
3E322837
3AC0CFE9
3E6F4777
BEA11675
BD89BE29
3CFEEE5D
BED5A8F5
3D249A46
BE502509
BEEBA241
3EC25DAB
3EB82FA8
3E8A7767
BEB12FE4
3CA79B3A
3DB539DE
BEF4A3E4
3E20DDCD
3EADC947
BD80886A
BDDAF7B6
BE2108D1
3DCF3103
3E667DD0
3F0843FC
3BA380F9
3DF8F48B
3E6386E1
BE6EEFA4
BE772DB3
BE2325F2
3E95B532
3F5ABB6F
BE4A8A27
3CD7F743
BE8750A7
3E199221
BDC7B041
BDC9F0D9
3D8086AA
3EB02ACC
BE96FC8A
BE74C303
BEA96FA1
BE9876C7
BD63A5F7
3E968D6F
BDC4B18E
3ED97D83
3EC36582
BE0E8E90
3CE1BC2D
BE521BF5
3E4F25BF
3E5C2871
BE2D4659
BE2A152A
BE434D7E
3DBB7AFC
BEC5367B
BE708942
3E6F6ED4
BE1A0316
3EAD5308
3CEE764B
BEC7C5D0
3E545566
BE67335E
3E0CB39A
BE8CEB9C
3E022B61
3D9ED2A1
BDBBFA07
3E6B012B
BD85D234
BDD8CC3A
BF1B518D
3E9AFFE0
3EB82B0E
BE86839F
BADB6211
BDB23277
BE65191C
3DBCE941
3E0D8A30
BEC41116
BE27CBEE
BF1A9ED7
3ED401FC
3E998209
3EC5BB0F
BEA00430
BDE95F80
BCFB1900
3DB1B257
BE8100BC
3E8DBFF5
BDC7175D
3E518DB1
BE95775C
3DD7CAA5
BF419EA4
BE52DD28
BCBB6719
3B8F3740
3E530469
BDC735D0
BEDFFE51
BEB0CCDC
BE595366
BF5783FE
3EA23575
BF2BD47E
BE61F6E0
3E0105C7
BE34FBF8
BD3DFC8D
BE625360
BEE25E13
BE587C49
BE5FD007
BEA3AEC0
BF10CAE6
BDD4505F
BE73D86F
3E29F9E9
BBBF1B74
3E7A1442
BD5F3619
3DA74542
BCC4B6B4
3EAB8642
BCF49CE0
BEA2C1ED
BDEF39B7
3C141CED
BC20ED40
BD171578
BE9313DA
3E212CB8
BC4502F4
3EEF9EB5
3E88207B
BE1142DF
BE90F601
BE9889ED
3E20DAF9
3DFDD174
BE9615AB
BDD40486
BEE9C574
BE876150
3E51A4FD
3EA937A2
3E8B0E7A
BE83D61F
3E2197FF
3D44D38F
3C1C65D2
3E5F4C76
BF428135
BE5730D6
BE1EA211
3ED4DFEA
BCC4FB82
BEFA757F
3DD72EE2
3EAB740D
BEA98795
3E9B1981
3E9A02E3
BF098F04
BDF20916
BE3D5E7F
3D6FE3EE
BE067ABE
3E5B0B75
BE3648F5
3E80CB91
3DD6C20E
BE27FC22
BF02D1BC
3E3AD435
BE724E57
BE3FA128
3D7BD3AB
BE454C0E
3E3719D1
3E2D002D
BE31BA8D
3DB5A77C
3E270313
BEB1BB03
BE4A6100
BE9D8D85
3DD36125
3E406CF5
3E18608B
BD2260DB
3DE9130C
BEA60678
3E610B2B
3E800CE2
BEA2D81C
BDA0988D
3E5A3C41
3A39B1E8
BEE50E4A
3E95BEE8
3D8B22D0
3EB342CB
3DBCEE90
BEF30F63
BD3B8F60
BEC33859
3E921F8A
BEA0738A
3ED0B769
3ED51864
3E315016
BE98C5B5
3DD46257
3DAB9374
BE80A30B
BF1E29A0
3E7E278D
3EAEAFEA
3ECD3A65
3D19DBB9
BE3FE01F
BE190434
3E816E0B
3D134BF8
3E50FF11
3E5DBC7A
BEF79770
3ED0294E
BEEC3E76
BDA98578
BE3136A5
BE774B86
BDF0B600
3E26C119
3C14E9B2
BD522FF6
3E53D74E
BE26B975
BE4C239B
BE0E68DE
3D985FA5
3E85A34D
3C89785F
BD7BAA58
BE2D465B
BD6E6E83
BEEAF3AC
BB536090
3F60A3B8
3E52AC02
BDA1FDAA
BDA7667A
3D9C57BE
BE4665D0
BF35FD7F
BE7CA218
3E101E70
3D9345E9
BDC58522
BD263D9C
BD3B040D
3DA91F99
BE4059B5
3D0677B9
BE35F7F4
BE9581FB
3E8C37EF
BD5B3CBF
3E7FB7C4
BD950626
3D86212A
3E19D79D
3E5CC7CC
3E992766
3E8CB011
BE2EE78F
BE05DF2C
B9A7F8AD
BED9C560
BD725941
BDFC253E
3E08CC10
BE94C4FC
BD0A219A
BF03724D
3E39A8F7
3EF381B0
3F08AE34
3CFEAE1B
3E402585
BD761401
BE3311D7
3D904461
BD88B016
3EC745DE
BEFAF7C8
BE872EBA
BE4EB863
3EE87C0A
3D9DBDC1
3EC1E026
3F13DF2C
3EB2A172
3F0D99D0
3EF530F9
3DD6CB12
BE1BC43A
3E1CB8D3
3DFE1C6E
3E251E06
3D2F26E7
BD802993
BE93B58C
3E8AE34E
3E98C250
3EE645DE
BD8147DE
BF02E1D2
BE796896
3EA8B9B0
BE92E56C
3ED5ED81
BF128908
3E1AB69E
3ECBF987
BD2612A9
3E150E0A
BE2F3378
BEB45D1C
3E88D00F
3E97DE7E
BE09B003
3E9AFB41
3D9EE241
BEA1DC5D
3F1E20FF
BE99F48A
BEB68696
BEA338C9
3EA2DD4B
3DC9690A
BEBF466E
3EA0A168
BCB80FC7
BE80B69B
3DDC8A38
BEA7C712
3E81256D
3D9F2569
BE75F4D2
3E1C3743
BC33A1E3
3D9092F0
BE93A277
3C02A373
3E46E44C
3DD55EAA
3E8D040C
BE093C7D
BEFA7FD1
3DF6494F
3E13D9F8
BF11B648
3F38B4D2
3C7B4BBB
BF2C506D
BE4AA61D
BC526862
3E8D9C0E
3E26BEA0
BE2A6D2F
BE149BD8
3E83830D
BE5D2932
BE3B6495
BE95DE64
3EE8662B
BD94A3F3
BE802288
BE434A29
3ED7485C
BD72D53D
3DB14762
BDBA2314
3D09E7C0
BE835289
BE9E4925
3D8826C3
BE2588DA
BE5622EB
BE3B0A12
BE559DD9
BDE77C03
BE9A25C6
BE85941D
3EBF80E5
BE98AFBE
3E7C991F
3EB589D6
BEB2EC2C
3E98B342
BEEB677F
BDDD9A1E
BEE63C5B
BDED95F8
3C8A8D98
3E845658
BF0E98AF
3EA51C23
3D8B5359
3F024297
BDEC6D4D
3EBEB4B4
3E0B371B
3E3D78F9
3DD119B7
B8CA0A25
3EECBF67
BD5A1072
3E9E503C
3E596220
BE8854B2
3EB5C4A3
BF6E7FBF
3E03E68B
3E66FF5D
BE7D4580
3EEF0FE9
3D1456CF
BEB58827
BEFF3ECD
BDDC69EB
3ED6E7DC
3E6348F2
BEBA6B88
BD788B11
3DA4A7C8
BD9977D2
BDF14750
BE18E4F9
3EDD5721
BC2CB41E
3E99B24D
BEDB9602
3C00EF49
BEF2B55B
BE91ABBA
3E54848B
BEA475A1
3CAF5741
BD72234E
BEB485A6
3E2B81FC
BEC84091
BE24EDA7
BEE409AA
BEA86CD5
3DAAE7BF
3EC8FCA3
3E03973A
3D843431
3DE495C8
BDDC5E1F
3F00A395
BD8EEEAC
3CD61CDD
3E403AF5
BD8C0C41
BE8640F0
3C9F029F
BE08DC98
BED1D94E
BE0487A9
BD0F7724
3DB9F306
BE99076A
3E8E2C61
3F369424
3EB79D36
BEAFB9E8
BEA19889
BE89A705
3F08E4D4
3E17E487
BDDCB732
3E41FE66
BEDB8D94
3F1A093C
BE2E5F2E
BEC50CD6
3F17A499
3EC62498
3DF632DB
BD7CA316
3C2E2989
3D835B64
3E323691
BDF4E9A5
BE856E2D
BE4BC5FF
3E9FC288
BC0A43B1
3D64892C
BD9EB602
BEEA32B0
3D8D82D9
BBCD4731
BE53FCA6
BD84FE92
3E79F59F
3D89AAFA
3CEA8ED5
3E3BE108
BDA4876D
3DF983D6
3E9ED86B
3E267BEF
3EAB159D
3E895940
BBA4AEF6
BEA1F19E
3D7175EF
BDF9A312
3EEF0146
3E24E025
3D55F0D5
BE159E60
BD6ACD59
BD1F9227
3D63A600
3CA0E38A
BC381FE2
3F28DBCA
3F337BBB
3E1AE54C
BC38BAA7
3DD000FC
3EBB2829
3EA1CE9E
3CFF43F3
BF109ABF
3E465FCD
3E7F714D
BE542FD6
3E42AA03
3E069FAD
BD456B6A
BE7E1FE9
BEED36AC
3CD59D30
3DAD96E3
3E93608F
3E15C807
3DA2F317
3D8D2A88
BD6DAB49
3E64A1B3
3E101CFA
3EA9451A
3DDF1D52
BDCCC3B1
3DFB5C14
3CD97D44
3D2A74CE
3CFAB563
3EBD2B2B
BE7DC691
3DA1E264
BEB0C479
3DF82BD5
3E6FA1B0
BCB22C38
3CC3DE31
BDADA53B
3EDE2D96
BE8A2C54
BD30A05C
3D2A32F4
3E413F7B
BF3D94A8
3D177804
BE154109
3DDFA88C
3E3425F1
3DA34246
3EA0C87D
BD6BA76E
3DF75FC0
BE6ED376
3E514C1C
BD6B38FE
BF006F86
BEA0D6E3
BDCECE07
3DF5D480
BE079E48
3F256CB8
BE75AD58
3DFD1988
3E5186DD
BE3F6348
3DADC66A
BBFE2DD8
BEE5A7F1
BEDFD4C8
3DEE9743
3D7A243E
BDA4E6C5
BDB69F1D
3E2148BB
3D838543
BE76B3CF
BE7AD328
3DC773AD
BF10324C
3EEF29C9
3D6E7BC6
3E93C032
BECF4939
BE6D8E90
3E871463
3F1055A4
BDDF7C2F
BEADA743
BF013379
3E0B9EFD
3E2762AB
BE1752C4
BE6BE62A
3F0279A4
3EA28331
3DD8528E
3EAF5299
BE0016F3
BE4365A6
3D04B1F1
3E3D9A35
3D6EE4AD
3E8E58DF
BE28EA75
3C99F1E4
BEA27062
3DDCB5B3
3E154921
BEAC0FFD
3D60B146
BE20524D
3E8F4297
BD2E5BB6
BECA76E9
3EAFBB0A
3B3346BF
BC7D0CFC
BE705C66
3E3A5FBD
BEB974F0
BEA14BC4
3E80688C
BDEB943C
3E5714D6
3E88D38A
BE923B28
3E6D4E3B
BCF67BFD
BD8A9085
BDCAA532
BE3E2A91
BE9A9D62
BEF0209D
BE75C6D1
BE3F752F
BE944DF0
3E518030
BCF29B13
BEB162B1
3E2E6B60
3E5B9D37
BE527913
3DF0E126
3DF2CB26
3EC00DD0
3EFECB03
3E907BD5
3C9C4642
3ED6B45A
3EFC7D4C
3DD51014
3D06C353
3C9864C1
BDDA692E
3F2203EE
BEEE96D9
BE2B1AA0
3D9CEBB2
3EC06318
3E816812
3F040660
3DEB6B4A
BF082448
3E324133
BEA1AD31
BDD7962B
3E26F7BD
3E5BE731
3EFD46CA
BDECCF78
BDC0F2E7
BE399994
3DD9ECF5
3ECC6773
BE5019F4
3E67FCA9
3ED3B599
3DEFCD42
3E0A793C
BD83A02B
BDD22E28
BEE1E8B4
BE9299FB
BE18C295
3EA0863B
BD638818
3D8D4797
BE4F8903
3C8FDC26
BE0A6323
BCB6390D
BE02A7CD
BE16B6A0
3F7123A7
3C9A88E8
BD85B2F6
3E4717A4
3E69F97F
BD057E9F
BD87972D
3E48A5CB
BE276495
BCC89931
3DBE1622
3EDDDFF5
BDEF2181
BE4C75C6
3EC4C8FD
3DC8D8D0
BCBDFDF8
BE3BBAF7
3E6BCDE1
3E88C058
BB23AEC6
3CEE01B1
BD8E171D
BE145F54
3E743465
3F52E695
BF11CE6F
BEED2637
BE8E1735
3E5B982C
3E1A7665
BDAB9975
BE1ADB79
BE055636
BE0E60EA
BEAACB95
BC80C7F1
3E975A69
3E9841EA
3DBBCB42
3E842793
3EAEEBE3
3ECE6FB9
BDA7D6B2
BF1262DE
BC2A2F74
BC8AD4EB
3EF2E6D9
3C5D493C
3D13B99E
BE175734
3D427937
BE6AF67A
BE346476
BF431E6B
BEA18D03
BEC94893
BEC4DE33
3DA8503F
BD79B0D6
BDFF6053
BDFCF0E6
BE73EE56
3E2C23B0
BD64A366
3E8CA885
BDDE853C
BE441C4F
3EE40796
3D852F0B
BE2E6AD1
BE184B3B
3E64316F
BCCCE26C
3E73F08A
BE553026
3EAB5424
3DF50CE8
3EA52815
3D087D78
3E3986C3
3E13E54F
3E9CAAAB
3F0698FF
BCB691E8
3DC8E4D5
BEF68C14
BDEDB2EE
3D22D8CD
BE4C49AE
BE548832
BE7CB811
BDAC14EF
3D18E7E6
3E1856AC
3E8DB289
3E39925D
3DB3F935
BE8F15DA
BE36975C
BD999E0C
BE73F2B5
3E200E75
BDA9AF8F
BE999B15
3E2F685F
3EA991C8
3D90F495
BF02CFDB
3E7A9A4B
BEE98EE7
3EA94096
BCF3E651
3F0CECFA
3EF4587A
BDBFB089
BDC66699
3EBD974A
BEB238E3
BF0A2C4D
3C381880
BD4B8C6E
BECB9042
3EE66245
3BCB78FA
BDACD0F1
BE559F28
BF1E6BF8
BD726D30
BB8B2AC1
3E70A03A
BEBE6EEA
3D833F8C
3D084E22
BD82514A
BEEACA6A
3EFDB0CD
BDE41F45
3E333628
3DE5EF49
BEB872AE
3EE5E0A1
BEC5B760
3E498733
BD096762
3EB4F1E5
3DCDAD60
3EF99489
BA800C55
3EABDEEA
3DD8AF49
BF2E7248
3C8C743D
BE8579F0
3E7D8A7B
BD82263E
BC5B0A27
BE9F747D
3EB13E23
3ED5D7F7
3D3417D8
3ED422B8
BD7DB598
3D260D7E
3E80847A
3C713A75
3E5446A3
3E1BDC7B
3D8C250C
BD78005D
3E623CA2
BBC3A318
BE9D74DC
BB548426
3D504A96
3EBAB003
3C97AB9E
3E9B1422
BE32D6D3
3E133234
3E8DBD1E
3E0B5959
BE2F3455
3E201889
3EC22590
3EEA56A8
BE6F7BD4
3C19FCD6
3F021E08
BD6E6813
3E70E0F7
3E88BAB2
3D4474ED
BDF6BE61
BE4582A6
BF1EABCF
BE487A14
3E9F8A18
3C8F62BF
3E4B82EC
BDFD7C55
3E2881C5
3EB0CA2D
3E32E41E
3E7469B1
BEE48B2F
3C72E423
BF3999EF
BCC432C5
BED01A07
BE4156F4
BDCD17B6
3B8B25B8
3E46C180
BE81B548
BE92F242
3E4A5A59
3E7F00D2
BE346598
BEAAD232
3E7DC5EE
BE2D9EC6
3DB41EF4
3EB3C442
3D1D5D5B
3E12A277
3D7AD27F
3E122CD6
3E10CFF4
BF306419
BE4FFDBF
3DC59735
3F311AA8
BE521624
BEC2F4C5
BE9E8669
BEEB61DB
BE856EE7
3E320972
3D4E3AD1
BEB0D9A9
BE3850EB
3E5F1F10
BD88C0D3
3E1AE60C
BE7AB17F
BF3A6B4B
3D27FCA9
BD1DD878
3D6F9FB8
BEEDE965
3C78E94B
BE1C9B1B
BF291A91
3E482FFC
BE91CB76
3C7983F0
3D71F1DA
BE22A4D5
BE276EA9
BE2EE69C
3E3EA12D
3EBC4D35
3C8E710C
3EBF2DCE
3E8BB603
3E1E79A1
3E2A91E8
3E252A03
3EEF5811
3E8216FB
BE3682AB
3E3C8858
3E0EFBAF
3DE4CFBC
3D8A1CB9
BE41DFCD
3E63EFA8
3DCDF20F
BEEA0D43
BF359C7D
3E565FA4
3E8FD592
3E85B8A3
BDDA64C6
3EEEB413
BE27C259
3D0DA0AD
BE506A89
3F06D3E8
3EBFA882
3D5693FB
BE84A7DA
3EBCD55E
3ED01531
BECF30BB
BC8EE658
BEEFF085
3DCC4A65
BEAF3FA2
BD995A60
3DDC756D
BAD96A6A
3EB511C9
3DC0ECA9
3DF004DE
3E3C8890
BDF45D61
3E83CD75
3D73A107
BC890DA0
BE834D6C
3E9D0DCF
BEA6FF01
3E5D065B
BE55CDE5
BE34AF58
BE03DFF3
3EDA9B15
BF06B80B
3DECF90E
BE19B435
BE048FA4
BDC14FB9
3E496776
3EA77813
3EDAC6AA
BD433A44
3D02F5A1
BF4BE0BB
BBDA2F61
BBBBFFCB
BECF5C9A
3E005072
BE2FE54F
BE3172EE
3E7D82AB
BE474BF2
BD966AA2
3EEFF8E0
3E762352
BE00AC9A
3F0A83E9
BD7BC66D
BF11901C
3D83AB22
BCD25222
BDC37A7A
BEB453CF
BD96521B
BF025645
BDA2C2E0
BCB6B020
3E199787
BE92D070
3D28A4A2
BEF0F87C
3E595F41
3E9FD72E
BF29C26D
BE20007E
BE4484F4
BE81850E
3E4867C5
3D979044
3ED5D5CD
3EAB464C
3DF3F3B3
3EB838A3
BE62A5A1
3ED4A2B6
BF05ECE1
BDF41454
3D88E37A
3DDCAC18
3E82EF44
BEE2F473
BE138200
3E66C0AE
BEC3074D
3DB0391C
3F1E4EAE
BEBC4E80
3E4B24AF
BE1D1147
BDD5828F
3E4E74E0
BE4FA30B
3EC85047
3EFA7B19
3E3171CA
3E3E294F
BE2187C7
BEE5557A
3DCBA0BC
BEA78713
BEF7A914
3C1A6AF0
BF17309D
BD0E99DF
BDE30AA5
3D060C19
3EBECC4C
3DE3D846
3E3579CC
BE2B6245
3DBA159C
BE251DA7
BF039E27
BE8211AE
BD3BBA05
BC4F9081
BE5C3CC7
BE2DE30B
BD9E8A3F
BD68640D
BE2CCE2D
BD49FA98
BE72AE80
3ED79D6C
BEF6E63F
3E1D54AF
3EF39A91
BD8952C2
BE0573B0
BEC54999
3DAA5B13
3EFC8EE5
BEE5592E
BE49E64D
BE151F7E
BE99380C
3D8443BE
3DA19B2E
BDAD2564
BD80EC0E
BDD7F737
3D642A09
BD2C8D3F
3A618266
3DAB7F94
3E85547F
BC0E045A
3EC94EB7
3DBFA9E7
BDF73C4D
BDC0ABBF
BD231FB2
BE1F2705
3E28AF7C
3E3C2135
BEB417D6
BD612E6E
3ECA28BF
3EC0D592
3E86BCDB
BECBBB0A
BE6D7F79
BD6A2560
3DA7C7BD
3F14A2BA
BE4284D7
3E87692C
3CA050D8
BB9E2A38
BEC2FD9A
BE653F22
3D59622C
BEF521D1
3ED9D574
BE9976BF
3EB327D3
3D4CEA14
3ED25AC9
3E158434
BE315632
3E60433D
BE82A1FC
BEFB1F3C
BCA8658F
BF759D28
BE91A509
BE00F19A
3EC2BBBC
3EC27677
3EB78108
3E8CD51B
3EF33B04
3E101C4E
3BCB0F32
3DDFD128
BE602030
3F088835
BD80429C
3E49657B
3EA3DDF3
3EBABE43
3D8B88BD
BDF009B6
BD96632A
3DC19A43
BE44EC51
BE8399BF
3E585F97
BE8BF6EA
3E3C10C1
3D53F1B7
3ED3CD59
BDD5DF39
BDE6B8A5
BCA7B0E9
BE1429FC
3E4D86E0
BE114166
3EC18B7D
3EB950ED
BE66172C
BE355747
3E0F787A
3E474927
BEA67C76
3F08E17C
3C8DA37C
BDB6334E
3DF3575A
3DF0CDE5
3E84442A
3CCA886F
3E90F80D
BED856B5
BEA8D6D8
3BF23F22
3E43D339
BD19D587
3EBBDD73
BEC11D45
3E077CE7
3E8881B4
3E814374
BD892586
3F0FA9DB
BEB07CB2
3C40FB28
BD029727
3E10019C
3EDEA40D
3EC0C7D9
3EA3AC09
3E9C3134
3DA8F877
BEC01D46
3D78E59A
BEE02215
BD1236F4
BD640106
BDEA0D59
3E659031
3E97DA44
3E88ED6C
3DABED9F
BDDA4330
BEDCAE71
3E47F1E3
BE3944E7
3EFEF940
3D2A1A90
BD52DD25
BE6162F9
3E10AC04
3E3C1BBE
BCD2EDA9
3E00FEED
3E02EFB7
3E45189C
3E8CED06
3DD68D63
3E67BEA3
BDEA9890
BE8FB628
BD3F2A25
BE152267
BED0ABFD
3E2F994B
3E30C2D7
3BA5957B
3C8F25A8
BD6143CD
3D870762
BE33A30B
3EFF82D9
BE19586B
3D0DCED5
3EC1FB7F
BD8F37CE
3E7316CE
BCE15443
BDCEEF0D
BC882AF2
3CBCEC09
3E33C76D
BE6C00CD
3D2BAA00
BE5E9585
BEBE074C
3F1D05DE
BC20D4CC
BD2955A2
3E3CF041
BDB7ACBD
BEA3CB10
BF271EAC
3D72A920
BE48F7F5
BE82EB39
BE89F702
3DC779A5
BE216B04
BE534AA6
3D8F7351
BD92AB7A
BEA16677
BE4B27F0
BED3E6C1
3E81DA17
3D9FBCE7
3ED1360E
BE5B47E2
3E8481F8
3ED5C59B
BE11BEEF
3E9CF992
3E8359FD
3E233C3F
3BE17F36
3DDDD2EF
BF099511
BE0D3F77
3E98596C
3E9125F8
3D16308E
BEABEA21
3ED4F47B
BE09B6BE
BF00A0A5
3E51876B
3CBE2CE7
BE1C4C2D
BE616AFD
BE6656FB
BD957E86
3E912843
BE4FA37E
BF32BBDA
3E08C4C9
BE50DAA5
BDD85CD9
3EA78C61
BDD07EBF
BD57036F
BEED7AAA
BE995684
BECE9BF1
BE12234C
3E37D81B
BE73E575
BE175862
BE6B8A5F
BDD9FC76
BEF8B375
BD22AD8F
BE19F0B1
3D43CFB3
3EE768A3
3EC2DCC4
3E73EB20
BF0AD200
BCA6F1FD
3E7F2371
BE8E34DA
3EF44949
BCE87956
BECBF119
BEB20545
BDB807F0
3ED46D03
BEFA0581
BD449E96
BE7A4C11
3DE2A641
3DE129C4
BD11E6B8
3C891EB2
BF0FA3F9
3EA753F4
BCCF33D5
BE63D357
BE85586E
BE5074CF
3F06365F
3E8B54F9
BE822EE2
BA53054B
3DFDE7D6
BD0D5157
BEA1B567
3D946B5C
3EA578A2
3ED2EC64
BD78433B
3D830EC4
BD28721C
3E8490C3
3F04D06B
3DB35D3F
3EF3EBE3
3E531BF5
BF55A47F
3E2586DB
BEE8B10C
BD2AA66F
BDCFF035
BE444936
BED03359
3D8A247D
BE9329F9
3C17538E
BF1708AC
BEBA584E
BEFBB3FF
BD94C53B
3DEAF98F
3EE3C639
3D2EA5FE
3C6FD07D
3DEE2284
BAF3D2A0
BDF02210
BCCF4649
3E874757
BEC6CFDD
3D232EA4
BE94EAD2
BEDC82FE
BE7F280B
3E619E21
3E52D58D
BC45F314
BA74E3C2
BE60ECD8
3EB12DC5
3E43D19E
3F0452AB
3EB729B5
BEBAA9C1
3EDAEEE3
BEA31873
3E296933
3DCEC6E5
3E0D3E5D
3E43ACF1
BE83DA4E
3DA3049D
3EEBA8DC
3F372EDC
3B0D1278
3D19F53F
BEE480D4
3F0D0C7E
3E6DBD87
3E10DD56
3C4D3588
3F1405A1
3DF3C4B7
BDC3474E
BCB1D418
BD97BD7A
BC6FA7CE
3A3C1295
3D5FBB9D
3BBE614F
3E85D3EC
3EBCE5C5
3D492911
3E0A8E32
3DEBF34B
BE8070F3
BEB47128
3E2FA007
3E38F8DA
3EA2832F
BE543C44
3C9E3FD1
BE41E4C6
3E4C8227
3F0CB991
3CA8547D
3E95E6CA
BE62F6D1
3D8FB1AF
BE101068
BD9426FE
BEBC7197
3D865ADA
3E8A3D94
BD5C01EC
BDCF81FD
BD501102
3EAF3E87
3D32A247
3F02BE07
BDAFFE09
BF1C4766
BE4546A6
BDB67036
BCC741CE
3F19A7D8
3F4107A7
BDBD3EF9
BDD41AEA
BEE097DD
3EEB9DD2
3D6EB1CC
3E40B458
BEF23161
3EC5D022
3E830870
3EA752F7
BDB60F8B
3EC91AD6
BDA8B4A5
BE7CE549
BC88E48B
BE9EE5B4
3F5335BD
BEC2D591
3E8AA540
3D166377
BD604FC1
3E3C89A8
3E7C699D
3D81ED7C
3E37E5ED
BDB77815
3CD30E6A
3D13FB0C
3DCF626D
3D4CA25D
3EB9B0F6
3C504DB6
BF0CFD6D
BF0A0F3C
3F34A0AC
3E3C1593
3DA30CEB
BE6C1246
BEBB833C
BECEC312
3DE07B55
3E5179D4
3DD3899A
BC1002ED
3E1FA258
BB8EE39E
3CCC88B5
BE99A2EF
BDACDCCD
3E048DC0
3EC22219
BF03CB34
BDEFF997
3E88FDE1
3EAA9DA6
BDE3AD1C
3E8D5921
BD34862C
3DF01663
3E902F06
BDF17972
3D72D13B
3EB7DD16
3F2EA709
BF1FF931
BEC1A1B7
BEDD3307
3E7781B1
BDADDBE6
BF26F46D
BDF20364
BEF3FE43
3DF4D1D4
BE8B025D
3E85308F
BE9728B5
BE01D746
BF0271DA
3E1912AE
3F3DA0E4
3E7832B5
BEE14B3A
3DC7202C
3F2221A0
3D6189B8
BE92AC9D
BCB8B17D
3E4719C1
BE6533F5
3D858D7F
3D4F9412
3E32F70C
BE64324B
3D8D9E84
3E1864A0
3DF7A048
3E01EB6E
3E4DB1CF
BD7F770E
BD17DD97
BE4DF1DF
3E58888A
BE322F5F
3DF0EC7A
3F6879E5
BDA6318B
BE5775E5
3D9CE7BD
BE19C5AE
3E0D69E0
BE4D3A90
BDD16F15
BEE77871
BE60FE1C
3E82692E
BC88F949
3D0E66EE
3E048F29
3DBC2CF7
3A593D1E
3F13BB88
3EA5C160
BD82BED6
BE6DFE07
BDFDF433
BDE362DC
3ECD727B
BE00FEA6
3EBF00A1
BE674AAA
3E270817
3DEDE7B3
3CD2B442
BE66B5AB
3EC81ADB
3F22DD1F
BD3460E3
BD8A6155
BD98E44C
3E6BA4E1
3ED559C5
3E860748
3C14B6C6
3F1743AA
3F0AECE7
3EDC2924
BF0CF1BE
3E85C56F
3F056B2D
3EBE2FEE
BE62E077
3DB074BC
3E2775C2
3E86A892
BEAC43E0
3DEB04D1
BE2E3C6D
3DA0869E
3CEE8A21
BF19748F
BF40ED14
BE438C75
3E11B17F
3ECF89EC
BE81B7F1
BE82875B
BD6EE4D2
BE13AE85
BE967F5D
BE86FE95
3EF88DC3
BE91A1B3
3E85953E
BF020175
BC45D54C
3EAFBBA1
BEC1BD0C
BEF314B3
BC8FB62B
BE64C3FC
BDE0ADB6
BE543FFB
3E631D73
3E21F389
3DE422DF
3F116E9F
3E0D9374
BD64CCBE
3E3F4E87
3C4F2BCD
BCE99F0B
3DA84C16
3DB9976A
BEB7932A
3E2E617A
BDA41F93
3E1C066A
3E6756D2
BE112E64
BDB8E0DD
3E82EF15
3D79959B
3EAB9FF9
BCFFBC69
BEA6E0D5
BED2BF13
3F3B4460
3ECE5163
BE6C29D3
BE0F1877
3DF3DC30
3E8A6541
3E93E494
3E6C3D5D
BDFB9315
BEFE806A
3F147A53
BC03A82B
BE837048
3E92FF14
BDB1FA62
3F2C6F51
3E22673E
3E73A709
BF2A55F8
BE7A5B4B
BE79E85C
BE1FAB96
3EABCFB8
3E6CC8B6
3DDDC432
BDB6B092
3D7B6A5F
BEBFF7AA
3F06A317
3ECDDC02
3E049FFC
BEF8DD2A
BEEAF5FB
BEC7CAA8
3EA6D9E9
BE11D893
3EA20689
3E9DBB85
3ECFAAA2
BEB07CD6
BE85BF4B
3DB8A093
3EA78DA1
BC3379C0
BCA29B35
3E6CD0C1
3F0439BF
BE0C89D1
3ECF47CB
3DDD29C3
BE7A6ED4
B88FF830
3D97289B
BE413C72
BE562BA8
3ED59082
BE9DA6CC
BE0FE72D
3DDF12AC
3E78DD0C
BE07E8A9
BEAB6BBA
BED29517
BE942EE9
3D79BD7E
BE038215
BD9D7D7C
BD3E8D9A
BEABAA3D
BEAF399B
3DA36263
3E087ECD
3E2C93E1
3E90A168
3E95063F
BE75562A
BE2ABD95
BEAB32DA
BF4934FF
3E074B1F
BE4D4A35
BE9661BE
BDFA27D2
BE1E565C
3C55856E
BEA30D7B
3D2A4688
BED3A84B
BE6CE0C3
BE8B84ED
BE909A72
BE0044D8
3E0D61D9
BDCEE65A
BE41F094
BE208056
3E32DE5B
BE277E86
BECDE9CA
3BCE9EDF
BF01083E
3E9C4BE8
3DD8709D
BF36FC7E
BE35EAE8
BF390D88
BE013470
3D98B612
BE909ACE
BE495C5D
3E89DE01
BE9A26C0
BC77CF5A
3E5CE3C5
BEB35EC1
3EB4D182
BE205FF7
3E42D434
BDA9DCC4
3DBAFB81
BD36C00B
BEA00EE1
BCBFF137
BE2E9F4B
BEADABEE
3DA06C60
BE3B771D
BD8D4187
BE53AB71
BE6645EF
BD153185
3EB65861
3EA1303C
3E200519
BEE98AF5
BD9D0335
BD4586C8
BE99DF68
3E5B453E
BDADD517
3D8E1CA7
BE9C752C
BF1F7018
3DD511C0
BE18C61F
BDA72D30
3EBD6AEB
BEB16D27
3CEE6AA2
BE726035
3DFB0311
BE22CD2A
3D114939
3E026B4F
BE60C336
3E8A4766
3ED609CE
3E6FE99E
BEDFC4FA
BD6616D3
BDC46615
BE203B7C
3E30EB6E
BEB4678B
3E113A93
BECC683E
3CD5C6C6
BEF8C0B5
BD138233
BF3EEE29
3D98F39F
3F2B2934
3F471B19
3EC1E361
3E2A3F6C
BE6929D8
BDFBF9CC
BE717177
BF081B35
3E9A9481
BE7B2247
BDF46955
BE5B58F5
3EA6516A
3EE72C6F
3DCDE5C1
3EE36C54
BD596C0A
BE7F2B23
3E94D4BB
3E25653A
BDFD8A1C
BF25FBA6
3D94A323
BD9E7A2E
3EAAF706
BEF03074
BE5CB653
3E910A52
3E8F7F76
3D0B7E38
BD8D3DD7
BDDA30AF
BF14E1F3
3E67A975
BDE5D9F7
3E255225
BE127F96
BEAB308E
BCBD2F81
3EDAF90A
BDC84257
3ED64203
3E41E2BE
3DD2A3AA
3EEC9325
BCDE5261
BD055D57
BEBB7544
3DF8E434
BE8018E7
BCBCC289
3DABE028
3EC4602D
3E83EAC9
BEDC7E0F
BE42DE37
3EE9A827
3DCC661E
BE9D3A61
BEC9DB78
3E440498
BE559BEF
3E653E3C
3E8200C9
BF03D815
3EEA5721
BC66E511
BE54A194
3D198799
BE2E1B3E
BC080822
BE57836A
BE96B931
3CF37CE5
BE37C96E
BD4667B3
BDA11C0C
BEB64389
3E4583AA
BE47227C
3ED06B32
3E3CDCAB
BD540C87
BE92BA2D
3E6A158D
BE7AB84F
BE07EE21
BE18CCFA
BEB88331
BE68EC63
BEFDECA9
3E82BD55
3DA932B9
BE30BB26
3BBEB7E1
3C017988
BCE488EC
BDA2F929
BF04CE17
3E041B4E
BF2805FD
3E80A59F
BC491C54
3EE779CD
3CA41EF4
3F0C6BF7
3EC285E0
3EF169D8
3EA4E18B
3D4ABE92
BEE3D9BF
BEACA47C
3C833C1A
3E0BFA9E
BE6A06FF
3E94B21D
3E29E113
BD104AEE
3D50BBAA
3DD7AB02
3E55468C
3ECE2593
3D7EC146
BE144A42
3EA06C50
BC2866F2
3E80EF61
BD870D39
BD8788FF
3EB23B7D
BF0C04FC
3ECF7B9B
BE46E5E2
3DC78869
3EC9E047
BE6C9D18
3F0ABEE3
BDFB4CE8
3EF08645
3ECCDF73
3C785359
3DF1436C
3D89EC69
BD542B38
3EC3EBF7
3D0F589E
BEDD7D05
3D342229
3B99BCD5
BF3894DF
3EBC1C4B
BF66D6D6
BE191FE8
BE6B997C
BEC701A2
BDAA8A9D
3DD983FA
BEBA8DEC
3DBDA0B0
3F44118B
3BB670EB
3EB22D91
BF270ADA
BDB236BC
BDE51BD7
3E56643D
BE4E3426
3E93409B
3E1D7882
3E7242CE
BE90D242
BE84C147
3E9EEC5F
3E7BE170
BE2F789B
BE01E945
BE3D4497
BF5EA1CE
BE16491E
3D6B5081
BD891361
3E8747CB
3D0FDA43
BE85BD91
3CDC93C5
BDE09DE4
BE534894
BEEE778E
BCE52FFB
3D9218D2
BF62DDA2
BE0F2F1C
BD8995CF
3D910570
3D4BE2BF
BF32CEA6
3DEFEF67
BEE062AF
3EA23CF8
BE4B13E5
3E3F471B
BE0A934A
BE895D76
BD89B738
BDC45A5A
BEA4108B
3F00C10F
3DD8273C
3CBFD4E2
3E54024B
BE8547FE
3E931ACC
3EAEEDD5
BDD57D9E
3F0B36A3
3E121D07
BC4A5AC2
BF28F5F3
3CF419A3
BEA18D59
BEAABA04
3E75B6F4
3F00A9CB
BE0A5E80
3E1CF243
BCE44514
3D88B1BA
BD99ACF0
3EB745EF
3D08E597
3E572D4B
BCCB6122
3E683822
BF124E56
3D6607B1
BE375CA6
BEDAC299
BE8B1E5A
BD4C31B2
3E480C96
BE9276BF
BDEC4C76
3F2C1CC3
3E6C2F9D
3E50B5DA
3DEE06B5
3E1C35E7
BE0058FC
BE306E03
BD21526E
BD7DFA74
3DBD5D47
BD55798C
BD35A378
BE912DEB
3E02D298
3E4F0F20
BEC931C3
3EC50EAB
BE9790A1
3EC31DA2
BE677ABC
BDA86251
3E9E29A4
BED1EA87
BE407517
BE928DB5
3DE98B16
BE3699BE
BDB840AA
3CBC9369
BEE4DFEA
3D1329BB
BD911AE7
BE394486
BE035134
3E2ABB64
BE45AAEB
3B5CCEF8
BD75F786
3D8FD7DC
BDE88758
BE123B66
BE533A12
BE645422
3E657C6C
BDA2736A
3EBE8A93
BEBA88F3
3E9F79CA
BEB1DCCD
3DB7A4E8
BE9D5538
BDE664E7
3E0612CA
3D1CF173
3E095561
3E70ED88
3E8BCEFE
3F4C2F76
3F0221E9
3E427692
BE76259F
BDDD0761
BF0993E4
BEB481E8
BDD71C5B
3D2E93F2
BBEDFC9D
3D9F0DA0
BE1D0D94
BE96617D
3CE25B2F
3E0E1B70
BE7E0FBE
BE31DBA1
3EB54FCF
3C5761FC
BDD9F35D
BEEE2925
BE431AAF
3D85BDB5
3EC973EB
BD13E268
3EC53125
BD5CC147
BE80C4DF
BED5FD26
3E6333CF
3E95CCD2
3E554B47
3EA50573
3EBE84D6
BE93AA8D
BF057E84
BF282268
BE884E07
3EA2AC75
BEB95D22
BEC2682F
BE5AC9D8
BF46D0BF
3F00B562
3C245B14
3DB0309E
3E4D12FD
3D28DA09
3E45892D
3E5907F6
BD234F83
BE16E8A2
BE2B6CFC
BEC3676F
3D953398
3EF1B400
3CB052FF
BD9922F9
3EDB46A5
BDF9D68A
3ED097FF
BF06D5A8
3D8A8DDA
3E829D1C
3EA40CFC
BC11F3E9
3EAF1799
3B13D1AF
3CDAB492
3E7E3CC7
3ED5B2E4
BED17E31
3DAE1AE4
BE59E671
BE799133
3C9843FF
3DDE75C4
3D7E4AC1
BC9892FF
3D929F86
BDAE5719
3DBCDCBD
3DF48C2E
BEA01156
3D39FD0C
3D98D6FF
BDBB338C
3DB851BF
3E8FF289
3EA84469
3E323BA4
3E45EDBC
BE3764FA
BE2E56E9
BE24CFFD
BCF75C58
BE056E34
3D9E77EF
BE8683FF
3E65BC96
3E6E62C2
3E57BF78
BD43CE2B
BF410C63
3EB1BD56
3CB983EA
3EA5C202
BCE7D41F
BE8AE1BE
3E74BE40
3E2518EB
3DEFD6F5
BE3C1DF9
BD336609
BB0F2D04
BCB2788E
BE627A26
3E696EB4
3E1FE25E
BD50452A
3E50BDEA
BD9BD10D
BD555298
3E2EC950
BEB7AAC0
3E549CE9
BE5951A9
3CFE93FA
BDAF5AAD
3E8F6564
BE2E2617
3E4708DD
BCE26EAA
3E39EA74
3E958208
3DD0BD4A
BE73F3B2
3DE1476A
BE56B321
BE6D1FE5
BF16A348
3DA17374
3BFD1D62
BF5A3003
3E1D47AE
BE16E547
BD97EC66
BCE5A302
3EAAE8B5
3F2D9C2E
BE85826A
3DF63895
BF004240
BE177983
BEA77BDC
3EA8DD45
3E370AF5
3D2C4F4C
BE8194B6
3E373B68
3D7FCEF5
BF03754D
BD41E4AF
3DFCC5F1
BE45B1E7
BE6CBBB8
BE1174A1
3DEE9397
3C4674CF
3E760507
3E03524C
BF3A0FD6
BE19194F
3E831442
3EB28C52
3D90B75F
3BFE879A
BDE7026E
BCDD8DDA
BD00A725
BD6AB89B
BD7A83FD
3E76B4C3
BE97FDD8
3E64FD94
BD3D500D
3E4DAD82
BD3CE73C
3E28D465
3E6FACAF
3F1E59D9
3E261D37
BE1077C5
BDBD5121
3DC1C213
BC8E4974
3E57F06C
3D505400
BE631367
3E16ED3C
BE436BA8
3E89A7DA
3D9116D2
BDAB308D
3E1EBF16
3D657481
3D62D260
BD1C2AE1
BE9B45AD
3F080E2A
BF261493
BF1FEC7F
BD26C44D
3DAF6509
BC9D2855
3E9640FD
3E32F6DD
BEAC8F73
BDD33538
BE995978
3DD1EF79
3EA89F8D
3E6379DC
3D982218
BE7CE208
3DBEE059
BEB19D26
3D0D4DF1
BE9160A9
3E20598A
3ED4C926
BE790FFB
BDEC619F
3EA0F8F7
BEA390B9
BE1E399A
3DD1267D
3CA27D63
3DB152E0
BCDBA64F
3E57BCEA
BBAF39BF
3B49432A
BE066BE6
BE94612F
BCFB6424
3D725601
3E640698
BE2F9452
3EC5174A
BF62B53B
3EDCA5B7
3E88D4A3
3DE745F1
BE51CA72
BE1370B7
3ECC04E6
BF4B8161
BEFB30B8
BCA1F63F
3D694764
BDD0E6EC
3E5F347B
BE814BA9
3E01048E
3D7370F1
BEC605B3
BDF123AD
BD5AF394
3EDA848D
3D3CF4AB
3E1246EA
BA46878E
3E1670FF
3EB899D3
BE5DB291
BC2D13D5
3D4259B2
BE4B9402
3E981399
3D0B019E
3EA20950
3EC9C5B5
3F027280
BD665224
3E8EBB11
BF1AB8F6
3CB2AB3E
BD86E876
BE39BE0A
BD1AEA5C
3D5F8FD0
3F1C1ED4
BDCC71B8
BE55284D
3F27F23E
BE5A71E6
BD674628
BE1B169E
BEAC892E
3EF69404
BDCBB682
3E86BA7B
3E8B0D0A
3E4D84DC
BEC709EF
BE571D38
BE938444
3EC569C3
BDE83214
BE293C36
3D65EE34
BE23A349
3E01D057
BE11DBE4
3D25E895
3DBF77B9
3D811946
3EB27623
3DAE70EB
3DF24868
BC12259C
3CCC3DEC
BE47B315
BE5D46FB
3E97462D
BE82388D
3E6B4E3E
BE504F28
3F0DD222
3E8371BA
BEBC27D7
BE95E4E6
3E85D97F
3E79E714
3D923634
BF612F53
3F3F7C3F
3D70A402
BEA1A2D4
3DAA25E0
BD7B9B3F
BDED6351
BD9E382E
3E90667A
BD339990
BE878311
3E1E883E
BCDF3443
3E0C4EFA
3C88332A
BD0BE3F4
3EA91735
3D8D49A3
3DAC4C24
3DBA6D06
3DB877C7
3DC9A281
3D04C65B
BEB51897
BED51B3E
3EBDB5F9
3CDEAECD
3E9E9AB6
3ED9F17B
3C47E9EF
BE0E11A9
3F3B70DF
3F2CEA06
3EE2AC1B
3EDF6400
3E0D2D29
3E676316
3E85791D
BEC2D70D
BE81BF68
3DD739CF
BD3E1790
BD0F5DCC
BE007AE8
3D23FA0D
BE915D3A
BC838434
3EDC5927
3D042F42
3E365EDA
BDE91304
BDFE2E7B
BE818B63
BF72A0ED
3EB28F6B
3E3A9273
3E9097EF
BEBC375B
BEBD5BCB
3E452867
3EAEA337
3BA7E9E9
3DA5A5EC
BEB39715
BE27DAF9
3E9B7318
3C8E5D61
3E5EA81E
BE8FC7B7
3E5A35E3
3E487552
3E300ABF
BE759C67
3E39503C
3EA509BA
3E602AD7
3E35B045
3D8EFB24
BE863FD7
BE00DAE0
3DB3E2DE
BE5AA3B4
3E1326C7
BE5562F1
3C3C0EBA
BE8FC975
3DECDD3E
3CE75366
BE2FF191
3E3525D5
3E9A0D0A
BE981E98
BEA41A77
3E1BD368
3EDB06D8
3E851FB0
3E9FCF97
BD84459F
BF05688B
3DAF0A5E
3E9FCE70
BE9F7F6E
3E3E9352
3CAA0A5A
BED801DC
3D8F2C77
BEB7C582
BD9511E7
3E5FD78C
3D5F5637
BE8CE90E
BE75D403
BEA8B51E
3E1706B0
BE36F02A
3F02F0AB
3E590F57
BF09B17C
BF0395E5
3E0A9646
BE4042F5
3ECDF38C
3EB2D26F
3E133543
3DE56D0B
3E842612
3DD994D7
BE80DF84
BE6377B8
3E82ABD5
3E1FF1DC
3EB6B2ED
BE385B2F
BD36F339
BBD79984
BCD5BF75
3E044B65
3F3F0329
BD181D50
BF0DC491
BDAF23FA
3E9903BF
3ED1DA68
BEBF7B52
BE8EA38E
3E5A16C2
BEA7D4DF
3E844441
BD207670
BE89DA63
BC84FC39
BEB207D7
BD8FD0E2
3D3DAB27
3E7AC2AB
BDA78364
BE6D85EE
3C7F1AE8
BE585A68
BDB8E554
BEC12C48
3ECE8A73
3F045AE8
BDFFFB00
BE49C85C
3E0BED6F
3E5F1EE3
3DFB4548
3E995067
BE299C0C
3E431294
BCD5DD98
BD132CDE
3EAFDBAB
BED452A1
BE8F1693
BE4CF345
3ECBD8CE
BEC1DE4C
BD2D1B29
BBC10FD5
BE6AA3BD
3D9043D2
3EBC7A62
BC108970
3C41EB68
BE6CCB86
BEA840D4
BD908DD7
3DD8A50A
3EE22AEB
BEDD62EE
3E405DF4
3E8080D2
BE83EB57
BEC7AA6C
BEBD1F6A
3EAB1B27
BE47A31D
BE103DCC
BEF2DD63
BE9D963D
BE0A8319
3ED140D7
BF272D03
3DE351A4
BE1F3596
BE844818
BE58897F
3E7863A6
BE6E2B05
BDBE527E
BE1E92CE
3BFC9ADB
BDA13594
3DB35FC0
BF36CBC3
3D3731DB
3D620F77
3DF1FBF5
BE3F7CBB
BED15A53
3E5B040D
3E82122C
BD076DE8
3D8EF33B
3E4EE881
BE6C89DC
3F134F8F
3EC7A8E5
BEA5BBFB
3EE85C86
3E33B326
3ECEC923
BE4FFE9C
3E9FE34B
3E31AB33
BE29B25E
BEE89318
3F14446D
3E0DAA97
BDA1A53C
BE306475
BE6E3C65
3E8FEEBA
3C92D433
3EDF1952
BD8F90D6
BE11ADCC
BC24535C
3DD0502E
3E44B59A
BD163701
3F2E5944
BE694C11
3C89199A
BA958F9F
3E5B5C31
BD2F6734
3E3B78F3
3E0EDF57
3E9688BE
3D369919
BDCF7295
3F5E407D
BD656C36
BE648AA8
3EA82365
BE45FDB1
3E9651FB
BF0F1055
3E3E719F
BE5F0D9D
BCDB0C9B
3E46A34D
3E7C8EE3
3F001713
3E45368C
3E71984E
BC432767
3E15CD30
BE4B4C74
3E47A686
3E128151
3EF42B4E
BE98AF54
BEFEAABA
BE82065B
3D08A807
BE5F5A56
3F247145
3E91C4DD
BEEB507F
BDA81356
BD507348
3DC460AE
BEF9AB62
BE2C5E57
BE45A792
BEC20666
BC651C6F
3E0D39FB
BED4D6CA
BDC58FB2
BDBD60A4
3DB15022
BD89E4CC
BDE438BC
3E04AAE3
BD8ABE5F
3DE43503
3DF2A4E9
BC452B99
BE04E82E
3E137CA0
BF2F3B31
3E33BED1
BE491334
3ED293DE
BE19ECBA
3D2EC32F
BDFEFB4E
3F07BBB2
3DAB86F7
3D6BB75B
BE4866F1
BD37AAC2
BE7FB6CB
BEFFA9EA
3E19B7AA
3F011BE7
BCE5F0AA
3DFD98AB
BF1B73AC
BE155244
BE38A40E
3DE3AB2F
BE75E5EB
BE1EC927
3D175920
BE19125E
BF2135FA
3DA7114D
BEA77C7F
BE1D2865
BD962DFD
BE0652DC
BE16BA26
BE8269A7
BC92174A
3F24E8FD
BE74E3BF
BDCB5A92
3EEC3AA5
3C373622
BE36BE9D
3E1810C9
BF2591FE
3D9E3ABB
3EFFC1ED
BEA4A9E7
3EC84723
BE2A9CE0
BDC4E4FA
BEF1EDA8
BE2D8FA9
BEFD4D8A
3E51226E
BE593405
BCAECC87
BE9A9BF7
3EBF65A8
3EB21DA9
BF089FDF
3E38C590
BE82D2F3
3F0C19FC
3D9F6ACF
3E76EC1B
3E2AC065
3EF519F8
3E0AD17C
3E2A9FFA
3EB6AA5D
BDB0DAB0
BC375683
3DFEC041
BE37E622
BEBCB5DF
BEF5C86F
3CF7ECD1
3E1793B2
BE05E950
3E8BDB18
3E7DEB8E
BDE00C7A
BE823690
3EAF8B95
3E99EAD1
BBAC0F3D
BEBC6694
3D71E9DA
3F05C3FA
3E83E980
BDE76F9A
BE9EA7B6
BD317279
BD6F7881
BE485939
BEE9E719
3E8CDCF2
BE59DE76
BE944774
3F16F939
3D3B6284
3D7764D1
BEEC77C8
BE20A53C
3F0E94A7
BE6A88D9
BE25A0EA
3CCC0806
BF5F7356
BE4E1D0B
3B95C524
BEE77F8D
BD7E2BAA
BC595F17
3DF9FDC4
3F39CE5E
BDE60081
3E326F31
BE1858C9
3CCA5005
BE5965CC
3F007599
3E8389A9
3D7CC57B
BE33A16E
BD195704
3EAB750D
3F20B767
BE728EE1
3EB6DA74
3E2A525B
BE3EB306
BF1400A3
BE07DF7E
3E1AE5DE
3CDCD315
BECDED6C
BE10F646
BE04158A
BD98E854
BD60D5EE
3DB50A23
BDCD24A0
3E5DFCC7
3D080783
3E5CC5DF
BE000E62
BDA8D9EC
BD168A08
BED5102E
BEB9DCE9
BD178408
BE7BC372
3E7BDB27
BE639601
BE89B4F0
3E667759
BE86ED71
3E41F50C
3ECF2AFC
BD96831E
BE023751
3DFBE29C
3ED3A86D
3E74A0E9
BE3F9B3E
3D860697
3E9A60B9
3E99A9D2
BF02C841
BEA00939
3CC1560C
BF13D09D
3ECBD507
3E8821CF
3E899A8C
BD76433E
3E506F5C
BE930D76
3E99439F
BD27C39B
3D95136C
BED5278B
3CB8FAAE
3E974302
BDA84C06
3EEF1C2D
3DB54D4F
3D8620CE
3DEA8A7D
3E8F727A
3D2ACCE5
BF247C60
BE247DCE
BD64DD17
3E862916
3E543D82
3E427615
3E62F2E9
BD9CE420
BCE2FB07
BD7E7638
BE3360EE
BE3A794D
3E454DFD
3F30B530
BE91F152
BC9B9FB4
3E1A1B7B
3E3F1968
BE6EE903
3EE50055
3D1BA694
3D861E37
3B544DCB
3DAEF26F
3EB138B2
3E9885F4
3D84E631
BF0D0008
BF304347
3E42FD2B
3EFB7E91
BE910EEE
3D1D8E1B
3E09764C
3EA9E62A
3E18942A
BE08DE9A
3EC5ADF3
3EE8A973
3DFC5928
3EF530AB
BCD7E4C9
BE143017
3EE74051
3DA9FD77
3E9403A9
3F0ADD07
BD9237DD
BDA1E510
BD39C2E2
BE222F01
B9956151
BD914DBE
BF0B1563
BE5FDB79
3E5D1FC4
BD9ECEB2
BE1F81C2
BD4FDCDD
3D636A15
3E44F7B2
3E36D82E
BE9682FC
BD60C499
BED5CE2C
BD936E27
3E1DCADE
3DBAC679
3D8513C3
BD5CC36D
3E838E0B
BD1EC5EE
BDF4EFC2
3D154D14
3CA5C140
3C504222
BEE475FE
BE744C0B
3D23BE33
BEEB87B1
BF02717A
BEE76BC8
BE811D9D
BE27B9FF
3E44E3B1
3DD9DEA3
BE12D48C
3C8179D3
3E673156
3D706406
3E92CDB5
BD816D77
3EA11120
BCC56479
3ED3F6A2
BF8351D3
3C6C0191
3F10DEF0
BF156026
BD102504
3E881AC3
3E094287
3D8BA032
3E8EBBFB
BE3D3432
BDD03CC4
3DA39601
3F09C5B9
BE9A9015
3E41F299
3E39E12E
BE9EE030
BE6E0838
3A9CAF4E
BEF0F4BA
3EB1C2B9
BDF24D3F
BF07557A
BE8B7A1E
BEDD19F7
3C8A89FC
3CA415B9
BCF7814C
3E67C7DA
3D28D458
BE03C07C
3D56B9CB
BE74D666
BEC7CBD9
BD9EB1F0
3EA13FBA
BD92BA04
3EA79C08
3C6F4FC4
3E9B4730
BE49786B
BDD9A292
BD2E44D4
BD3AF242
BEE6B5D0
BE2FDFC3
3D886C66
3E01034E
BF022B49
BE39C1B6
3CCF66CB
3EB23DAA
3E8307D6
3EB6EADA
BDAF8368
BEDD3E5B
3DD0C3F0
BEB06460
BE1DE686
BC3E58E1
BE870EE8
3D910914
3DAA2AD7
BE6633DC
BD404B11
3E034FA6
3D9D4E13
BCB0C93B
3E4E2748
3E9C4D53
BE8845F8
BE2E6437
BD0CA578
BD773B81
3EA60450
BEC8B053
3E3559A4
BE8F44AC
3E992C7A
3E46A5DE
BD86E43B
BE800616
3E82FC99
BEC43A82
3DFE333D
3C1644DB
3E979C82
3E8F2C25
BE315F84
3ECC4C22
BE7960F3
3D1D6EFC
3E9F56FE
BDCAC588
3E382221
3E909273
BEE0EC91
3E87186D
3DF978D0
BD874977
BEC6621E
BEADC4D5
BEB2417B
BE96D1F7
BE86E4E1
3E87804C
BCDC542F
BDB2A732
BF51C9FA
3E6BE5B2
3E375073
BE9C5DBD
BEA19598
3E8B5ED5
BE643C36
3EB1FF8F
3DC7105D
3DBE7EFB
3DC722A7
3EE26818
3D96DA4E
BEAF4E2F
3C167166
3E252CF6
3EBF8BE8
BE665DD2
BE44CF0F
BE51B3A7
3E19DF0F
BEC4D5BD
BE72F39D
BCCACA8F
BEC03FB7
3E595D49
BE7EE2B7
BE83E8CF
BDCC2B73
3AB2AE13
3EB32CC5
3CD0F886
BE1C5DCB
3EF5D40C
BE20D5EE
3E5C6C1B
BE46CC69
3F07B7A1
3EAE8D18
3D79B3BB
BE9C3B51
3DEBC8AB
3E403005
3EE0E0CC
BF20DC86
3E305A8F
BE73F42C
3EA2F88F
3E45F558
3D9FD473
3DDB58A9
3F03E4B8
BD958060
BE1E119C
3E946354
3D5A79B1
3D09C06E
3E130286
3E55C92E
BE5DAAD9
3E9BD011
BD64E667
BE6219DC
BE656F8D
BD642312
BE39096A
BEFFF1BD
BD51E9AA
3E860ADA
3E079451
BD3BB1CD
BD8E5938
3E48B695
BEEB6096
3DD584A2
3E59C341
BEC63CC1
3DB0BB6D
3E7A4631
BD024270
BEC8B0FA
3DF01F03
BF24F55E
3E945D72
BE182B1A
3D1BE61D
BE30D86E
3E98847C
3E1943FB
BE0F308B
BDA09906
BD53702D
BE1F2F3D
BF0C5BC5
3CBBC7D7
BEEF63A0
BDACBE64
BABD2F20
BE592A23
BE5D8808
BE7A4C25
BE8EAC88
3DA76189
BE78E735
3CF80AAE
BC8B4DA1
3F33F862
3CC7C049
BEBBB414
3EEC5584
3E2FF76E
3E2C8C06
3B58C782
3DB26353
BD830B3E
BDA9C8E5
3EC581A6
BE7D7315
BE412969
3DAE85D5
BE732E92
BF0D26BE
3DF3A909
3EA426D7
3C81BFD9
BE603D36
3E69FBB2
BE50B9B0
BDE2A46D
3E6E1079
3ED2790D
BE33C41B
3E737677
3E57D5ED
3E185DA6
3DE0C28E
3E33DA10
BDDFC7CF
3E98733B
BEE0C9AF
3F01E557
3DBBBFDE
3D9636F2
3E65F3AC
BE0C0EF2
BE424AEB
BE65C48E
3EC2F52E
BC862747
BEED6576
BEAEFCD8
3E66E82A
3D570296
BE94A1E0
BD730BDE
BE2B8081
3EB77879
3EBA8156
BE8FA085
3E3CEA90
B8F1D7F4
BD7DFF7D
3C6BFFEE
3EB3299F
3DA6B2A2
BE1C414D
3EB29909
BE0CDCCB
BDD4EA5B
3D98820D
3EA6C0B1
3F01CDCA
BE901A3C
BE6846C6
BE178E22
3E15D033
3DD98FDC
3E8CA6F3
3E29DDF8
3E2F8E7B
BED76649
BE75E89B
BE7D84FD
3EEED724
3EC43609
BECCE352
BE5D808D
3E0F4051
BE8F3036
BE224D2F
BD36A32A
3DD708E0
BEB9229A
3EF3380C
3E41EFE9
BF0EA36D
3E5C0351
BE8F3E17
3E8BD5CF
BE7CDBAF
BE2A12DB
BE80E56E
BEABEB93
BE9F2A9C
BE454BBE
3EAAB3F0
3E419915
3EBFE68C
BE6D6F9C
BDACC36A
BE608C2B
BE0E3C57
BDE25A22
3ED3F481
3ED7FE42
BDC116BC
3E9463C1
BD011FFB
3E8F13C7
BE70F14B
BE39CA21
BF1A33CD
BD4D5437
3DE4FE28
BEDDFF50
BC793DAF
BE2E5F7F
3DC17F8F
BE6011B4
BF0000F5
BD236570
3E7FFE7C
3E824B65
3DDB39A5
3EBF1E82
BF2FFEF1
3F114352
3D8AC271
3E5DA19E
3ED36DB9
BED3014C
BF51544C
BE5BBFFC
BC9A894E
3E8929E0
3E163EFA
3E80CD4E
BF0E8D1D
BE04165D
BE80742F
BF254209
BE7D5505
3EB581EF
BE452755
3DAE53B7
BEC9217B
BE99DAB9
3DB1EA19
BA7DFA6C
BE9B8F8D
BEC56AAA
BDAD2FF7
BE215A21
3EA7DE44
BE4E4758
3DECBFAB
BEB313C2
3E0CA116
3E5A56AF
3D86F9A5
3E2F79D8
3D9E8F9C
3EDD8365
3D555837
3DAAF07D
3E017B02
3E1F6D73
3E43BEE9
BC6BDEA0
3D181791
BE56ACE0
BE2BBC9C
3EA87FC8
3D9D6FFD
BED164B0
BF0BFEBB
BEDF1C6D
BE95C571
3EA4ED31
BDBCABB0
3EE0B0CB
3E063FBC
3E10B8B7
BEDBCFF1
3CD3F586
BDC077E5
3F1BE7C3
3EC032B8
3E43337B
BDCC7305
BECACD53
3CDDEC7F
3F1F0E8D
BDF9FD4A
3D975AEF
BE00F357
3D331005
BE86A74C
3E1FF502
3C7085EF
BEC7CD7C
3D95F171
BEF5A9E9
3E84055E
3DBBD264
BD146606
BDF78E81
BE24E3A6
3E8E21EB
3E4D8045
3D5005EF
3EF2341F
BEC4F4B3
BF0F9C88
BD75D2CB
BE7796D8
BEA1D782
BE1B3C38
3E249A31
BE815283
3F3431A8
3EBA2C79
BE82D4B7
BE694DF4
BE83793A
3E1ED168
3EA3B0C1
3E9CF53E
3E5329DB
3E6C28A7
3E032653
BEACE5DD
BDACC3AF
BE90E7B9
3D0CE615
3E7BC0D6
3E6793B2
3EAB8A08
3E4A45FF
BD2B1631
3E34ADDB
BE129687
3E995320
3ED60E62
3C6D00B4
3E4D5995
BD6E93DF
BD0B69BE
3E9D5D0C
BE2ADDB4
3DAF97B4
3F33FD48
3E5DF67D
3DD15D7E
3C47E69F
3DB2E76A
3EE3FDAE
3EBA0F7B
3EA1DD25
BE21530B
3DD8896A
BE8B2DC0
3BDF56FE
BE9874E2
3E5C2800
3C952F57
3E4ECCE7
3D1F69DB
3C25BBB1
3EED8D23
3E96BFCC
BDC50021
3D94B1FA
BE603A42
3E5EF87A
BD31423A
3BE87AD3
3EFE12C0
3E326248
3E994B10
3E72A000
BEB5D49B
3E986B70
3E238989
3F027820
BEFC16D4
BF156562
3E7766DB
BC9E32E1
3D59F4B6
3CBB1743
3D1F429E
BE8C52BC
BE61FCA3
BEE09BC0
3E6CFE37
BE270E4E
BDACCB64
BE8F455C
3EEDAC50
3DE7A356
3CCF74C8
BD764628
BBC324D8
BE724C29
3E267E9E
3EC3F55A
BEF08DF9
3EA67970
BEDED7EC
3D5A2720
BF2BA3A0
3E697F0D
BE96A2FF
3EFEC98C
BE4AE691
BED83FBE
BF325837
BEBCB473
3D950855
3E63EC67
BDB14C51
3E64ED2C
3EB7386B
BE100C7B
BE115CA1
BE27D19A
3C26AA6E
3E1C516D
3D46F354
3D3EB98C
3E4EAED8
BE0F6671
BE238909
3DAB9E5D
3D618F44
BD0F5840
3D906EF4
BE2D9BC0
BD9BC247
BE4E28D4
3D5668ED
BE84DF74
3E2C0EF7
BE00C3EC
BDD6B961
3D15F403
BDA134D2
BE53CADC
BE169509
BCA68A13
3DBBBFCC
3E73C346
3CAFE794
BE7A74BE
BE2C454A
3DCAEA39
3E4814BD
3F0ABFBA
BF0F28C2
3DAF918A
BE7BCDB6
BE6BC366
3E583FAE
3E3747EB
3E175295
BEADCF46
3D8A0CE4
BDAF0B12
BCD7F04C
BED94AB4
3EBFE198
BE10B4EB
3DA5333E
BDD5F68C
BE9554E3
3E864089
BEA273BD
BE313D64
3E69DABE
3EEA39C6
BF2618FF
3D5E809C
3F0281BD
3E8AFE1B
3EC519DB
3E6FA3BE
BF525B84
BEAA9A66
3E92B923
3E6483A7
BC63BD14
3EBE2580
BEA47743
3E87CE1F
BE697BD5
3D175F8B
BECF692B
3EDF403D
BE7CF021
BDAC6F2F
BE98A403
BEC66736
BE832618
3E07A5BB
BDF675FB
3DBBE131
BEF55AF1
3E00FCB0
BDFFDB79
3DBDD79E
BF4F7EDB
BE9C5F4F
BE57AF00
BF09563B
3D6BDDE2
BDDD8B1B
BEC6B57D
BDB959FA
BD966077
3E440359
3E02832D
BD81B7DA
BE8BBF85
BDFB53D6
BDBD6A75
BD8EE565
3E14CD77
3E737070
3ECE5676
3EAC2AA1
BE3DC1C8
3D8284EB
BDE99A33
BE62B166
3EC9AE44
3E85353F
BDD5C48B
BE33F844
3EFA6549
3DB484D6
BE3DA22C
BE4A6311
3F2893D7
3E73B97E
BE0BCDA3
3D53DD4D
BDB5C2A3
3D674955
3ED91B54
3E5F69B6
3D49D777
BE92E4D4
3E2E8E1F
BE465C18
BD241DE4
BC5F4B4A
3DAB53C6
3DED65BF
BEE21993
3C2CD779
3E6983CD
3E55FED1
BEAEDA44
BECCD4EC
BE8E27B8
3E4BA7F4
BE9B217E
3D8F1820
3F08DCFC
3E5D81C2
BCB84261
BA3B60BF
BD80B96B
3E722FD0
3E7ED2DF
3ED8DEBC
BD9B7E95
3DD40515
3E2A728D
3E437A07
3CD20820
BEE8F22B
BD986666
BF1BD9E8
3E168483
3BEBE907
BE21F4B3
BE7FB231
BDAE75DC
3E84F7DE
BE8B95FC
BCDEFA77
3C7B6445
3F195C77
3E624155
3CFA6EDC
BEC6A48F
3E297F57
BE74EFBA
3EB840FB
BEA21D6E
3DD65C21
3DE6CE75
3E805A76
BE40C472
3ED90153
BDEDAC44
BE9359CB
BED7E12C
3EF32E59
3E992B47
BEFCAFB5
3F18AEBB
3D526BC3
BF205741
3F272860
BE026C2B
3EC01717
BEBAA17C
3E8E7268
3E225873
BEAF70EA
3CE73C2F
BE29F764
3DC751C7
BEEA12B3
3E348DFE
BEA9EF1D
BDFD7D86
BE318D25
3B932622
3F3202CB
3E9E95EB
3E904F55
BD244854
BB07C485
3D8DBEFD
3EB044DE
BE6C92BB
3E6B485A
BB17935A
3E0BA90F
BD84DA95
3EB7AFEA
3DDD38C6
BE1F4571
BED650B6
3E6B423E
BDD1D969
BE619B8F
BF10DB16
BF1E8414
BF084B41
3E146AE9
BD283043
3E2F66F8
3DDAD76C
BEAEE68A
3E8616B9
3DB1035F
3EBE5356
3E8C5186
BDCAC1A4
BD5E473E
3D14FDD6
3E0527C1
3C843107
3C79851C
3DB18BE8
BE90BB29
3E5EA2D7
3DAEDC94
3F03614C
3D17F45B
3CF0B824
3EC55393
BE03D7D4
BCB6ECAC
3DEF61EB
3E3721BB
3E83BB6D
3EC14715
3F367C63
3E823220
BE5C8150
BD9178DC
BF5D213F
3ED5EDFB
BF7C3B8E
3EBFE461
BECFC4E8
3E795D25
BDD50725
BE8D17A4
BBAA80C8
BE504A3F
3F2A1E1F
3EB87B69
BD5B6B81
3D41F820
3E173FBF
3DE33633
3EA52CA7
BD804280
3E367326
BEFE966B
BE3298D1
3EAD4C38
BC8AA606
BECAE0E8
3E494D57
BEEB2747
BD16D9B9
BEBF4B2E
3E9C8D7C
3CA52EEE
BC4E1044
BE08C939
BEA4918C
BD6FECC5
3E6B72A7
BE649ADB
3E80AA8D
3E44D394
BE4C9C49
BEAB3C27
BC9228CC
3F0705D0
3E5287E4
3EA02752
3C235D07
3EDE9920
BBE7C68E
3E4B21CC
BE052EB2
3EE114BC
3EC5253B
3F09CE27
BE019E30
BEED5CE6
BD1D4BA5
3EDCC840
BCC6E4E1
BA940D69
BD96DEBD
3E9035D2
BECA22F3
BE09F8F5
BD6FB46E
3E85FAA8
3D77B0B1
BF37E127
3E8B1B6B
3EC91D68
3E0DD7E0
BEA4C937
BDAD36D6
3D527B9E
BDB6DAD9
3E7E3848
BE3C319C
BE405C6B
BDB436AD
3EF4812B
3E983415
3E38B335
BDB6F215
3EAEA43E
BE16012C
3E64A8D8
BE39F287
3ED649E4
BEF617B4
3DBCE341
BE07571D
3CA44915
BE82F980
BDF7D3C7
BF17F109
3E8C1FC0
BE6C3272
3EB0544D
3D3A9AD1
BE12B8EE
BF0EADC1
BEF47480
BEA30AA0
BDE3D48F
3E767B65
BF03026E
3EF9F31F
BE72E276
BCCA0547
BDCE2B6B
3ED85361
BE6B01E8
3E44622B
BD20E4DD
BEE291DE
BEECADAE
3CF81E09
BE228622
BEDA1B72
BE92FC0F
BEBC21BC
BF1611C1
BE45586D
BE806CDC
BE7C130A
BE1EFE54
3D5E712D
BD987B8C
3E87E6DB
BE052AF8
3E23E41E
3E80370E
BE35A631
3E8E627B
BE4EC155
BE3D8E83
BDAA6FDC
3D8BB5E2
3DFF2C20
3EC1A7CF
BEC49624
3D2C841D
3D7D8041
BE48C031
3E19B635
3DA05EFF
3CD0EA43
BE777AEC
3CD7775B
3ED5CE31
3E73903F
3D057B2C
3EC9C502
3DDE3BE5
3DAE6FE6
BD2685C9
BE9648B5
3E5640B3
BE067B91
BEBBCC64
BF0DD9A5
3F0A30D0
3E42C16C
3EA926D1
BE829F05
3EFAD15C
BE055C27
BEA71494
3E5CDF31
3E01F4D7
3DE1B25E
3DBD2DB2
BCA03F05
3E18D47D
BDF03BAE
BC85F2F9
3E72F7C5
3EF4D559
3E0FF6B2
BE56404C
BE4D826E
3E5C468E
3EE0AE56
3E0686D7
3EA35D87
BEA64A3B
BC7C9F83
BE2A0329
BE12E2DA
BDCFE5AC
BF060436
BECACB31
BE5436D2
BEB9E87D
3EEA16B1
BDB869F5
3DB81FFB
BE410E0E
3CD3E5F1
3E1C233B
3D62E5B6
3ABAA7DC
BDDF9B00
3E8F1649
BD2C8C12
BD64391A
BEBF1ED3
BE5C411C
BDD3EC81
3E5A8846
3F0E0594
3DE6F80D
BED927B6
BDC56FF0
3C7E86D9
3C8ADE2A
BE9496CB
3DAF907D
3DFC3B35
BDC6A1EB
3E33D41C
BE65D001
3E79C3B6
BDBA614A
BEAF9A38
3E9CE7AA
3D0802D3
3E8271B4
BF0C4499
3F17AA80
BCD2CE5E
3D477BE5
BE767EE8
3DC11A23
3EB7C269
3CE2F283
3E50490B
BCFAA1F8
3D869C0E
BE103C91
BD6E6EA3
3E395B89
3E5A1335
BC9ED3E0
BEBC1BB4
3ED3AC74
3E803016
3D75C402
3EE3BF27
BB3B824D
3D118EA6
BBF60AF4
3E557D1B
3E6083DD
BEB30C4D
3E124988
3D2F4C97
BE70F65B
3F060CA3
3E1AE672
BF16775E
BE87ADF8
3EA34259
BE75710D
3CE8B14F
BF092573
BE248B47
3E0142F1
BF1DCAB7
BE24D7B5
BF14D6B6
BE1351F9
3EA80635
3DE33570
3E5E1BEE
BD4D3E62
3E2F55F3
3C83C04F
3E92956D
BCE8E5B2
3BF36EF8
BDBBAECC
BE59A237
3CCEEB96
3EDCDDE8
BEC34BE1
3DF7F5A1
BE98C965
3D923CCE
BDA49F68
3DDC9241
3DEE583F
3E74E896
BDD88BC1
BF2F7AC7
BE23C37F
BE1F4769
3E59CE55
BEB27591
3D655C35
BEF3AF9C
3CA6C897
BD4A35F4
3DC50CFD
BE657175
BE0DEF9F
BEF8816F
BDB3B9F7
BD3D1507
BEB145A8
3EB82A43
3E08E361
3EAA1B82
BD811E75
3E9B8F42
3E808DF1
3DFF2259
BECBE338
BBBDF2D5
BF040A65
3E12AA27
3EC26D16
BE856D12
BE088C8B
BDF9DB20
BE968E13
3E7D409D
BE15B551
BF0C12F7
3D4BFAD5
3EAB62D5
3EB4707E
3CC4EB01
BEC88446
BED4A129
BEC9AE23
3E0585DF
3E4860BF
3D4A5465
3D0B1728
3DAF71AC
BD2303F3
BE8F8596
BDFACA7F
3E302BA9
BEE2916D
BE4F38FD
3E1020C3
BE062CD8
3E3EFE89
3D15849C
3ECB1C74
BEEC608D
BF522C06
3E07DC4F
3E045A19
3E9238D9
3D3DEC24
3E9D3CC2
3D66BB28
3E46112E
BE23CEF9
3DFA05F0
BEB0368D
BCBE5124
3EE881AD
BEA6A7D1
BD535532
BB812B0E
BE017D02
3C7A2885
BDFC559A
3E52B7BE
BF0BC775
BE2ED008
BEC4CC04
BE6346BD
BEAC76FA
BDD4DA8B
BD041D49
3CC464FA
BE1C9090
3D600688
3ED65B28
3EEB2603
3E988F63
BE311B53
3C06645E
3E3F03C5
3E55B683
3E494FE4
3E0EBA3C
BB95D453
BEC503CB
BE9D5865
3F18FCEF
BE0B0D8D
3F0CC05B
BE858C37
3E473BAA
3DE4F1D1
3C72F1C5
BCA0DE4C
3D4BBADF
BEE75BC5
BE34111F
3E107EB3
3CAEA8FB
BE37B23C
BDC48DA2
BDC5FFBB
BE427848
3D293CE0
BE7C32D5
3E279170
3EA06EDF
BEEC3461
3EB1D97B
3DE14B37
3D02AD7A
BDBF1563
3D45E054
3F164274
BE65C015
3DC0AB6C
BE4D3BEF
BF00D1A9
3D2FDEA5
3DEE8BDA
BE816B28
BF001962
BCBE6155
BE4257C4
3F29FDB5
3C9F844F
3EE933EC
3E1639FF
3E2DA758
BD6993E0
3DC2D867
3D384A4F
BCC7472C
BCD1E322
BD36D019
3EB1F5BC
3DA5A6BB
BEE1B4D9
3E8E6E5D
3D985915
3F1FBB44
3DE8E90A
3DAFD6D9
BEC94B41
BD5A71C4
3E94629A
BD93F949
BE5CA9ED
BF469CBC
BEF31557
3EEBA7B4
BE5B916F
3EF9DADB
BE86791B
3EC800D7
BE15296B
39D1FA33
3E2D5CF0
3C0A1BE3
3EA7AFCD
3E0920CC
BDB59A07
3E306CB3
BE1D57C0
3F07ADBA
3F282DD5
BE1EAA49
3ED577ED
BE8C9FD6
3EA693B1
BECCDF37
BE428E8B
3DA4E9A9
BE4F66D9
BE99977E
BE874F3D
3DA1A888
3E8B2F6E
3E2066CA
BE6ACE14
3E8D1408
BE519A67
3EFBB14A
BD8F21B6
BDDDF964
3E024A8F
3D9FCC02
BE35950F
BC7D9745
BF133333
BEB92D6E
3E427696
BE3C5A3F
BDE27D32
BD9A46F3
BE51D5FC
3E845E3E
3CBCEB28
BC120551
BE8A0132
BE0B469D
3EA1C399
3CDA00CD
BF1665EC
3ECE3A8A
3E9C0BED
BE81CBF6
3E939FC8
BEBD3727
BE8AF406
BDCC6541
3EAF5E63
3D730419
3D4AC5C1
3F021915
BE9D095C
BCF4B4DE
3DF09C56
3E47327C
3D282E7D
BE0ED287
BE27B628
3ED077ED
3F15FDDD
BE785A0C
BEF510D9
BCB63C57
BE9D170C
3E20C0D0
BE4B997A
BD9DEE21
3E7B875C
3E46D1B9
3D21A4DE
BDF1A065
BF032979
BDEB1752
3E384DDB
3E04710E
BEF7270D
BD2E9E89
BE6F0D88
BE310F82
3B2557E9
3D8C3F43
BE0BE934
3D931124
3F04123A
BE573529
BC89AEB5
3E068180
3E0B063E
3C85C755
3E972AA2
3D4C8339
BC1A79DF
3F09FCD9
3E7A93CA
BE6A574C
3DB30DF0
BDB61B48
3D60D9B2
BE5D8092
3C8FE454
3CBFD4AC
BE24E6EF
3E09A7D5
3E6A2E74
3EFEDA49
3E378972
3E970550
3DF03AD6
3E6A0B19
BF181014
BEA0A710
3D600556
BE0B5243
3E717B52
3D40B3C7
3E81EA46
3EF4F0DB
BEB5A8BA
3E527AB4
BEF3F3A4
3F4C2B6D
BF166EC3
3E13A52F
BD737550
BD09DBE4
3E1207FB
3E1C56D9
3CD4FA18
BF247990
3D6E3C5E
3DF8A829
BE954EA0
3E145E06
3EA06A85
3DC5C68B
BE5EDB4F
3D7A86CF
BF00BE6F
BDE23252
BEA5AC86
3E0980DF
3EC0CB10
BD9E0250
BE981137
3CC00E18
BD3401E3
BEA0C28C
3E3D0349
3C9C83A9
BE6849A2
3F09B170
3CD1F17F
3F2A741C
3D2F3537
BD29B345
BE68E8B5
BDC93B3A
3B3FE8E4
BD1F60D9
3E92866C
3F0DCC91
BE46696C
3EBC2071
3D258DD9
3EF4CE38
BE765582
BE48BC49
3E788688
3E44040A
3B51E667
BF11D24E
BE31EF8B
3EA60A25
BE83F408
BE264C45
BEAFCEEE
BEE10649
BE04A279
3E138A19
BE09C262
BEA15B80
BD9C7A11
3D6AFEDC
3EA5E127
3D826B0A
BF09DDDF
BDD13183
BEE67ED8
3EB224D1
BEDD83CA
3E0866C0
BF178650
3E018FD0
BE8504D3
BE0EF2C4
3E756C7C
BE204129
BEE459DD
3DE1DE0E
3E1FA787
BE2A7E46
BE708BDF
3D4BED03
3E4A13F0
BE68D437
BBF5A142
BEB59F60
BEE93CB9
BADFFF2F
BE8D31AD
BF4F4E7D
3E7A9D72
BEC6E0C1
BD33512E
BE1B9AA0
3D792C8C
3DF2A94D
3E3CEBF6
BE631B3C
BF2E8229
3EB40FB3
BE01F3F7
BD149EFE
BE6300D9
3E0A517E
3D091D28
BBFB2CF2
BD00C2B8
BE507CB3
BE816986
BE8A19CB
BCCB990B
3E1804D9
3E8D4E15
BDE99893
BE131098
3EB18199
BEBAD71E
3DB50029
3C75958E
3DB567A2
BD4A13CD
BE104495
BEB602D8
BEC5419E
BF15B774
3E9D5543
3E93961C
BE8FAE76
3E5DA73A
BF0381D1
BE05CFB2
3E7EE77F
3DF32FAC
BE9EBB02
BEC67D0A
3DE6E9CD
BEEBB191
3C16DC30
3E6A7A83
BE6D18AD
BE5788AD
BE07783E
3E9F2397
BDB9F0F9
3DE23EDB
3EA5B459
BDDFE6A3
3EB1A11C
BE773334
BEB7ED38
3F02CBDA
3D469BCE
3DACFA70
BED8D4CD
BF2CE315
3EEABC20
BEAEDB84
3E9E1DDA
3E614550
BCC57804
3E6AA5CB
BE952485
3DBAA866
BE1208E5
3D3662B8
BCEE1AA5
BE2CA1AF
BF4BA1E2
3DA9CEF5
BE2FC884
3E2F8D57
3E8E3170
3D37A53B
BDF26840
3EF2F1E6
3E7DB326
3E2D1E20
BE42879D
BE564079
BEBA49BC
3F0DE90B
3C807EF6
BE53E230
3E745A47
BD0AFFAB
BE08FDE7
3F1218E3
3EA739F4
3E500E28
3AAF3436
BF08BE5D
3E1BC74B
BEB25F8A
BED3278A
BEC4C76E
3DF0AC63
3D055FC1
BE44717B
3EEE336C
BDE45F82
BDCFDCAE
3EA0A589
BE78D9E4
BE97E35E
BAB7C95A
BDB005F2
3EC32754
BE6E02DC
BE9E5DE8
BE10ECA9
BE1F080E
BF111DB7
3E25FFAD
BD367461
BF608A63
BE1D5A53
BC2E8AE3
3DB5BB2E
3E1995E3
BEC5633C
BC9E6744
3E6153B2
3E5204C7
BF2644A0
3EA01FE6
BEAE7972
3E8575A2
BD2503CB
3E5275E4
3DD0C9B3
BE819BEA
3F4AA8E7
BE50B755
3D844039
3C511C7D
3E22D2AA
3D5DACEF
BE4A5259
BDC0AE98
BE30A428
3E534E93
BD385A47
BE3152D1
3E6D03C2
3EC1F9C7
BD65202D
3E49F5F6
3DC48515
3E9E9D98
BE6B3FC6
BCF7C305
BD0CF069
3EADA277
3DD92B6C
BD9D302A
3D8C39B9
3D918FD2
BE078365
3E8E28D9
BEA49EC9
3E406BAE
BD503133
3E61A733
3CE93F69
3EB633CC
3D113384
3EEDF8AB
BE651DE1
3E917B92
3E519293
3D43488A
3CBD2783
BE4CED0F
3D5B20B5
3E1C2731
3EDBCCA0
BECBB39B
3E282198
BD385998
3E427B30
BE069A58
3E9D5F2F
BE68BDF4
3EA1C3DF
3DA5959A
3D9D556E
3DB6072A
BE5295C8
3E97D2BF
3F0AB1F4
BE6ECFA1
BD651FCD
BE27E7F3
3DA554D0
BCE39FA2
BEE87D2C
BDF11E97
3D3A9EDA
3E459AF6
BE533A3A
3EC9745C
3BD46217
BEB27C5D
BCF7FEAA
BD8E7054
BEE49C65
BF228FC0
BDB9413D
3EE712C4
3D159B3D
3D582AE2
BDCC7FC7
BE46A9C3
3D820918
BE317298
BE372B32
3DD585AA
BEBC6A54
BE7C34A6
BEB998BC
BDA301DD
BE5B55BB
BDA6D545
BE190536
3E17EEF8
BED34B3D
BDC8C23D
3D07DB8F
3ED695E7
BEAF5027
BE8FBE2C
3E25ED62
BF455EBC
3E5231C7
BDB655A3
BE28DC4B
BC1EC61F
BCB6B549
BF49FA2C
3DF98935
3E44BBCE
BEC9331E
3E263C9F
BE17B0C8
3E465D67
3E06215E
3D9768E5
3E881EB5
3DF76AAF
BE8D47AC
3D86BF4B
BED8042E
3E927651
BEBB6CC4
BE5E7EBA
BF023144
3C369843
3D16F9D7
3F1EC4DC
3D20505D
3EA23CAB
BE817149
BE6A61FC
3E665ECE
BE460410
3D5315EC
BC006C0C
3E9B7B26
BE67A94A
3E2FCFDB
BE10153C
3DA3302B
3E4CC571
BD070EA0
3E20DC48
BCC01B33
BE29A8EF
BD104385
BEAB97D0
3EA6AD59
3E93E4D3
3E7537E2
3E619060
BE2FADCE
3E4D4E83
3E32A894
3ECE2C87
BDE1576F
BDABDE7C
3E1CAB52
3E8F1591
3EBA3F7C
3E373E36
3E68ABA8
BEBFBF73
BE6A4868
BE999584
BD4E33B8
3E8E51EE
BF42A8BD
BEA0D88D
3EB69BD8
3E324FB7
BE3A2164
3D6BC61C
BDFB540B
BC4A530A
BE5485BE
BE8719B8
BE8AC78A
BF0107DA
3E8EDA55
BE5AD24C
BED2D9CC
BD54AA82
3E2FE94D
3DEF552A
BE08C821
3DAA689C
3D46B569
BBA4C531
BEC5E3EF
BEDA0132
BDB69E3D
3EA87E37
3DD22CCB
BE4086E2
BCF9F9D1
BD5F5682
BE37FE69
BE860F17
BE9E5449
BE5E45ED
3E49811A
3E288ADF
3EA7E020
3F2222C3
BE8C095C
3E706B40
3CDF60C3
3E842103
BE66A586
3E8F4F3E
BEA0FF15
BE158F0E
BE6C9417
BE1CD596
BEA1785B
3E81770A
BE23A698
BD22CCE1
3E868CB0
3EDCA21D
3E172F91
3D117380
BC887123
BDE6D9D6
3E02702A
BBE090B9
BF39C679
3E82A143
BDB73B24
3F473257
BE71AEBC
BD631EFC
BE0DC096
3D0AF2A5
BDA37EDC
3DFBB171
BE2F9824
BD8D1D38
BBE04B9A
3CCDEA89
3E6E4C1A
3EC5C4FF
BE7E2355
BE187FEE
3E15CE0D
BF2D09A8
BDD5F9E7
BE2011F2
3E6E69C8
3E034F1B
BE948CFE
3F05760E
BF70846A
3EE79C97
3EA6B480
3ECD81BA
BE111E5B
3D943E11
BDB4C4D7
BF12E953
BDC4A7E5
3E28FDD8
3E845296
3E8FDD39
BD48307E
3E87768F
3F167CD6
BE218294
BF133EC0
3EA63A2E
BEC43CC7
BDECC819
3ECCB41C
3DC47B30
3E943443
BDCFD502
3E3B2AA4
3DC0DEA8
3E3519F0
BF252EA3
3EB7082A
BCD908FB
BDFD0D7A
BE805AA2
3EB45504
BDFB7AE3
BE2D1CF2
3E66E073
BCA6DA3A
BD22E69A
BDC48896
3D78045E
3DCB9C6B
BE3F8EEE
3DD7632A
3E8461FF
BDEC613E
3E5DA633
3DE3DB3D
3E5B674E
BB946466
3DAC653A
BE43C3FA
3E510012
3F5460AC
BD748716
BE0702F7
BD812FAC
3E871B32
BD5E33BA
BE577425
3EE0715C
3E0B0B68
3E1B4F5F
3E899B27
BD46AC07
BD963199
BEA23425
3E129938
BD8DEAA4
3EACB411
BE69D501
BF1BA85E
BEDD1A50
3EB5C2D0
BDB6A01E
3F173167
3E7340B0
BB496B43
3E7AC74F
3DED5C7A
3E91A710
BD888C5D
BDAF757C
BF0E52A8
BED5F4EA
BEE86251
3E3875C6
3E952506
BE66E47B
3E8EF495
BE374E70
3F229D91
BEA5C5BF
3E563791
3B810B58
BE201DD6
BF213676
BE83D6E5
BEB4AB4F
BC09D25C
BDD413C3
BF27629D
3E887D5B
BD196CEC
BE8D6F97
BD2BA2D3
3DD07EF3
3DF35376
3E818792
BE924B27
3D1DF2AF
3E1E7668
3D15C9F1
BE70D716
3EA7BE9C
3E486807
3E1AEF78
3EF1C849
BE1B55C3
3EED4B90
BF131655
3E2B6C4D
BE902A95
BC257F36
3DA9C7C7
BD772F49
3EBB74C5
BE4B7914
BE90E5F4
BEC00A8B
3E69868B
3EFB8D85
3EBEC366
BD2515E1
3D6328A1
BD8C938A
BB5FCAAB
BEB92739
3F122AE7
BC0C785E
3D3AA446
3DDC5681
3E0E01AB
BDC399E0
BECCA8DA
BEDF29D9
3E213BC0
3C0660F8
BD4B333D
3E4F233B
3E8BFDAE
BDD32C64
BDBEDFCA
3E813819
BEB3DC6D
3EA80C10
BEC739AF
3ECC73B7
BEBB4376
BC76A96A
BF0FC352
BE25DED2
3DB6AE62
3DC05DAF
BE18D8D7
BEF3F408
3E746616
3E80F88B
BD5BD500
BF1857A1
3E91AEE6
BEBA6357
3CDE13AC
BCC705F4
BE221A43
BEF3B7D3
3DB678B3
3E6050F1
3E07551A
BEDB759E
3F143F82
BE5ED524
3E58374E
BDC18B67
3EDEF994
3E0D0A66
BE862033
BF4F1FD5
3ED2CA70
3E81D1D3
BDFBEC08
BE597BB0
BD3E80FD
BE5A993D
BE7C1D11
BE20D9F3
BE89F0A3
BEE4017C
3E909215
3EAD50A0
3DE2897C
BD0C2321
BDB7DAAE
BD71362E
3E76D202
3DFA35C2
3DD5868F
3DDCFBBB
3F0A9317
3BA5AC62
3DEDFC82
3D8968CF
BEDFA79D
3E620DB1
BE69A690
3EC85666
3EA82636
3E0107F4
BCFAD83E
BD86DA78
3E630E07
BDC50051
BDB53F1F
BF01F52E
3E8E4200
3E321642
BE34A1FB
BC275CDB
3F02DFC2
3CBCD25E
BD8959A4
BB1CC94F
3E7836D4
3E9C5433
3EF3AA8A
3DD3B9C2
3D149D69
BE6F5358
3EC8232E
BEB15E69
BEDEEA34
3E64C6F5
BE7D0CCD
BBFCE417
BEF77B50
3E62CA2C
BF4368EC
3E385863
BEACB69E
BDB2DF1F
3E0E6ED4
BDA537D8
BF04D6DA
BEAE36ED
BD5AD3CE
BD78371E
BDBE202B
BD80567D
BE8D505C
3EC9952B
3E24AC58
3EBE5DEB
BE942AFF
BDAFFC47
3EC0647F
3E58E9F1
BE3DE589
BD80BAFE
BE8D12B3
BDED666F
BDB885B7
BD9C070D
3D90BB12
BDEA716F
3D9FF1E7
3DBB70D0
BD14D14E
3EF2319A
BE85FC96
BE5A6F5B
3E80B004
BF3B7E6D
3DC17A1C
BDA8118B
BE081424
3C5666B4
3F1B82B5
BF12FD51
BE64A45F
3E57CA72
3C38D8A4
BCDEE8A3
3EBFD434
BEF91069
3DF771E6
BE9ED5C6
BC8A8FA1
BED47995
BE3238D3
BE8BFA68
BDD014E9
3EFFEAC0
BE3804FC
BE04C76F
BE6440CD
BDD362A1
3D32BEF2
3DAE27B1
3DE1C2A3
3EB47DC5
3E50AE68
3EC99ECD
BE3E06F7
3EC9A3A8
BD115E41
3CB220EF
BD19D21E
3E7EC026
3E2AD176
3D800974
3D3A0367
BF093A64
BEB667FA
3EE094AB
BD76A912
3E85D23D
3D3307B2
BCD3B803
BF028839
3EA55639
BE87A266
3DF3B6BC
3D9C97E0
BEF419F7
3E3A53BB
3EAE9C69
BE668B30
3E2A4D99
BEB92386
3E586C1B
BE6729C7
3D75E979
3EF867C2
BE9BDBDB
3F021590
3D5477C7
BE21E354
3E25B07B
3E53F64C
3E266B0A
3DA8792C
BF5072B0
3E2E8158
BE467A3E
BE85E8BE
BC8D87F9
BF3C972E
BEB2D61D
3DAF8D7B
3E98A6FA
BDD4F29A
3D59B36D
3E6C97A2
3E912A78
3E4F7DE1
3E48C021
3E2A1C10
3DF7849C
BE5E515D
BC954912
3DC216E0
BE531A4F
3E87C455
3EA892FC
3E126173
3ECA99A7
BEA2D923
3D9673B9
BE80D582
BCD097F8
3D8688F9
3E26FB71
BE0DFE90
3E3FA194
3E9D7769
3E025AB5
3E91E17B
3DFE7C0B
BD76F6F2
BEBAEE50
3DE399F5
BE9FDFD8
BED22228
BEA0A9CD
BE0882AF
3C3EF060
BE662418
BE29824C
3EA1CE09
BD9BA875
BCB45F83
3E7D0ACD
BC24D8C8
3DCD7803
BEE90708
3E9CDB51
BEA0A491
3D343B3B
BE99D099
BE922BB9
3D6E96B9
3DEA942A
3EB93D85
3E90CB25
BE592623
3D5296E1
3BB46710
3EA0ACA6
3EBD7C72
BE324C7C
BDDFE872
3E2CD1A1
BF2406AD
3E369FD2
3E236109
3E1F374A
BE9F5078
3E9C2E11
BEBF2BA9
BF0C86B2
BCE107ED
BBB9AD8B
3E87AF20
3E2BBC82
3E4765B2
BF6A943F
3E3A5EA2
3E219348
3ED2C543
BE75C3E4
BEA5206D
3E3B15C4
3EE4D364
BEC41596
BEB8A522
3E1290CE
3E75FCEA
BE86DB17
BED8E0C5
3DC54041
BE0F4889
3E384038
3E1D3F5A
BD7376E0
3E837008
3EB26A52
3C534CCE
3E53B0F7
3D4550AA
3B588410
3C20F91F
3EC2A305
BEEF5FE8
3F055F98
BE28401C
3ED2D664
BE810CB2
BCA8C836
3EB76131
3DBE5ADB
3E7A17A0
3DA97160
3E9019FA
3DBBA37A
BD53E7A9
3DD98481
3D37910E
3E9A2B39
BE03061A
3E84CA6E
3F01E718
3DF4BCE9
3DB9182F
BDCA7AE0
BEFA603A
BC1DFADD
3F1C2A9C
BDE787E3
3DE5CEB7
BBD79060
3D630B0F
3DF27DBE
BE997B40
3E9999C3
BE89525C
BE59BEF1
3DEDEE4C
3E916C5B
BDB23C77
3E0D1565
3E7ABD8A
BE3D1C44
3E819E7E
BE84C48C
3D567E77
BD86EB76
3C76D8CF
3E40424C
BC7BC508
BECF1617
BE873569
3DEE51FD
BF0FA57D
BC9C67EB
BE03C0AF
BF1E49A1
BD34496B
3D3D65C7
BDC70B88
3E35EE0F
BCD740BF
BDDCAB0C
BDD8A023
BE8229A5
3E267764
BEECD6F4
BEE9B3BC
BE7AD0BB
BE381A6F
3ED6FED4
BE18ECFF
3E4886C3
3EB2C9CC
BB04398B
BE6FE693
BF4F4D6F
3EB3CFB8
BD98F34C
BE4B9706
BE2DD5E1
3E1F7EF3
BD9554DE
BE2A6171
BC33AB53
BDCEB1D6
3E11BB1F
BE1842E9
BD60888E
3E6FE7C8
3CCAB652
BE44E2E8
BEBF511A
BB7A9D40
3EAFEE66
3EF0665A
3E1184F5
3D789C64
3DC62A8D
3E81A6E8
BCCF435F
BE886944
BEE60020
3DF454E0
BDFDE57A
BE73D6AB
3E597012
BEBB04BE
3E9C8DB9
3DD46D1B
3DCB01F1
BDCF8A66
BEB23A3E
BEE15E8B
BA95F7F9
BE1F8CDB
BE4368AF
BE5801F3
3D0BD4D2
3EF509B0
BE913B74
3F16F39B
BE903585
3E02F3BF
BF2087FA
BD5EF322
BEAC47B2
BE2310EE
3D298D88
3DD41677
BE7C0415
3E31E444
BEB20F43
3ECE3DBB
BEF31C67
3CDBB63A
3E80EA16
3DE813F6
3E736D2A
3E7691FD
BD2460C0
3E6F55DD
3EA28C38
3E8867BC
BE3CBB78
BEEA6C2F
BE0659CD
3D9548A4
BD4795A6
BEFA41A0
BD9DE75D
3E938D9E
BC88D567
BD4ACD46
BE7EF3A3
BE6BEA34
BDEB98D4
BEF06DA3
BD495874
BE1A5514
3E305819
BEC3017D
3E401B45
BD401EE4
3CC01A7D
BEC6153E
3CC7432B
BEA2223C
BB8E51E8
3E8D46ED
3E939686
3DA45BA6
3E3D9E18
BEDA8CB5
3EB1E69C
BED3696C
BF4271AF
3DAAF57A
BE434C3C
BE1CB24E
BF0F55FC
BF17842F
3DE7C6A9
3DD1E9BA
3D2A89A4
3DE85E3E
BD852DF7
BEEF833D
3E8CB326
BCD0061D
BC6B1BB8
3E72E31E
3E9036F2
3E14EE2A
3ED43BCA
3E8E3617
3E569ACC
3CD5E991
BE2E6AA4
3E4A524C
BE368C6C
BE5D2FA2
3EE2617F
3DDBADC1
3C3E123F
3C98D9A0
3F07D6A7
BD34682A
BDCE2B9E
3DE2DE2E
3EE7BD96
3D3E4774
3E97D834
3E6C8CEA
3EE20DA5
3F087458
BE05A155
3E2C24EB
3D9CE7E7
3E88D0FC
BDCD3DAA
3E36882D
3F130C40
3EDB3CA6
BDC6AAF7
BED2B4DF
BDA39A38
BF1B37C7
BE838C8F
3DB00168
3E301F48
3D901296
BD7DD045
3E9BA663
BD737DE4
3D84AC2F
BE848626
3DFBBBE4
3DCD5A58
BE58FEF5
3E8F8044
BE317020
3E0B884E
3CE29D19
3DB85165
3C2C9B8A
BE9D5EA0
BE6E9CF0
BE803A4A
BE48CC6C
BE963FCA
BE93A7BB
BED06F25
3DDBFE98
BE4D99D9
BEA0D49A
BE21B046
3E824ECB
BF059BA2
BE8BAF29
BEA79C8E
3E4155CF
3F2C74C6
BF54E98B
BE84E5F9
3E8E49AE
3EEC6A44
BE83C6D0
BD1662E9
BE1DEB3F
BC4E744D
3E370EF2
BE8641C3
3CB32E25
BE73769C
3DC24D14
BDB997B9
3C2FC66C
BE103E81
3F1F53FF
3E9FC20F
BE4D8692
BE57B168
3F13A788
BE81EF65
BBC708D3
BEA48DCF
3E81E5A0
3E08F1E0
3E4629B1
3EBC5D98
BD8678C8
BE910BED
BEC225F0
3D947BF2
BE936BA6
3ECB2785
3EB6AD83
BE7EA1AD
3E60A289
BE77658E
BEE3E939
BEF5F709
BF42A900
3E4A28F1
3CA624DD
3DB9DB21
BDB0088A
3DD6BCE0
BD9613F7
3C69B0BE
3D3FEE3D
3E20B7A4
BD4976BF
3E9B5390
BDCA34E6
BDCD9AA1
BE051377
BF1BE9E8
3D33B336
BF2EFE08
3EF2F367
3E3FB414
BEA16E48
BDBE4AD7
3E93E2B8
BD404FA4
3E078F56
BD6A7AE8
BF090F6A
BE09574E
BD5016F4
BEA78337
BDE9719F
BDD23B74
3EBDA132
BE27E4DD
3D9F3252
3D319FCB
BEB9335A
3E325718
3E06AA77
BDB4F8E0
BDECBE23
BDAC6219
BE56621C
BDD65F5F
3DEB016A
3E335D18
3DCB0641
3E3E4F40
3E0E8AC2
BC4C70D2
BE8B3B47
3ED01ACB
3EE5432E
3D54B60D
BE842768
BE83F373
3D8DDA07
3DFC062A
BBCA75B0
BF9F3352
BE80A446
BEBAC516
3EB37FB6
3EF18FCE
3EB0A2EB
3D5B815B
BB45DA95
BE0BB4EE
3E086E1F
3E315B43
BE5438CB
BD860524
BBFF8AE5
BF35EC8B
BE08025D
BBE2AFF9
3EAE8937
3D90DD0C
BE198845
BD0FE01A
3E266AF6
BDAE9DE9
BDC8B28F
BEA88668
3E4EBF47
3E490153
3C956156
BE38C099
BE15E19F
3CBA43AE
BD001509
3AF8F448
BE835DB7
3E0A1014
3DB39821
BE3799F0
3D868D43
3E7CE750
BF2CFC62
BE21AF64
BCEB9BF0
3E36FAA1
BDD27446
BEAD21D7
BE05F809
BD1092B7
BEA1EF51
3E3797E5
3E26391C
3E368F66
BF243CEA
BF8E589C
3E2136FB
3EB3A709
3EC1AF2C
3F126E0A
3E8AABE0
3E8DBA96
BECFA07B
BE2E4794
3D275650
3D874C52
3E9E5500
BEBE4C92
BD83876D
3B9EAC68
BE95BB1C
3E0068D6
3EB663AE
3D57DDD5
3EB7EB55
3E4CFE64
3D0A9B24
3E10D4D4
3ECF7F9E
BE168EC0
3D3433B9
BED5529A
BE14A57D
3D00011D
BE5C073B
3DA79C3A
3E78C04B
BE85167C
3E165673
BDD4CED4
3EB06814
3EAC8ED6
BDAE7E43
BE3D70D8
3D08D44A
3D9AB73B
BEC177B1
3DDFAD48
3EB3A333
3EAB0C37
3EACA2CB
BD01584A
BE107083
3EA1BEBB
BF066645
3CEF2480
BE5E88F5
BDC538BC
BE0A45AC
BEE6C810
3E8E614A
BF1281D8
BE30B1A2
BC94BB08
BE225FFF
3E279448
BCEDAFC6
BF1A31B6
3EFC7095
3F04C7F3
3F22CFC7
BEF882BF
3E18B86C
3E15BBF5
3EFBF40E
BE674EF1
BC846489
3EC69470
BE7C024C
3E8A7110
BEF75431
BEA1B11A
BD5210CC
BD921647
3E6DD295
BE5778DD
3E22499A
3E83C9DA
3E1345FE
BEEE842F
BD23F06A
3D27979C
3E34AABA
BE39A648
3E351C75
3ECC8FED
BE2DDF16
BEACBB0C
BC1B8313
BC76999A
3EBF6477
BD7A3AFA
3E11A277
3E64FF71
BEE637FF
BE0FBF9D
3E43A366
BA47A6C8
BEDF7694
3DD517E3
3C27810E
BDDBD19A
3D0FB3CA
BE8F1A72
3DA39B3B
BED64A74
3E8EC3FB
3DEEA75C
3EAC7A14
BB9345C3
BE716F95
3E983F82
3C58CCAB
BE00FA16
3E8C83EA
BDDE90B4
BDBF0EC5
3E8CAD8F
3E568A57
BECD6A81
BDE3B3EC
3EC0D8F8
3C9F0AD2
3DA76418
BE7C7512
BD61FF94
BE8C48CB
BE0AD6BC
3E8E0307
3D1AF978
BDE0D96F
3EC3A489
BE72C2B6
BE98CEB0
BEDCD9CC
BF099449
BCFC4876
BED6C66A
3EEBFE78
BEAEFB18
3E81448C
3EA2BECC
3E8C9879
3EAF1FAB
BE990032
3D87CC0C
3E34ED53
BF5B410A
BD9363C4
BE5D634D
3F1C4D9D
3D66B29A
3E74C975
BF206962
3EAF3036
3DE15F5A
BEDABD0F
BEE4D95A
3D93B823
BE942428
3E35C029
3E4BEBE8
3F0D9772
3DC576B5
3D0256AF
BE8E60D5
BE7381DE
BD655F1D
BCCB9392
BE71B461
BEBBB39D
3D82739D
3E7E010B
BF08F7FA
3E38D1BD
BEAA9F64
3D40D8E6
BDA67EB5
BE2D6869
3E2EACDC
3D4EFEA6
3DF8C72B
3DFF3A51
BD235E67
3EE3BFC0
BF3668F2
3DE40524
3E994049
BF06724A
3E44BFAC
BBA11D06
3E64A9F3
3E48E85B
3E873EF2
3D219792
BEAB6D6B
3DB6028D
BE2145BC
BE040CC6
3E7918F7
BF1DD183
3EE5DD69
BE9BE981
BEB22994
BE65F512
3C1221F6
3F0D4915
3EAA3F44
3E862204
BDE8814B
3ED67DAC
3E88EE03
BE09A4C9
BF0EAECD
3EE539B6
BEF17E90
3E98B3A9
BD14E68A
3D8A61F2
BF14BB58
BCDBD3C6
3D959F61
3E00DB10
BC8FD83A
BD3EB750
BD6114B0
3E72BFE0
BE61CD30
BD470893
3EA29187
3D5746B9
3ADAABDE
BE1E0BA0
3DC87DF0
BF1F8A66
BEDE3D89
BEE73CA1
BEC0DCE8
3D60AEFD
3D76C978
3DF1B21A
3E7BDC0D
BE7EA06B
3DD55594
3EF09D06
3D278BAD
3C978593
3E61D631
3F020991
BDC64C94
3E935B0B
3E9B1BBD
BD8BACA4
BED5D7CC
BF0047BB
BE51D9C5
BF1CC6AA
BF0B0DC6
3D9AB420
BEDBDB84
BE9690F5
BE924F09
BD056DD0
3EA3C84F
3EA3EC2C
BF071835
3E3438F3
3BB296D6
BDABA439
3D8287DD
BB409D94
BE6FBC2A
3E2DA211
BE19E12A
3E0F63FE
3C04732C
BE932E8F
BF4DF87A
BE4893CA
BE9CF5EA
BD46EFF4
3E228B8E
3EC227A6
3E21F0CC
3DF0A9DB
3DDB8FD7
3D9B3B8F
BDE7547D
BDC3634B
BF07D7F5
BDB96A9C
3E560E8E
BD321891
BE90E53D
BDCDC40B
BDD4A4AC
3E7727F7
BEA6A1ED
BBAEA7C9
3EE928DA
BEE9BA7E
BED573DC
BEB87280
3ED5EDA5
BE3780DE
BD696ABB
3D8F3613
BEFE62D1
BD95AB37
3C2A6630
3C20BA40
BF12DBCD
BE4AD9BE
BE5646CB
BEC19B1D
3CB51EFB
BE667742
BEBECFF7
BDECA0BA
3CC8B1B0
3D47ED6A
BC27C8FD
3DE3956C
BE8E1E20
3F2F76BD
3D4FB91B
3E08A667
3C8E1CB9
BD95E59C
BDC85F8A
3E8F040B
3E99389C
3E152073
BD98A5B9
3D53A30D
BD03D644
3EB06ED8
BE85D5A4
BDD59B11
3D87ECD4
3E8B877A
3EDC1492
3E913F0F
3B9FC5C3
BEE4DEAD
BDD612EA
BD71821E
3DA634BB
BEB892AC
3F227DA8
3D9D8986
3E2212A3
BEAC6C86
3EC22D0E
BE02613E
BE4A98AA
BD95E9E8
3E178FF1
BDE35271
BE90661F
3EAC6CE7
3C9BB2A4
BF059344
3E54C1C9
3EBBDA67
BE25B0C7
3E82DB86
BDB50CDE
3D90103B
BDCC89A4
BE634668
BE26D4AD
3EAF5BBE
3ECA43A5
3D09410F
BE817542
3E237602
BE946CCA
3E1D5CC7
3D44D19E
BF22A4AC
3D255B6C
BE5DAC65
BE916D3F
BEC53F1A
BD56F852
3C4126BC
3EDAE856
BD4754D6
BE5F7960
3E18AC53
3E017277
BBC37D58
3C70761F
BE5D2E77
3E5D7623
BEA9A906
3E1E0F41
3E6AFE06
3B79DF2A
BE3E3632
3E6D976F
3EB6C222
BE2E2ED2
3E9576C3
BDF33B54
BCC3BFDE
BE4DBB69
3ED28F44
3E8B9D8C
BE516DC8
BE060FB4
BE884A02
3E0DFED3
3CBBB9D0
BEA2CC09
BF334936
BD6BE96D
BE12D512
3E365165
BEE78DE5
BF040FAE
3E536D6E
3E7E3FB4
3C9C7FD3
3E3F9326
BDB32E29
3DFD8F90
BF2FFED1
BD938711
3E92997A
BD42A1DB
3E8887BC
BD9EE765
BCE6BA7F
BEBF69AA
BDCF8A54
BDF5B6C7
3D242D01
BE0B59FB
BE86F1FD
BF255CD4
3F19C009
BCB5BFEB
3ED5C3DF
BE8ACCDF
BEB0B0AB
3EAC3D1E
3EE45627
BE4E53DE
3E122FBF
3E760469
3E05B95D
3ECFAA7E
BE21BFF1
3E34102C
3CE4DCF4
BE0D7388
BE1717F5
3E36F941
3DA554CD
3E5DB2D9
BE896567
BE80FABF
3E5EED9C
BE1D78B5
3ECA5897
3C82AC52
3E8E4CE1
3E0DCC5A
3F1C3620
BE49A7A8
BE673D15
BEE5F569
BE69A274
BDAC68BB
BE705BDA
3E4DEAA2
3E928A42
BF0E7AC1
3ECADC5E
BE1B3A06
BE458434
BEBFE0AD
3E91F8A5
3E9CF2B0
3E6449C7
3D84F65A
3E56C3F8
BEBD8B35
BE978C62
3E09FCCD
3ECAED53
3E1A79A7
BDFF49D7
3AF7AA1B
3E03100A
BF1F2CF9
3E6F6E04
BEBA1E37
BD0B4543
BF09AD07
3DDDBBFA
3E94056D
3EC3C110
BE0FEFA2
3C270609
BE487739
BE3DC673
BEC6DC71
BF25D34E
3E1629F6
3DF1C73B
BCC45016
BF00D49D
3E05E3EB
BE1B898E
3E00CF09
3E7D8069
BE3148CD
BED27EE2
BD9C38AE
BD34F4A9
3E85385B
3F150615
3D1A60EC
BE2D446B
BDB51880
3E4296B7
BEEBEB11
3D0BB14C
3E469CC4
BC155BF2
BDFBD0F9
39DF64D5
3EA62573
BD290919
3E9CDA9D
3E13FB62
3EA9BAD9
3E555C3D
3E2B6264
3CB34115
3D78154D
BE08797C
3DF6E839
BE7F4443
3EA00E5B
BE97AF37
BED96F4C
BCF1E8EB
BE6EDE9B
BD02561C
BE7082F2
BDAB3E78
BDCFDF7D
3DCA7ECA
3E2ABC56
BDA7E877
BEB89315
BE0F589C
BEE31224
3ED8E7A6
3ED06748
BEA79919
3E2A5AD7
BE813FB4
BE3C02BD
3DAD218D
BE4AF7A9
3E49CA35
3ED8287A
BE445055
BE0DF9B8
BE18E4C0
3E3B360F
3D8575E5
3F0C87EB
3DDB3AB3
BE23CD5E
BEAA565D
3E7CF185
3E28B61F
BF00C838
BEB3AEF1
BE628930
BEEB98D8
BE1DD4BB
BDAA5AA5
3EF30807
BB3A5A04
BDABF811
BE80DD1B
3D338AE4
BEC28708
3E93F487
BE850708
BD32CD98
3EC00706
3EE4AAB2
3D1E4FFF
BE00F3CF
BE618322
BBAC3278
3E83CBFF
BEC8B8EF
BDCA5923
BE49DDDE
3E23F25A
BEC59D10
3DC1AE36
BEF4B72B
3C94EF46
BE4A97DB
3F13BC6A
3F0BDC86
3DD096AD
BE9EF103
3E2575A6
BE99B0D5
3E990251
3DE13812
BDE0FF58
BF5CD90A
BE988ED5
3E2B5EBA
BE38D4A1
BE27DB84
BDD018ED
BF104B2B
3DCEE8C4
3DD276EE
BEBA6EF3
3D094AF5
BE6668D4
3DAE44D3
BE972EF0
3ED1549B
3D66D079
BBFB98A8
BE638DA9
3ED4B3DE
3EAA332A
BD72C5A8
BE2FA4AC
BDB60D91
BE876AA9
3DCC3349
3E0D6078
3EA386D9
3E91F627
3EDBDE72
3EE7C923
3E28042B
BD069E4D
3DB76EB6
3EA2C92F
BE107E32
BE46DE6B
3DB1483C
3F20DDB6
BD97155E
BE695D6A
3E55AF9A
3E752E80
3EB01AB9
3E7A7228
3EF444D1
3EE04B45
3E5CA799
BE4AFCE8
BE5F5684
3E0A1CF4
3E41A985
3D7C9227
BD4C6D59
BE92B65F
BE3A3A9B
BE19DF6A
3E96881A
BEA28F9E
3C554F68
3E0727B5
BDC180CD
BDA3F741
3E85461F
3E199925
3D48434B
BE065F37
BE0096B4
3D050035
BEC899D5
3DE8EBCC
3D7C6884
3E84323D
BF1CD1C8
BD5AD5BA
BE27BA33
3EAFBFE1
3E2D5C64
BEBEED95
BE4E4A11
3D93BB4D
3E39BBFD
BEAD111A
3EDD4244
BDFD071C
3EA6179D
3ECCFF66
3E28645B
BEBC0110
3EA3FC93
BC21369C
3E72619E
3C689B34
BE8A7492
BDB17B73
3E729E4F
BF37EF9E
BE9E3311
BD405977
3EC9A1A2
BF3249E5
3CDEDD46
BD1191A6
3DC268ED
3E8FA2C3
3EBFF722
3E46CD85
3E91B2D0
BDF6A57D
BBE638AF
3E7E10C2
3DE077D1
3E361615
3DBBCAD6
3F03D621
BE27D31D
BED56C08
BF148418
3E59CED7
3EC24B30
BEE6BE8E
3CCAF5D8
3E1543AF
3DA81683
BE3FA6B4
3E6EC160
3E93042E
3E0204AE
3D4A2540
3C2A632B
BE17383C
BE8333F0
BE229AE0
3EF1DD99
3E805573
BDAFF8E3
3E2983A8
3BF40ABF
BE865A54
3E7352DC
BD328E68
BDA0CFB1
BE6C17A3
BDCD52F4
BEFE831B
BF3A4B71
3C953581
BF2D5FB3
3C913C53
BD0858CF
BEF69CB6
3E80B027
3E9ADEF9
3D2037FC
3D9F3209
3DA819EC
BEFA2795
3E307A22
BC967CB9
BEE45935
3DC0F2FB
3E328A32
3E83CAD5
3CD139FF
BE357264
BDCC3464
BE2CD3F2
BE0F16A7
BEEBC71A
3EAF9911
BF0F171E
3E80B904
3E43387D
BEC595C7
3E006076
3E46782B
3ECFE6FC
BF036433
3E238556
3D9B8C52
3EB6ED06
BE817C8C
3DC74704
BE939DD4
BC83B983
BEEC3863
BE8534B5
BE7BC41D
3E927694
3C887768
3E61AAB3
3C7E7323
BE5B8595
BDBB03C2
3D61F904
3E8E8BEE
3BC2A8DD
3DDA26E4
BCB6D574
3D10DD50
BE1A6FF1
BCE47BC5
BDD802BF
BEA2BEB6
3EDAC491
3DF76511
BDF92A0C
BE8AFFBC
3D39B957
3E30391F
BDFB08A9
BE8ED494
BE398A5D
BF30B123
3EF96F1C
3E521F68
BEFC3A8E
BD7FDFE5
3D17AFFD
3EEC91C0
3E844BA3
BC193A79
3EF286F1
BD539F4C
BEDC7016
BE5EDD03
3F041590
BD9713CE
BE45F2F9
BDFFA07B
BB73E20F
BEC486B4
3D2705CE
3E47923A
BEA38D33
3CDAB63A
3D208DCF
3E84F46C
3DC5B367
3EE5AEDC
BEB377F1
BE4DA0F1
3EA21569
3DDC93FC
BEC232BA
3D03B980
3C23B90D
3E54C626
3E4A9ECD
3E463312
3ECBB951
BD8E2AA4
BEBC1718
BE88E243
3E0D848D
3F098F33
3E0878B3
3D974BD7
3EBADFA5
3D79C2C2
3E78E485
BD3D9A8B
3D265A5A
BF1DB35C
BD0F3159
BE06604A
3E4BB834
3E8A8219
BC19A58E
BE6989BA
3CF468E3
BE9AABCA
BE69CB9A
BDA006C7
3DF9E7D6
3E81F44D
BEB45492
BE33EA2B
3CEBEB1B
BECE8BBA
3C25A658
3E587FB5
BE66391D
BCB11C68
BE0669B0
BEFBB99A
3E1BF0D1
3EC433B7
3EAC219A
3EED55AF
3E25D270
3ECF1840
3E8BC07B
3E11C99E
BED1E6AC
3EA8D8DA
3D475519
BE820A99
3DF9C836
3E8B27BB
BD6AAB4A
3D0D2C1E
BBAB725F
3E59B7C4
3E80E17B
BEC1F789
3E2F5D4C
3F202820
3E1D08B3
BE677F89
BD96856F
BE2B116F
3C153257
3E27B2C9
3E1336CE
BE98F5A8
3DBEE1E4
3E3E4EBD
BDA9A9BB
BF065F0A
3EA0A607
BE6DC232
BEB955BF
BDF0A4D1
BEFEF139
BE3759E1
BE443D8D
3E334711
3D20258D
3AEFD4E5
3D301A11
3CE9EF83
BE6F3EC1
3E42323F
3DFBB17A
BCCE5A26
BED1ACF4
3EE8A405
3EF3B2D5
BE09F5D9
3D9B1EEE
3ECF1611
3DDAFC0D
3E824A20
3E0E6A2C
BEFD7593
BF34F474
3DB0FE5C
BE3B0DFF
3D7F5601
BE0EC59A
BEBC9FB6
3C3B2773
3F14160C
3DBF452E
BEB26200
BE3B4BDF
BDA5C194
BDEF956E
BE179ED0
3E8D490D
3E83DB01
3D2E0E33
3B3C8480
BE80FAA7
BF0DCEAD
BF02C7A7
BE9E4E6C
3DE98D88
3E76D451
BD02B531
BF2C45D9
3EDE89E5
BE44AE2D
3E37879B
3F3E709D
3C5DA08F
3E88AE03
3E12ECF3
BE08CA23
3D2ECA63
3E9D08FC
BE2E4F05
BE06B166
3D46D019
3EAF8CD8
BE05B949
BF0E59FC
3EB115DC
3F09D054
BCFFBBA7
BEF79E97
BDC012EB
BE10C0C7
BCE95EF9
BEB2EE8A
3E28A954
3ED7E443
3EC16D82
BE4EB7DA
3E2DC3A9
BDF21939
BE040E8D
3D69C20B
BD966B57
3E11DABE
BE61D17A
3D10C86F
BDA01A29
BEC035FC
3E3A0C97
BDBFC7BA
3E1CCEC2
BE42CF21
BEF3EB8A
3EB3D13A
3D4A8900
BEC06D79
BEBC137F
3ECEC39B
3B9E0C45
3ED82289
BB77426C
BE61E902
BE2DD38D
BE0E4B6C
BD745AD9
BD98665E
BD8BF14F
BE4FA5B3
BF472E4F
BE835650
3E655DD7
BF1B9FD5
BE80F4D2
BC0EDD1D
38AC8300
BE81F722
BE06D9A2
3E20E05E
3E64C5E6
BDB15C25
BE5B23E8
BF1E6FD3
3D326BFE
3D000ED1
3EE48D01
3E134B87
3E41CC78
3DDA18B3
3CCB7F2F
3E344A62
3E3AE39C
BE8524DD
BD912D42
3E192497
3EE5B7E9
3DB5FD96
3CC9C124
3E106F83
BED3986B
3EEF70D7
BE42E548
3E0A34EB
3DF46A60
BC172F3C
BF188CFD
BEBA6475
3E6C60DC
3F2002D6
BEAF01C1
3E1B757F
BE7F59B7
BE90EFFD
3F52275D
BE25BAE3
BE615371
BDB1A864
3E292CBA
BE64CFBB
BCBF5F56
BF188E28
BEC162A6
3DA94541
3ED1EF99
BE87421A
BE093D43
3E0A963D
BECA2DE0
3E6AE613
