3E551618
3E805140
3EECA655
3DC7D609
BF2287A1
3F067BE5
3DB03A34
BD74F304
BE8A4DF3
3EF24BA1
3D0CA71D
3EAD50B6
3DA0C9BA
BE95CE01
3EC793D3
3EC6FF37
3E6EF55E
BEC7928D
3DF30FEA
3E86AE39
BD0B2D60
BEC3F04E
BD50AF9E
3E5AA95E
3E4D2826
BF1E40B1
BF26A28E
3EE8CFAC
3E4D6A12
3E044DA1
3D888EB3
BDD1B94E
