BEC250A1
BF0143B6
3DC017AD
BE87C41C
BDB3C6E8
BF1AC628
3E103BF5
3ECB96E3
BE71868F
BEC248AB
3D993059
BF4142A8
BF53D97A
BC6F4802
3EBD4B17
3E652C3E
BEBC5466
BF7EFCDB
3E8124A5
BE363C62
BF4E3590
3ED21F66
3DE230B7
3EE6C5DB
3D349FD5
BE968A1C
3C188CA9
3D839A12
BF0A44CC
3F263078
3E8E57D8
BF4966F7
BEC15623
BE4965A6
3E9B660C
BF04B667
3E458EEE
3DC86110
BF406AE6
BE51F0CC
BDFF7101
3DC6ABAF
BF04702B
BF801B1B
3E6434F7
3DEB01CF
BF168869
3EA7AF57
BF85332E
3E9393D3
BF96736B
3E75E653
3EE841E4
3E706849
3D00E088
BDCDDE99
3E7F19DB
3EE3A560
BCDE78E2
3E268FC8
3F09E8F4
3E792CC6
3E8E8ACD
3D91D2F8
BEE9CADE
3CE5622F
3DAAD88C
3DEF39F9
BF94AD00
3E79ECEB
BE0F316F
BED9A8E1
3E25CA6C
3B886798
3D132E86
BF099999
3E52E35A
BE8334D0
3ED00218
BF086E19
BF8E2884
BFA76118
3E51A008
3E304123
3EB3E2DE
3DD028E2
BEBAF448
BD13D4B6
BF7C7A8D
BEFD1834
3E69CF79
3E774E08
BF46EBA1
BE850F51
BF1C0A56
BF6A0BC3
3E163CD9
3E059D8D
3EA8B253
3C1205D1
3E4952E6
BE235D67
3E304CA2
BF49C8B6
BE8AACA9
3DDB7E94
3E90DAAC
BF69F3C7
3DA09C3A
3E575181
3F5F693B
3F20B4FB
3DF7917A
3EB338FF
3EA832B2
BE849B5D
3FC5432B
BE171721
3D2322DD
3C1611FB
BF0C6B5C
3E94E9EB
BF199D9C
BF273822
3F2A073A
BDAA2924
3E42C634
3DAA7F16
3E5EE87C
3EDEA1DA
3D067E39
BEBE7E58
3EB7844A
3D8BD22F
BEC14436
3EB86903
BF1102CE
BDEF90E1
BA9CF519
3D9C5F11
BE43AE5C
BF4B988D
BEDDA753
3DA9C565
3EAAF949
BEC8A0A8
BD1CC4DD
BC75C2B0
BE4F510C
BE9AC3F5
3E259475
3BDA3DE4
3E02427F
3DE86D82
3E304855
BF8F1F4F
BF25B9DA
BECB86B4
BF3C44CA
3EBE7205
3E2A20E9
BEA31DD9
3E4300F3
BF0509DB
3F2C55D9
3E8DE04C
3E9198B9
3E3B785A
BE55A1D5
BF0BDE76
BF48E1A7
BD38FFD6
3E281981
3E547027
3ED49DBA
3EA9965F
BE1ADC5B
3E9AE470
BE8D1B1B
3E926862
BE5FD9EE
BF1452D5
3EAAB197
3EAC9764
BF2B12A1
3EB67565
BE9E019B
BF2D51B9
3E8C297D
BC2F8E99
3EE64CD3
3E4ED3AB
3D97A620
3E78ED87
BED47BF1
3EA76E87
3EB77383
BEB333BC
BF1369A4
3E98ECDE
BF94024F
3DD9D1ED
BCCE27D1
3ECB292B
BE9034B9
BE5C7446
3CA4AA34
3E7CECF5
3EB66C17
3EC95A6E
3DF21D81
BDFE8DA9
BE10ECEF
3E833F10
BE5C4065
BF03B4EA
BE622442
BF64CF4C
3E01AEEB
3E68F2F2
3E01794E
BEDAC37D
3DF08400
3E45EF0A
BF273A05
3F01B434
BF2B5ABB
BF58A234
BDD32539
BE939496
BD458703
BD914669
BE91A302
3E894229
BF0767FF
3E020DB6
BF1F096B
3E3FF6E0
BEDA81CF
3DACF304
BF5818FB
BEEEA680
3E06E954
3EE965DF
3DEA889F
BF15A1E4
3BE2F4AC
BF22F5F9
3E715469
BEE24512
3D05A8DC
3EFF7584
BEA96662
3E51BEBC
BD7CCB88
3DC81647
