3EDE1042
3E113313
BF3BF8BF
BDCAAC74
3E355D27
3DBBA7F5
BCAE032E
BF08295C
3E1A8D02
3E02F533
3E1E071D
3E8D136B
3EA090F5
3D5745A7
BDA1D703
3E8434C0
BEA19654
3E27B91C
3DADE914
BE6512F5
3C85A82B
BECB9BF6
BE476215
BF26223D
3DDB48AB
3DABE1A5
BF32FDBC
3D8FFF68
3EB381F0
BE06123E
3DD5332F
BEE4434B
3EFDDCEE
3E517837
BF37BF9D
3E3867B1
BF8E452B
BC5A448F
BD4DACBC
BF86CE1C
3E7BB27F
BDCB6E08
BD123575
BE6008D7
3E2A31FB
BDD01F4B
BEA7644E
BEC2BFFE
BCF51937
3E179580
3E344B09
BF3DC324
BF50578B
3E6C55CB
BF5C0E20
BEC792AF
3DE967E8
BE250768
BE861716
BDAAA569
BD89D250
3E04C0B4
3E3D2371
BF298DC8
3E93B465
BE2ADE1A
3E101D14
3DBE2E19
3E85C3FF
3D978833
BF06AF6C
BECC571C
3EA3C2D2
3EBBB1A6
3F0ADF0C
3F2564BD
BF22D40B
3D45C376
BC4CB94C
BF0204A9
BE7DC93D
BED2EB2F
3E250B7E
3DE9D7E0
BE732C6A
3D963ED8
3E455C70
3E6ED71C
3EC320E9
3E22A1D0
3E20968A
BE7E122B
3E6B5D38
BF2EFB6D
3E31EE80
3E7466FB
3E2B74E3
3E8BF7D9
BE89BDB6
3E67A180
BE934526
BF3B47EB
3E54A11D
3BC746E6
3EC139DE
3E809451
BF0F2F1E
BD0359D7
3E1D4D8D
3AB7096C
BF572E18
BF35BDC3
BE7E73F5
BECA613F
3E2837CB
3E5B6A5C
3E71D11A
BEB8BDC3
BEB10CAD
3D6A5ADA
BF049B0B
BEC30969
BE89D5D4
BEA44E9E
BEA7D66D
3EA6517A
BF39956F
BC9DB16C
BEAB16B5
BE200F0F
3D8B771F
3D4B91C7
BE0AA64A
3DB3579A
BEDDA724
BF34C7E2
3C72C2CB
3E735105
3E598BBD
3E4D7CD1
3E58D424
3DFDEF14
3DE2CA97
3C5531AB
BE67BBD5
3E9637B8
3D613EB4
BF29DC36
3DE1E29D
3E50903D
BE9EA1CF
3E16D7D4
3E32F1A7
3E32E9AF
3D80517D
3EABDCF5
3D170EF8
BF10981E
3E945A60
3E3434AB
3D8B2CB3
BE82907C
3C3E52C1
BE371DB6
BF0EFB5F
BE66E819
BE1D5476
BEF42007
3E80645B
BEF18A1D
3D4D8295
3DD60691
BEE16C50
3D514A15
3E219555
3EA9DF96
3E08CD9B
3D802815
BE9985F9
BE24E5B4
3EEC2028
BE8E7036
BEDEDA3B
3E8C9635
3E8159A5
BF091F46
3DBD8248
BDB35AE8
3DE5114B
BF881913
3D21767D
BD644910
3DE7B04A
BEBEEEAB
3E27FA45
3E8CBA4D
BF0AC00E
3EEDFB63
3F07FF09
BF6A133B
3D3B750E
3DD3AEAD
3DE1E4E9
BDDFB6FB
3CF794A7
3E811B41
3E81E2D8
BE1DADF6
BE649316
BF5FBBBF
BE3B6BCD
3E6676BE
3E68B557
BDFAA4E7
3E2528C0
BF5AA998
BEB63456
BF3C6177
BE8D8137
3DFD86C4
3DFB5748
3DC13998
3E1C5C94
3E68ADB0
BF38334B
3D87DDFF
BF076B9A
BE877E40
3E75265B
BF1FAA00
BECFEDAE
3E9BA858
BF542244
BF0D3FC2
3CCA1B47
BDBEE0FF
BCFE83D4
3D2D15FE
3E5A6450
3E18DC6E
3EBE06BA
BD092A2E
3EDD0258
3D6EB2B6
3E291313
3E7ED944
3A91E012
3E95B583
BB5C7811
3ED9BCF7
3D90ACAE
BF59332D
BE868DD2
3DF1EE11
BF8202C6
3D7F3929
