3EDECDE3
00000000
3F4973A4
00000000
3EE0129E
00000000
BEB92406
00000000
BEFDD651
00000000
3C28EF38
00000000
BE8702A7
00000000
BECA58F1
00000000
BF1F5164
00000000
3F03D947
00000000
BF28D867
00000000
BDA9BFF5
00000000
3F833CFA
00000000
3E03ED31
00000000
BEF49351
00000000
BD585A1F
00000000
