3D18E63B
3E073579
3E95E141
3DBB35C8
BDAE7CB5
BE5F3581
BE39737B
3DFBF7F8
BE13A0FA
3ED1E70A
3F4A657E
3DF46F98
3E3031D7
3E77F053
3D2FC7C6
BEDB520C
3E40623B
BE9D7253
3E2FD485
3DAE146D
3D5F0D72
BDFCBCFA
3DF3C4AE
3E536F84
BECA6C2F
BCFC1809
3D8E98DC
3D2D4D89
3E955307
BEA194CA
3BEAF1BB
3ECCD8AB
BCC93843
3D64793F
BC90E825
BBD96C83
BDAECB2C
3E9873AA
BE642FF4
3EA56E16
BE2BC5BB
BCEACFF8
3ED4A060
3EBE9D97
3D07A8A6
3EE58F06
3D81269A
3DDC61CE
3DE0742F
BE4B8E80
BEDF25CF
BE1FD52F
3DDFFFE2
3C8F5909
3E664923
3DB98B52
BE52C238
3E6DC0F2
BDD206B0
BE5209B2
BC42CAA0
3C45842E
BE2FD9C7
BE0D79E0
BD6CA1AC
3E803C09
3E76EFA7
BD94194E
BB987A1F
BEAB4CAE
3EAFB915
BE00581C
BF152FC3
3E97D06F
3EB2B911
BDC49A9F
BF01F5E2
3EC11946
BCC4BA7F
BEF1E42A
BE05C729
BE96A503
3EAB84BC
BE0F7F3B
3E7E9AC9
3B6CF4E0
BEA3400B
3E802816
BE360AF4
3ED39D2E
3E60C856
3F434C20
BBD0D154
3E50D3AD
3E2EC5B7
BD07DF2D
3F0FCE0B
3E988FEE
3DC76F78
3B5F6F11
BC17066C
BD766222
BF2900A4
BE518220
BEE73B9B
BD506EFB
3E540E10
3E46500C
BE3D73A6
3D89FC7F
BEA11E45
BECA4248
3F2538B4
3EE2AEF6
3E0F49D4
BF31DDC9
3E9B522C
3D1B9E64
3D9386C7
BEBFDB30
BE75B7C7
BEA7FC56
BE136BB7
BE21A391
BE8592BD
BE715FD8
BD1AF2A2
3DD295AB
BE37D7F7
BE1F6E58
BDB4663E
BE6AD660
BDE28C0B
BF5DABAC
BD8DBC69
BEBA5CD3
BD57D4DB
BE96C8A3
3EF91363
BE2473BD
3E80099B
BE34C5F1
BD866864
B95D9069
BC653006
3EE169DD
3C2CFB2B
3E930466
3E114FA8
BE573692
BE6913BE
3DB28115
BD3EE91A
BA2659F1
BE421A99
BDB230A8
3D9EF227
3E131AC2
3D6F2666
BEFAE9F8
BE961C4F
BEBCFE75
3CDCFD82
3CF80B6F
3D4C0143
3D8C789C
3EA17B31
3EB5A3F7
BC217A99
BE88064C
3B8CBE29
3DAAE04F
BEAD2FA6
3E8D0F2A
BEB363DB
3F38BFB2
BC761C1C
3E867648
BE0A88F6
BE44BCF4
BE6DAA73
3D9FC347
BEFCA7A3
3E9C69A6
3EA22912
3EB190AB
3F0B9F58
BF0D8CC9
3F383F59
BE76CD39
BD89DE45
BF148ACC
BE930D63
3E3EAE49
BC56FCD1
BEE0D885
BEAC6DE9
BE03CA49
BD430EEB
BDF0B576
BF37A5CD
3ED281A2
BE0CDDB3
3D7829B8
3F02A4FE
BE94C569
BE37CC1D
3E49244B
3F0EDCA8
3EF26A6E
BE76AB5F
BD93570C
BDD49BD1
3DF76CA1
3C98BF84
3CEEF373
BE219F7F
3E2008CD
BE0F49F1
3E445892
3C21F57E
3DE388CD
BDEF012D
BE68281B
3E581027
BD850428
BD4D8760
3E3192D9
3E689D81
3F03544D
BEC2F6B0
3D8E5649
BDBA2E5D
3E32627D
3E800128
3F0413EF
3F1ACC39
3DE3AE68
3E804BB7
3E57D379
3E35430F
3C87E572
3E9DA343
3E4FB6FB
3D72E535
BE348087
BE783612
BE464640
BE88E756
BE6EC87F
BE7D5CC3
3AE59296
3ED8E8B8
3D0B162C
BDEFC775
3E9A1CEE
3DA44FC3
3DB05568
BC7BFB64
3E06519F
3D9C4637
3DBBFF3E
3DC79C46
BE6038B4
BED6FD61
3F1DF275
BE2F06AA
3EE318E9
BDE18FF4
3EA2049C
BE70F499
3E999C56
3E23BECB
3ECCA5D3
BD6217C8
3E5C82A4
BD88AC09
BD9C6E8B
BF141938
BEAE40AA
BEC4497A
3DD60D8D
BE363961
BD0FF23E
3EC2BDE2
3B06D547
BE0946B4
BEB9AC96
BE008F8A
BEC74D1A
3E087E62
BE183BB6
3C2D46F6
BD2E21C9
3D74AA5C
3BF7EB09
BE57E1BA
BDDF41C0
BD6FEC5C
BE2E3DE0
3E04C2E6
BE13451D
3EFEFD02
BE75C3A4
BF0CD069
3E0C898E
3EFA1E1B
BDD5C9E8
BE8E439B
3EA045B8
3E85E05F
BD6325CF
3F0E2D2F
BE7EE3A5
3D8431FD
BE205265
BE90B9AA
3E3E02AC
3DF94734
3E329A8A
3EE63AAE
3D059D13
3E537F6E
3E243AF9
3EAE0AE7
3E184CCE
3E888D15
3E4FA24D
BE70751C
3ECE65CA
3EA1A505
3EA329B7
BE613B47
3E4754EF
3DBBC586
3F1339C7
3DF79BED
3EAB0FA0
3DE8FE39
3CB545C2
3EA859A6
BDD0A3D8
BD3B2070
3CF7C452
BE8A4CB2
3E8E0C9E
BEA68573
BCDE826C
BDBCD8B0
3E35DE7B
BE9E1A4E
3C0D9C8B
BD548680
BF120F17
3F2C6C5A
3DE737AF
BE0C91C0
BDA3C7D5
3ED4E06D
BE9F6C7C
3D8D4A53
3EBC0C76
BE7AF897
3E3C06A9
BD225671
3BB3B63B
BE62D2D3
3E94D588
3D26C638
BE556DC7
BE820B33
BEDFB483
BE0AAA31
3F18B898
3EC5AE54
3EABF03D
BE15F1BD
3D76AF0E
3DFF15A2
3E6E38C8
3DC6D799
BC8609E0
3DEF7092
3E8E6146
BD30EA4B
BE2B4C7F
3D906D76
3E8212B6
BDDA0A1A
3F5C5E18
3EA3739A
BE27857A
BDAB43D5
3E830C6B
BE80C772
3EA9D8CB
3D883A9A
3EA0DAE8
3E080226
3E00F4D9
3D96EF43
3EB6921C
BCB0C910
3DBA7F7F
BE006E12
3E902E71
BC884B53
3C7A0F05
3E3F64BF
3E95E54B
3EC5639A
3D819BD4
BEC6F349
3DAE3C90
BEE705D3
BE64E59A
3E5170B4
3BC0D588
BE1128A7
3E36F704
3E3D6683
3E5778AA
3DE28F19
3E7419FA
BEC8D131
BEB4FB9C
BE18F2C5
BD274D2E
BE41905E
BE013C87
BF030863
BDD9E367
BE45A904
BC563683
BDA29F0B
BDECF38A
BE6C830B
BEB99A74
3EC88F91
BE18FC0F
BE35CA27
BE548C56
BD946A15
BEB2BD6B
BEC7ED04
BF52BE54
BF275362
BE5A4D8F
BED607F1
3EA9C50F
3E2C7234
BE185405
BF070F4C
BF19537E
BE815A50
BEE515A3
BD1F3697
BF433EE2
BF041CE6
BF2A7C33
BDDCBB82
BDCBBA08
3EC7C9B1
BD73406F
3D935106
3EC217D4
BF028BE8
BBED2964
BEA88787
BDA49F99
BE96795A
3DED28DB
BED59E4E
3DF5C40E
3E56F339
BED4DFD4
3E28F24D
BE22FC3B
BEBC0100
BE4DB64C
BE914784
3DD833EA
3F84D3BD
BEBD97BE
BD3A1781
BDD25C43
3E122E4C
3DEAD809
3E21C148
3E15253C
BD554704
3E94EDA0
3E222169
3EA25061
BE103B61
3EA65443
3E536CCC
BD8C2CA3
3E9C9732
3E622FB0
BE624954
BE892ED4
BE91B3B8
3E13FEDA
BE80819B
BEEE6005
3CFE6F51
BF2697D2
3BBBB5E4
BE774EB3
3F826E29
3EB70D44
3D3FD454
3E472708
3E4F722D
3C5F2661
3E296785
BDA6BE1A
3CE4EB4C
3E924F9B
BF61E3B1
3F34C0B0
BDF2FDB4
3DE37A47
BD7BBEFB
3ED71B94
BED0CD19
3EF850BA
3E28C792
BE176C51
3EA09F83
3E11F86D
3E3E4E52
3BF69E98
BE307BEB
3DDFB906
3D936D7E
3EEF1D5E
3E0640D1
3EFC5B15
BECF2812
3EE1749B
BF22893E
3EA55004
BD47FF33
BE889F32
BE6FC521
BD12B681
3EEC4F32
BEE734CC
BE149516
3D13A709
BE856B37
BCCA92B0
BDB7AEB6
3E37158B
3E725320
BE14D4F6
3EE21D11
BD8EEE73
BEBA4AB5
BDD8852D
BE4A25A8
3F095DD9
BEB6E16A
BD0A0DA0
3E674E55
3E1F19DA
BEDD362D
3E06CDC4
3F04AACD
3EA93B19
BE20EF9C
3E87E898
BCCD2954
BDAC8211
BE1F3EAC
BE40A8A2
3EC56E0A
BD94C831
BE6538EE
3DA51D4D
3E970FBB
BEBD2B5C
3D2F6513
3E3DC63A
3EA4F87D
3E8E26E6
BD1BA3DD
3E4AB9B8
3D51ADE0
3D4F01E9
3F001A0C
BE900230
3E08BA9D
3EE280E5
3E50F1ED
3D821735
BE36B67C
3C953907
BE63AC46
3EC5B540
BD9B577C
3EC17D42
BEF35325
3E4DEFC1
BDEEFC13
3E48D7C7
3D0A461D
BDF1BDB2
3E4FC95B
BE143DA8
BC36F408
BECD7C43
BE127B0F
3DB40273
BE3B6612
BF68FC74
3E0DB52B
BF2E3C5A
3D855D42
BE84F742
3F2E5EFF
BE2EF271
3E1709D8
3E72F70C
3E518194
3EBE26E7
3DEE69AD
BE333CC5
3D933FBC
BE4AF748
BE7839E9
BED2C40A
BE55449A
3DF88D09
3D2BBEF0
BD33120E
3C7B8D95
BE3CD984
BE5406C7
3EA68C85
BD913BCE
3C82120E
BDB43D4C
3C9BB17C
3DDA91FF
BAF971C6
BF1BA8BC
BDA00D84
3E56671B
3DB79817
3E7AC1A7
BDAED0FD
BE9279F6
BE313378
BBE48880
BE281FE7
BDC9A831
3D5480BE
3F9891DB
3E60F470
3DEE35FE
3F3168DE
BE2B392D
BE380828
BE90C1C8
3F20D841
3C675DA7
3E784B9F
BEA79CBF
3F211CE7
BF4DEB03
BEC4F554
3C981088
3ECD5411
3D161185
3EB151AE
BC8ADB70
3EFB8DDA
BEE86710
BE8462DC
3E6149D7
3E59181B
3DDC7C39
3E8408AC
3E9E3596
BE540DA5
3E81E30D
BEB2CD29
3D54D773
BEB96567
3EF4A85F
BE3981EC
BE334D7C
BF2EB8DA
BC826A43
BDDC1FAA
BEFB14F5
BE0300CE
BF85FD10
3CCBC8C1
3B3773CA
BDFC704B
BD41A10D
BEB8AC42
BEF2CEF7
BDEF57FA
BE207991
3DAF207A
BEF22AAB
BDB905CE
BF2ACA04
3DD1EE8C
3DF1F903
BE224190
BC7BD3AB
BEB46921
BE4116A9
3B2D5538
BDBA6BF7
3DBEDB54
BCE4D16B
3EBB1EB4
3DCB0705
3EFFC2D6
BF3B6F84
BE47E7DF
BD898277
3BC3C755
3E66644F
BE798D24
BE8092C8
BEACB27B
3EDD463D
3D6AE808
3E034AFC
BE174B1D
3E3F3730
3E8E726A
3E2F68ED
BDC623E6
BE402382
BCE95183
BDECBDDC
3F01C595
3EC9C07F
3EEBFE01
BEB42F5E
3E6D992D
BF33EBFC
3E07515D
3E833685
3F354EB7
3E02F20F
BDD29BB5
BD056496
BEAF8944
BEB12E1E
3E7308E6
3E4795FA
BDE95F66
3EF28109
3EF4435F
BEB352DE
BE1EE440
BDAC92FA
3E2C0AEE
BEB6BF49
3ECFA75B
3DA3C5F7
3EB76427
BDFCB004
3EA10CB3
BE2D4789
3EE94A56
BE35638D
BD54D3CD
3C740CA2
BEC88CD0
3E9E3B29
3B1823F9
BD75673D
BDC6AAE5
BF4585EF
BD4040BD
3DD7E373
3F332AF1
BE5CB277
BD90576D
3DF0F610
3E89817F
BDE83A91
BDF09868
BBB3AFF0
BD9D4ABC
BE93BE09
3E1EF81D
BB3A1032
BDB20227
3EA7813A
BEF7B9CF
BEA5BECC
BF0615BB
BE64E183
3EBC6F9A
3E375165
3E34FB6C
3BBAE356
BE22BE81
3DAD2767
BDC645ED
BE134382
3D999B19
3F175BA4
BF076256
3E578504
3E5CF8FB
BEBE71F2
3E7A630F
3D9DEDFF
3E895073
BEF2EFC2
3CC1EED8
BF5EC9D4
3C108635
BE279FFF
3E2DBBB7
3E219327
3D2BB4FA
3A8856A6
3DD90727
3D961420
3EA00056
3E41AB45
BE7D1945
3E718104
3F99286D
3F4216FC
3DBCF220
BE4695FF
3D8D1565
3DB64D08
BD37D65E
3D50D228
3BABC56B
3CE80141
BDB2F05E
BABEE0FC
BBA24753
3EB2DDEC
3D7545ED
3ED6AFD4
3E55189C
3E7779AA
3F47E722
BE6E90AA
BED1DDB5
3E85CFFA
3E9D4EF6
3EED0FDD
3ED8299F
BCD189DB
3D4AD546
BE28BE13
3E901358
BEC1764D
BDCBF89C
BEBDBD81
BD28BD74
BEF9C298
3D15A231
3DB7BF5A
BED974C6
3CAD2064
BEE912CB
3EB8C602
BEC40F70
3E93F85A
BEDD54E4
BF14B895
BE42F8DC
3E18A5FC
3F8DB75C
BEA37384
3C213626
BE89001D
3ECC0F30
3AD91A8E
3CC1B5FD
BE4DF4B3
3E4D375F
BD8B3D20
3D22D857
BE4ECE2B
BDFF9E2A
BEA6696D
3DF4F307
BEB2FEF0
BEB210EF
BF0E0A4F
BE623796
BCE6D115
3D7C0232
BE9AA3DC
BD9D4848
BD4DF5B4
BF67C566
3E8594C3
BF4EBC92
3E2BB1A4
BE9F4E61
3E13FC69
3DBB619D
BEB60E3B
BF152087
3D678AC4
3D025B67
BE780065
BF01BCD7
3F45211F
BD87A294
BEAE679E
BF0C6E3C
3EA3F438
BF38F3E0
3EB85C6E
BE82A07A
3CD6E956
3E0D6241
BF05C77E
BCE8E9A9
3D17BC01
BD829625
BE1454DF
3E3B973D
BE7E378E
3D8791DD
3E0A51F4
3E59F55F
3E6174A8
BE4489C6
BD22FB2F
BDBBB6C1
3C4ADA4F
BDF4C3B5
3D558AEC
BE9668DE
3CA2EF39
BE0E84EE
3ED8490F
BD917523
BDF4F012
3DA54816
3D686242
BE96A9B3
BE1D9F43
3DE29F4C
BE271E5C
3EC8FF71
3E0F994C
BD9289EE
BE14EA3B
3D8D9B9E
BD88B84A
BDE0EC84
BF02F19D
3DAA3C1D
3F100DD6
BF0E0462
3F1782C3
BEFF5C5F
BF136C41
BED74929
3EA36025
3D04F868
3E5F9568
BEE1B33C
3E19651F
3D9171D3
3E7AFDDD
3E9BBCFD
3EF1A9CA
3C4E44FD
BE1CF9B8
3E14C71D
3A6B05C8
3E5127E6
BF090E7A
3E9E8D91
3DA13F70
3EEBC79C
3CA44F4A
3E70BA26
3A468F9C
BE0F5527
3E1EF928
3F17ECD6
BE2D1C31
3E60CEAB
BE8E75E2
3EBAAD44
3E6AC9D5
3E3EBD3F
3EA164E5
3E7F6F49
3CCBAF4B
BF00FBBA
3D688E01
BDCA1059
BEF1ECB7
BC4BFD84
3D8C0C95
BEFD378E
3D507729
3E1B76AB
BF03D506
BE913C1C
BE909F52
BE50214B
BDFD690F
BCA86F80
BD182449
3E909677
