BF254B9B
3E991F59
3D0E7F2F
BFB6F404
BF2EFD1C
BF1FD8A9
3E948EF3
BDE94F82
3E37FD9E
BEA0FEE8
3E442A95
BE5C66F2
BF14A923
BE659F7B
BF883C52
3E40C15D
3F212DCB
3E926A29
BF2FE77D
BF5C6BAE
BE18CFE4
3DD03EE7
BDFDBF6A
BEDCEFB7
BD764B8E
BEB1B88B
BE580144
3F0122C1
BF5B126F
3E832B78
3EF46223
3F1D89AC
3EC9AD46
BFA9DB28
BE4D75DD
3E0B1044
BE95B52B
3E196A16
BECCC77D
3ECD5D4D
3F0A400C
3E0A5AC4
3EB4494F
3E9D774B
BEE1A554
BF033B88
3EAF99A3
BF56C385
BEC45484
3E814729
BE83611E
BF334FA3
BFB40F2A
3E91B12C
3EA376C4
3F1EB8C7
BF8E4E1B
3E2F8175
3E31BE2B
BDE397E1
BE1976A3
BE9976AC
3E62C610
BD533CD1
BE69384F
3E37C11B
3DEF906E
3E1A2611
3EF2475C
BE209E1A
BF84718B
BF83085F
3E752AD5
BCEB3802
BE5CCDB0
3DF37559
BF80764F
BF431577
BF00993C
3E6D90EC
3F2949FD
BF67D46F
3E526E62
3E562478
BE128FFF
3E4DFBC2
3E9F8593
3E92CEC3
BE0EBF31
3BA196FF
BEFD5C2F
3ED990E8
BE912306
3CA9BE90
3EB04DBF
3E233F47
3D4237E6
3DE37AD0
3E6CF43A
3E5B4B71
3D58CE96
BF827C92
3E7EB0F3
3D95F39F
3DC895CF
BF535C73
3E17C968
3E35D3EC
3DB76B61
3E1C7A5B
BECEAF7D
3EA38A24
BEFC0588
3D362622
3E9B54A4
3E521848
BF47378B
3EE799C8
BF87759F
BEDAC40E
BF61973F
3EB201E3
3F54D901
BF06C222
3E85D79A
3E28C7AD
3EBBD28E
BC28E054
BFA1C0B9
BFA9760B
3E2C0963
BEAAC7CA
3E984847
3EAA1C29
3E98A80E
3E2A660F
3ECB9AD3
BF94F0B7
3E44C83C
BF3F37BA
3EDA990C
BED2EB3E
3ED7B3D3
3E4359E1
3EEC9DBF
BF7A26FF
3E3AFA2C
3E13D211
BED5F7A1
3DBA15A6
BEF34784
3E084602
3E8A245A
BD60EE98
BF8BC2E9
3EDDCDD4
BF929653
3E5B52AD
3B9F7DB4
BEF06F7A
3E07632F
3EF394CA
3E813EC9
3EA72BA0
BF2CD533
BD0FD3E8
3E00E1AE
3EC0A28E
3E08FE12
3E7D1901
3EE5CBF4
BECD1919
BE5DEEEB
3E38A99C
3E0A542F
BF087C30
BF472796
3EA3A387
BF241039
BF911BD4
BC232823
BF0776F8
3EB8660F
BF98940C
3EB3142F
BF18CD6F
3E3DA9FA
BE9FB4DD
3DE588A2
BF225F76
BEC82D09
3E79D3D3
3E34CAE6
BF7EEF0A
BF8804E4
BE503565
BF65D93D
BF90F02B
BF88D97B
3CBC472E
BE57CABA
3DE7EE58
BE8E1F34
BF3C483A
3EC468C5
3E637E3A
BF6D2C0B
3E53E9D9
BDC4D271
BF794A64
3E4E4385
BE95FA5B
BEE61B17
3E68F14C
BF5D3BB4
BF458087
BF47E56B
3F2C0B35
3E909C09
BE90FEA0
3E4594C6
3E1E8152
3E63584A
3DA461AB
BF2DB595
3E8085C8
3F26F0F9
BEC1C306
BEF6ADE9
BEC88855
3E6C714E
BD6EEBDE
BEC7FA66
BE260659
BF2878D6
3D38F8D0
BF4859FF
BF972707
3D4815F6
3DE31698
3E5E4CAC
3E8014BA
BF4BB2DC
3C452A4C
3CE3DFEF
BF39856E
BF940FCC
3E4774CA
BDBB650A
BE958415
BE1AE362
3E760E0B
3ED528E6
BF910D12
3F21CE4C
3ED877DA
