3EAE7BD2
3DE3B1CF
BE348DEA
3EF66B66
BE3A524C
3EDD819C
3F00B1CA
BE9B7A40
BEEB3C82
BE1EBF09
BDA0F596
3D0A2F18
BEC5205A
3ED7865A
3DE6DF11
3E68C25F
3F056AFC
BD2DB3BD
BED86BF8
BE444B5B
3E8DC3A3
BE0FE3E6
BE76EAC1
BEABB4E1
3E85975B
3E642E77
BEFD47BF
3D945D20
BEB2091C
BEF05F5D
3E6E3457
BECABB95
3EDC8C2B
BE43E384
3F31ED85
BE856E98
3E923539
3D830AFB
BD4DFBB1
3F09DA6E
3EEAEAE4
3EBE2C16
3E084C00
BE69A638
BD8F1AB0
3EDE47A0
3EBE77BD
BE6B9D76
3E14A715
BF1E65BC
3F17EC22
BE903BA6
BF14F924
BF1C6026
BED2CDC6
3ED892BE
BE4C645E
BE91176E
BEB0427F
3E048233
3E70DFBB
BEE8B19E
BE5D8999
3E20AB4F
3D8E42F1
BE1698CB
BC553E4B
BE44A383
BEA21370
3E764A47
3D490BBD
BE95B864
BD0EAA88
3E3D4CFC
3CE69ABF
3E178494
3EDBD5C8
3E174FDC
BDE92D89
BE337683
BE1F4D5F
BED15A0B
BF01B2C4
3E26915C
3EF727F2
3EEE36C8
BE926A8E
BE1B93C6
3EB7A47F
BE6704BA
3EECA197
3E887396
3F033D2F
BE61BF71
3F097E08
BE8EBE62
BE3CCBB1
3E73979D
BC6FCD2D
3E413EA4
3F1E74E4
BE888566
3E075C0F
3EA770D0
BE1CC9F5
BEED9E65
BECC2E11
3F02059E
BEE13DD1
3DEC17B9
BE6C2A72
BE9B048B
3E74465E
3DB6A42B
3D0132E6
BD5DF64B
BE70AF6C
BE14BA74
BE9AAA8F
3E69DB2C
3E96F670
3ECB4BE5
BF0A5FC0
BEA0F38D
BEAC602B
BD983AD1
3DAFA604
3BC9FFA8
