3D337357
3ED2FCC8
BB3A22D1
3D430B93
BE0000E2
3C9751FC
3D9FE780
BECF2C25
BE678245
3E3AF1D6
BEA9323F
3E9F4CCB
3E15AD2F
BEB6B2DE
BE3EE3E0
BF5CA3C3
BE3923BA
BE8E1B9D
BD0291E6
BE854CC2
3F0580F6
3D6974BE
BF7BA083
3EA0E514
BD8839B4
BD56C8D2
3D74FDAB
3DA6FAFA
3EDD6AB8
3E43E462
BE9C1DB3
3CF4E723
BE16C755
BF31CAB6
3DB97E5E
3EF52D3C
BF56260F
3E4BC3FC
BEB9CF2E
BE1FE12C
BF2EFD73
BEAE110B
BEA745FB
3C8A89D1
3E541654
3DF12A8C
3E0AFF30
BD5A3538
BE9854D4
BED59B97
3DC43B9F
BD04E57D
BDCF75F0
BE51B48D
3E504CE5
BD5976A7
3E7F74F5
3E90D06F
3E914785
3D4DBB1F
3F0ED618
3C5EFDA7
3E08354B
3E3011BF
BE53CCD0
BE0EF2B8
BE67398F
3F280D3D
BD03630F
3E1D4F45
3D5DDD4B
BEA974BD
3DBD18E7
3E9EF99C
3E733C29
3E8EC8EB
3E0B391E
BEC082CC
BD0C82F6
3CEA2528
3E9457A5
3E385728
3D8842F2
BF48B3C3
3D11A6C6
BED271CD
BDD458B8
BE27B3D4
BECED751
BE13A37B
3E14A709
3E9EAC10
BEF1ADCC
3E7AE04C
BC53489D
3E7C5DA1
3EC3F1F3
3DB5564F
BE9AE414
BDC65E0B
3DC71232
3DF9537E
BEAF534E
BEA7C03B
3E307B41
BDBCD690
3EB1287B
BF3F7FC0
BE0485BF
3AC12320
3E19BD93
3E950B47
3F1CC5AE
3D0CA171
3EEC2559
BE365C93
3EE25F85
3E09CE74
3CB0B2EB
3F0D409D
BD1E9ECA
BE2535D4
BEED6FC4
BD8AD238
BF1B4B5C
BE1E5C6C
BED68618
BE22E72F
BC6B0DE0
3DC57653
BCD59416
BE442496
3DF1BF20
BF3D4ED4
BC1F15BA
3ED8FE35
3F46797A
3DF66F86
3D813C6A
BE2805F4
3E1B0F27
BD7044BC
3ED9DFFE
BE7036CE
BEBC3BF9
3E2F863F
BE5BA0E7
BDC53352
3E99A4F8
3D1EDB90
BDC82AC0
3C45A1F6
BE824D2A
BC5A3657
BE537E02
BDA0AE03
3F137536
3E00E1F9
BF0CD496
BEE4F12A
3E8DD578
3F03C79E
BEC9209D
BE421208
BD39DD36
3E0D9DFE
BC589AF7
BE4D44E3
3DBAA790
BD7B3A9C
3F00BBA3
BE6253A1
BED6F39C
3EB0FCE3
3E24C313
3E9D4344
BE7EA4AD
3C88A382
BE703F41
3E5B55BB
BE069B6C
3F15B7CA
3ECA9348
3EAD803D
3D98C4A5
3D485722
BEAE907D
BE7D422F
BE80ED75
BD3D06E7
BE57A172
3EC666F8
BF0DC9BA
3BEE970C
BF214B33
BE878B10
BF1A538C
BD444AE3
3DB92A92
3E0305B6
BDAA9DFB
3DAA1630
BDF37CE4
3DE83D37
3CCF1D7A
BEF9100C
BEDDB695
BD7235F0
BE385B98
3E404DBF
3EE34433
BEDCE062
3E78A69A
BE25A4B2
3F7BCFEE
BE14A186
BDE2C53C
3E8BDA94
3EA1952E
3C4F5B1D
3E3145D1
BED52D4E
BDABD047
B9C1FDE7
BE512F55
3E8A8C6C
3ECCA85A
3EDE79A9
BE3B1C6A
3E624FD2
BE805308
BDE60654
BE9E5DA6
3E7BFA70
BE26EE10
BD82E7C0
BE08DBB1
3E07D3B6
3E91E7C6
3E83123C
BE084600
BC7CE92A
3E36E3C3
3E933EC7
3BC976C1
BE38F4DD
BEF8C599
3E9845F1
3E418D92
3E945382
BF2B33B5
BEB78B10
3E038520
3D0889C2
3E84AEE3
BEADD60F
3EE1033B
3DCC5918
BE6589BC
BDE51A83
BD337273
3E873B63
BB5213B4
3E047102
3DCD8FE9
BE07637A
3E2B0634
3E3646AC
BD95445D
BF2F1ED2
BCC57484
BEA45C72
BD85A8A2
BD9BD22A
3E332ED9
3EA49D33
3E7AEDBC
3E06563B
BE70DB3C
3E1D01E2
3E429211
3CD366F5
BF21BCF4
3DA58EA6
BE102011
3F68F9E7
BE7F8F54
3BEB0BE8
BE419E90
3E074C18
BEE59BF2
3EC12F6D
BF01237F
BEBE6F9A
BE45536F
BD9DFED1
BD8B906F
3DF60961
BE626026
3EEF890D
BE336BE4
BD20F9C5
BD979764
BA7116AE
BF481EE1
3E103EB5
BE64B614
3E6772EF
BE84E13A
BDF3B3BD
3E8CCA9B
3CD04161
3E090D21
BE737EC5
3E4E9177
BE74BA8A
BC96352B
3E6CBD10
3ED54839
3E3AE17D
BE0E9612
3E484263
3EA6B4B9
3E6C63C1
3D52FAFF
BD1D7541
3DC6B53E
BD37DAF3
3EEA3A82
3C3F6586
3F046E10
3EAAC3E5
3C4C2EA2
3DAD7AF7
BD8F4D4F
BEA85FCA
3F80467A
BDE856B8
3EF8F426
3E8D38AC
3D37A419
3E985CC1
3C9F8577
3B3E96FF
BF2E9020
BCFDDB12
BB4EA798
BD664107
3DCC75DD
BD98C90B
3E1F9CF6
BF00C93A
3DF8A6DD
3E43F294
BEB5473C
BE0CA5E2
BEE296CD
3E484F30
3E89ADEE
BED0D1C5
BE940F4F
BE89240D
BDAA8AF5
3E715E1C
BF32D6E7
3ED33BEC
3EA202FF
BE39C949
3E4AE394
BD2EAA52
3DF09DC7
BF028695
BE696E01
BF519F44
3E37A591
3E0EFB43
3AACCE2A
3D31C6D7
3EC71C8C
3E845D9A
BE88BB11
3D0CA426
BDC2C537
BE371083
BE29357F
BE2011A0
3E302848
BF15CE18
BDB36F43
BDD8F099
3EF54E2A
3CDF297B
BE813F3A
BE996369
BC4242E6
BF06393B
3E8882AE
3CB285C9
BEF6FBBF
BE02B629
BF014773
BDAC1702
3EFEDB96
BE0E1366
BB7E95F3
BED2A272
BCA4F6AA
BEC3DA9E
BF45C653
3EAC47CB
BE6FD90A
3E99E85B
3C2F2F22
BF03B555
BDC34821
3EB2FCA9
BD406296
BEF7359C
BDA5E96E
3E89A86A
3EA39CF5
3E34E98D
BD884E74
3E04B5ED
BEB56ECD
3E0C38B6
3E0FD1A5
BE48F684
BEF993A2
3E064249
3DCF30CD
3D96A4D6
3F191513
BDC8E2B6
3F412281
3CAC452D
3D7F5184
3EDED1EE
3DA12545
BBE8ABA6
BCD92ED6
3CE70654
BE74AEAF
BE090B53
3DCCF852
BE92C431
3CF32E9B
BE275478
BE3FB11C
BE8E10F4
3D125B3F
3D39AEB8
BD75B482
3EFBE716
BD786AE3
3E80F225
BEE924CC
3EAA1928
BE57F1B6
3EB15060
BE3F8E12
BEAF5610
3EBFDCC2
3E34FA4B
BE155E6B
3D944F16
3EA3B47F
BEB05B6E
3E13E3A8
3DD43FE3
3E5B8E32
BDDDF7B6
BDEB7363
BEADB0C0
3F2574F6
BE8F437B
BE08214D
3E0771D9
BF53DE96
BCA72A3B
BEB1FDE5
3ECA0EAE
BC51E4C4
3ED40F29
BB8A9F96
3F1CB2D1
3D82E2D1
BED4EAE7
3DBE5D77
BE84F49B
3E991A9E
3ED7FF54
3EACD4D8
BC96EA1D
BE4CE2A4
BDFE1B56
3DF86A5D
BD094FD8
3E7C84AD
BDA8C141
BB6B45B4
BD16F5DB
3DDA9B72
3EB7E2C3
BE00730C
BE9D04D7
BD412D5C
BDD79A71
3D2D9BF8
3E36C1C3
3E9074DF
3CB27EFE
3E742ED1
BEF2E953
BDAE20D4
BD2069D5
BF894B32
BE9389A2
3EF2F5A0
BE0402E7
BE819921
BCAF47D7
BDD17FE2
3E05F48E
3DB2FF36
BDF52EC3
BE02C853
BF3C87CD
3E00AC99
3EBA6980
3E63D3E7
BE095402
3E9135BD
BEB81F16
3EAC8794
BBB5535E
3DDF90CF
3E6DD085
BE638A4E
BEAEEE82
3DC7749C
3E8949A4
BE2973E6
3E07CAC2
3F0437C7
3D9706AF
3EC8429E
3D85AC73
BD9355E3
3DE6F820
3E4B0D9B
BE9DD0B2
BEA76826
3DA5FC4F
3E86A32D
3DB18943
3F3A4DC3
3F0C3F56
BF92643A
3E7F758D
BC12088B
BE18554E
3D8D6910
3DE2AB66
BEB7EB4C
3E51B6FC
BF1034FF
BEC0C93A
BC9CFD51
BEA480A8
3E5DF4E1
3CC2716A
3DA029CF
BDCFB085
3D60E1C5
BDCA3B0F
3EB9AE12
3BBE26C2
BDEAA623
3E09158A
BF388AD2
3E89A682
BE438E91
3E7D1295
BE9C02CE
3E037DED
3E137E53
3E9101BD
BE6692AE
BDE8295F
3EC2CBF2
3ED527BC
3D27B556
BE8737A6
3DD2F9D4
3E3038A7
BC9AB61F
BE5BF478
3E1BF0B0
3EDA78FD
3D83036D
3D1F21FC
BD8EF1CB
BE03C361
3E3E2EA0
BE9595E4
3D9D8D28
BDA9B4C3
BEA3F8C3
BBD7CAD8
BE25F138
3D4DB8E8
BCBC4F87
BD616F11
3EBA6024
BCA910B0
BE947A71
3EE02574
3D9FF902
3D5460EE
BE1AFC62
BCA92964
BE2E1028
BC68AFF7
BDDE8200
BE2F0C9F
BDAB987D
3E3B8C36
BEC463C5
BDB2F589
BE8E7A77
BD9E853A
BD118B7E
3EEF3039
3F0D89E2
BEA003F3
BD676128
BDC7455F
BEF92C6B
BE18C118
BD49DB13
BE94377B
BDDAAC35
BD6D14AB
BDD8E79F
3F02F23A
3E351A92
BEE08B3D
3EA72712
BDD4C3CB
BE62EB97
3E10CAC3
BE101CCC
3F125188
BEE7EC80
3E6F9D85
3E8E2FCF
BDD72D49
3E4B9AC2
3EB2959B
BF0DD599
3E54A160
3DF59911
3E7C7A44
BC85721A
3E94408C
3F38A9AC
BDEA6741
BEA9EF4A
BDDA7578
BC0382CC
BC249348
BD55F72D
BE82BF0B
3DB9F937
BEAFE65C
BE814BF9
BD6AA109
3D9F09C1
3D1722B9
BDAD6B74
3E5095F4
3E9FEF54
3E75F338
3E819CCE
BDA9CD97
3DD2C6BA
3E85F83A
BDBCA8B0
3CEEE17A
3DFA6B0E
3F472772
3E826FD9
3EE7F226
BE1AF30C
3DDE7FCD
BEE81F2B
BE0AE261
BEF312F7
BDB55598
BD0D3CF5
BE0A1A0B
BEB3779D
3D1DB720
3C6D03EF
BE9A1E1B
BDBF9722
3F28CDF7
BE8B7D25
3EF84F1B
BD4EBB09
BE881921
BD2D0343
3DFE49A9
3E657D00
BD597768
3E893B0B
BB47698C
BEEA8EE2
BE2FB365
3E78FB68
3E69C250
BE668E94
BE342B96
BDC52782
BEBCFE10
BE97BD2F
BE32EC2F
3E0CCA32
3E7C15C7
BE66EE8A
BE4372DE
BE7866C0
BF32600F
BE439033
3E845A96
BE8FAC1E
BD20E1B2
BDE13E25
3D8CF8FF
BCB0541B
BF0A4E53
3E9238A7
BD7060D1
BE78A354
BBCD5863
3E035C4D
3CE3F441
BF37E1E1
3CA8869C
3F10A38B
3D8E9356
BCEBEDF0
BCDFF3B6
BED8D1EC
BCA7D3CF
3EA990AC
3E10482C
BCE2AB81
3E80421F
3EAB7467
3DEDC064
BDD524C8
3E923D37
3D453CCE
BDE9ADFD
BF161A23
3D68D881
3ECCE314
BDEA74F9
BEB83CDC
BDC3F019
BE0FF9FC
BEF07819
BE45AAA7
3EA44CA6
3DA8FD24
3B49132F
3D102950
3E480FBE
BD52D242
3D90FC79
3DF86034
BD355DAD
BF0B638D
BDEA54AF
BE6249ED
3D9C10DD
BF1D1129
3E92B5CC
3E9AF410
BE948DF9
BEC0B23C
3E0C3CDE
3E9A4072
BEBB1D43
3F2BCB73
3EEC1836
BD466456
3DEFBC38
BD847F61
3E7CE080
BEC9F67B
3EA54ED2
BEEE1A60
BEACCC04
BEC3F685
3F302F20
3F1F501C
3E54AB1F
3F211ABC
BEB56535
BDB0C314
BD81AE71
3ED4EF0B
BF48D3A4
3C0F3D80
3B049175
3E3C493C
3E0405DA
3E44E3F3
BE551B37
BEAA3F7E
3E88A144
3E50B1DC
3E25F976
BDF99715
BEE1CFF0
BDAD9C3D
BE569B9D
BDB357B1
3E73AF3E
3E8BD390
BDBB5751
BE154099
3EC2AE35
3E0CD43C
BE8D816D
3CD83576
3DF6DA24
BF227823
3E9FA35E
BE8A18FD
3EB48952
BDCE268D
3F2E139B
BE3FC2AB
3EB56D13
BD486EBC
BEA89D23
BE97BDFC
BE0996F8
3DF1647D
3E438FED
BF211E75
3D275943
BDEDC7D0
3D81EF35
3EB6ED37
BCA67641
BDFAE9BD
BDC452B7
BEA90053
BE2A1CC1
3E9AAECC
3E16921A
BE3B3998
BE7AA6F9
3F1CCEEC
3D35C252
3E4566EF
3EE3DB8F
BD9EA0E2
BD96A782
3E4E6753
3EDF3D4F
BEBB8060
BC064A47
BC9A9FD9
3EC268EC
BCC4A36E
BE00E8F8
BE40AC9E
3D5311C0
BDD12502
BEBE9908
3EBA635B
3E037028
3F1A1C2D
3E163407
BDA178BD
3DD478C8
BD4B4DCC
3EF9503C
3DAE2378
3E408334
BE5FFD0B
3E81AA51
BE888D00
3D419EEF
3E007419
BE59F335
BE092027
3F40777D
3D56194F
BDA30A19
BEBBA5B0
3E3793BB
BF055C35
BEFEAFB7
BE34F7E3
3E2263EC
BD83EFD5
BEACEAB5
BE651A76
3E8E78E9
BD4942DD
3DB80CA4
BD5543E7
BE46F062
BE36EBDC
BEEA4409
3D884753
BDC856F3
BF3136DD
BE36B4A5
3C96D5AF
3E7FED73
BBD8E081
BC6AA17F
BE1BFE3F
3D30FEF9
3DE119C1
3E9C5307
BD07C1B3
3EECDAC1
3F004853
BEB9F96A
BE342A9C
BF016C41
3D2A54B8
BE1E4140
3E8B51B6
3E5B6D20
BE4C24D5
BD38412F
BE9624EA
3B5329B3
BE56AAC4
BE00E30C
3E5F6800
BE885DC5
3E59011F
BF2738EF
3E9942F8
BC8F2C63
3E199388
BDC58ADF
3DA33790
BEAE621C
3DEDD79A
3EF47406
3E06DA0C
BE424AD3
3E55B369
BEADE8C5
BD91971B
BEA58DBE
BEB39A87
BEA12CB6
BCFE0737
BF2BA176
3EF5D6C5
3EF0963A
BD93A5F3
3BF8F082
3E23AA77
3EA4D621
3DEBECD8
3E3A91CE
3E7C3322
BE1095C3
BE5BD803
3DBB21CF
3E3EE118
3E99A30E
BEB111CB
3F143753
BE98B0C9
BE781A76
BC70170A
BE3A1C5B
3C95FC20
3E5FBC3E
3DE202D8
BCB7047E
BE39E4AC
BEB6ABB5
BD3380C1
BE098B86
3D93BD23
3D46DCFE
3E984B4E
BE898D33
3EC3F89C
3EB8C234
3E436669
3DF37C53
BE47E412
BF09A903
BEC9B05C
BC8C985F
BDA52349
3DA74288
3EC51833
3F3880EB
BE17B212
3D3D9186
BDEC2451
3EFB4C15
BDE857D5
BD9B45C3
3E0E777D
3E898576
3F5B5B2D
3ECDBF68
3E0AA807
BE9BECF7
BE180B62
BEEEF5ED
3F24C0FD
BE71E8A5
3CB2B3C2
BE3FE36F
3EDECB2D
3EBDF188
3E387825
3C534389
BE3A153F
BE70658A
3C62DCAF
BC254930
BD76BDA2
3E7953EE
BF648BBE
BEF4C2EB
BF1CD1C4
BE3F10BB
BEAE7764
3DB1D462
3DBD7856
BE703573
3E77C343
BE774D79
3D908DC4
BE975FD5
BE4B0084
3E88B00A
3DAC4CFB
BE012692
BC1F8724
3E912F7E
BDC02B83
3E8E55B8
BE93E79F
3D1590D6
BF4124BA
3EDB5AFF
BE172917
3DB44A39
BA6CA32C
3EA1761B
BED88EF2
3E849C78
3DC126D9
3C81C9E4
BF510FBE
3DB4E421
3EB8DF3F
BCF7CB1D
BE956947
3DCB1F0B
BED7985B
3EB3CD66
BBA363DD
3EBFD299
3E802DE7
BE3A96A6
BDE79798
3E82A525
3E969015
BE954D45
3F021948
3D2C12B8
BE746330
BE13242E
BE5D303C
BC9FAFEE
BE2C2373
3E455846
BD3743BC
BEDD3562
3E9091CB
3E4674DC
BCD54AD5
BEAAD3B4
3DB90CD1
3D6F957C
BF257A6E
BE988A6B
BE8E02A4
3E0183B2
BE64FD17
BD16CC3D
3CB36862
BDF7DD4D
3D986399
3DE8864C
3DFBDCF4
3DE450D6
3E7C03D8
BEAE1CEA
3EF88306
BE664D57
3E5360A0
3E162F67
3EF73BBF
BE1D6A95
3DEB12DD
BD46A581
3E7D06B0
BD6B95FB
3DC2E3F2
BF6CB8C9
3CF49C29
BE3655E8
3EAC261E
BE91D695
BE1FEC41
3EF1685F
3EDD851C
3D5F6289
BD6C6C80
3DD819A2
BE8C5B8D
BDBF72EB
3EE894B1
3E30EB00
BD7E5C5C
3E684541
BE813885
BCB4CF85
3E8DBBF2
BEAFD641
BDC45ECE
3E386505
BF5314EF
3D46DC10
3E8B2C09
3EA64610
3D7CA8B0
BDB71015
BF219EC5
3E93CAD6
3C856B14
BDD94BC0
3E345B3A
3BC2C9D4
3EBA2349
BE06C5B4
BDB54F64
BE859E70
BD5E91C4
BDEDF331
BDAF651F
BDA9EF72
3DAE79DB
3CAE62DF
3E208AF9
3E4B608C
BEAFC065
BD25F4A1
3DDD3158
3DCF7053
BE545558
BEE6D20A
3E4F2F43
BEC813FB
3E45737D
3ECEFF7C
BEBA7CB0
BED78956
BC67A06D
3C311541
3EAE3D78
BE284DD1
3E206D8F
BDF131FF
3DF776B7
BDFC05D5
BD7A5442
3C2A3C9F
3EA27AE6
3EA57CBD
3D300C12
BE59E510
3CFA939F
3CC68779
BCDE01D3
3E405375
BEDBEE5F
3E9DB4D3
BF376E6E
BEF79207
3BF70D53
BF1E3ED8
3EC3D5CF
BF03509B
3E555BFA
BDCAFA38
BEB3509F
3D44CC88
3DF8022C
3E053714
3E43D651
3E3B3065
BDC1075E
BEE956B2
3E0B5D4A
3D5F6B5D
BF197BB8
BDADD4E8
3DDFCEAE
BF1B6914
BD3C686E
3ECF67D9
BD24660E
3D1779FD
3D82376D
BE467204
3D1BB015
BD5F6C1F
3EEBF02F
3CFA2B6A
BE24202D
3DE11DF2
BED49A0B
BF0BE5AE
BE914C6A
3CBFEAF7
3E75EF84
3EA6BBB4
BE8B682E
3DD8F57B
BE05AA11
BE97BE49
3E25E594
3E0D6554
3E8276A8
BE114615
3E7136F2
3E35F19B
3C5F33F8
3EB18FF5
3E882607
3E1F94B2
3C9613E3
BC09AE14
3DE71144
3D23D28D
3EA07807
3F030F12
3ED6332B
BECEF54B
3E52341C
3DE2F24C
BDFD375D
BEFFE72E
3BFF34A9
3E04F091
3ED4F471
BE4846EA
BE03C691
3E2EE626
BCBCA73B
3E869308
3E150F4C
3D852624
3EF48587
BD477D72
BE116A3E
BEB2B01D
BE5BF33C
BE65AFB7
BD4A48FF
BF0DB849
3E9D9B12
3D218D36
BE0E2DA0
3E84F623
3DB825F7
BD51CB2C
3E8F5616
BE0439D3
3D00399F
BEC76266
BE06C541
BEB6DD54
BD51F7DD
BE7852EB
BE08125D
BF26239A
BCFC9C08
BDC7C919
BF1A6B65
3D88F18B
BF645836
BED2EC30
BCD76750
3E38C36A
3E10AF56
3E0AB8E9
3CC4535C
BDE3C770
BF167779
BEC11D40
BDBCBAB0
BDEB279E
3E337393
3E742F0C
3E90DB9F
BDC47D20
BE1B2D58
3E510202
3D95CC21
BE1ABD42
3D930DCB
BD7C19CF
3EC91ADF
3E885BA9
BE20D067
3DC00C06
BEAE96BD
BE97E209
3E590962
BE222271
3D5FFF8D
3ECFF536
BE0D6E18
3EC7345D
3DBE8F22
3DFE745D
3E9E0CDD
BCEE500A
BD39D379
3DEA1EFC
BD30C799
BE1E5813
3D3F58FE
BDB7567B
BDAC1CB9
BEC7FF50
BEAC3FAB
3DB8DFF7
3D9CD5A8
BE600459
BCD7AED8
3D9827CC
BF7AF3FE
39160260
3E057B0A
3F6C0825
3E6EE26B
3E7768AE
BE3F92A8
BD4A942B
BD419F67
3EA74B2A
BF11D163
3E8F79F2
3DCCE631
BEA4B6AE
BE61F49E
BEC393A5
3DD8C6F4
3C8689CD
3E4019DD
3D6FFBAB
3DC7C251
BED6D5DF
BEA61C40
BDA8BBC7
3F0A220C
3E495E53
BE35AEF2
BEF28AF9
BE3F7C29
BE9CF1EB
3E53B005
BE2549CB
3E8232F4
3DED5D7E
BD8B3B00
BC6D5C44
BD3D077A
BDBAD3FB
3EF44165
BDC5A308
3EBE1846
3D48A471
3E9DBE07
BF25FCEE
BED457FD
3EDEA549
BEAE9BAC
3D80E06F
BE269C93
3F1405FC
BDF24EC3
3E3A3E34
3EAC697F
BE1B59C7
3D835DE1
BE67C4CA
BD72346B
3EF00E0D
BE4F65E6
BEC26196
BE8BD972
BEB7D1E4
3DF0F8C8
BE06976D
BE2828F0
3EB27D6B
BE26BF2A
3E8143D3
3E7021B1
BD6F7E18
3E8DF69B
3E488668
BF511767
BD3FC212
BEB12438
BCEECF4B
BF42DEFA
BE8B6E25
3DB7C5C8
BE804033
BE8C5A7F
BDA15CDB
3DA6008F
BCB5A7CD
BEA2E449
BDA3BC17
3D1242FE
BE81A346
BE490402
BD6C94C6
BE400D38
BE8FF8D0
3EE391B5
BD891CF3
3DE769C7
BE137B24
BCA5F416
BF146224
BE6D31FD
3E290E25
3E085AE7
BD206E35
3F0927DB
BE8C259A
3E70ABA2
3DDA4016
BE306A77
3E84F995
BDAD92AB
3ED0804E
3DBCD6BE
3E49B3F3
3E0A68C7
BE77275A
3DAFC198
BEB95B3A
BE3F1B72
BE87F164
3E0CD886
3F0DD782
BE777F84
3E221AF3
3D76E041
BE1DBEEC
3EED071E
BBA55A6D
3D7EC9E2
3E9B7D32
BDD61B96
BDFDDEA8
BF0A2CD7
3E2D4CFC
3E2704D4
BEEAB1B7
BED1CDE7
BF0A6F39
BE9D955F
3E6513DE
BD0C335A
BEEF25A5
3DA36869
3DC6DF29
3DD41BA6
3D66DD62
BE63100E
3E5199A7
3D73431B
3E9FD44D
3ED266E5
3D840234
BEB7167C
BE2C7E83
BD9DB500
3E8F6370
3E58A581
BDB9B1BC
BEAE1E56
BD6FD4E7
BE7AC651
BE5E38EB
3D9701D1
3DBFC30D
BD52EB9A
BE844B97
3EABCFBD
3E7BA00F
BDCFCE2F
3D0F0841
BB9655C2
3D1F6F9A
3EB3713B
BE86FDF3
BDE7A168
BF1B7C10
3EA057E2
3E88E629
BD861EF5
3EA3489D
3E31A6AD
3F0EA192
BE4FA6B9
3E9D28E9
3DC1A48D
3ED616C8
BF174AD5
3D7E57B4
BE26A55D
BD96C27C
BEAEF031
3D0D869E
BEACF0BF
BEC6E52C
BE135059
BD8DD67E
3DB04F23
BD3DBB04
3EBDED65
3E53F980
BE7DAEC2
3E83F48D
BE82B36A
BF2FFCAB
BEA31038
3DB7EA6A
3E61E123
3C9B6FA8
BE90F3CD
BEC04D03
BE511618
BE7C03F1
BEFF8F95
BEAB0B7C
BE525200
BE20E4AA
3DA5E9EA
BDF4B92E
3E1CB80D
BD55C4A0
3D4ECFEA
3C876381
3EB5A2BF
BF1F5268
3EE9100B
BF1C2582
BC412F35
BE269B2A
3BACA260
3EEB9B86
3BDA52F2
BE418C1A
3EAD39DC
3E290532
3D3FF68D
3E212E6D
3C527127
BE1025AF
3C21353A
BF3FB840
3F5283D1
3CA15317
BE88A453
BD6F79A0
BE5AF0CD
BEE34B78
BE5576F7
3EB3606F
3F0FCC0E
3E215A58
3DE1C910
3E21AAA8
3E09E9FF
BE4A37E0
BE04405F
BE248EBE
BE8FDF53
BB8B2B82
BDED4665
BDBF8358
BE4F267C
BD1EB3DA
BE88FFD9
BE98CD35
3E2EFB4D
BD9EE95A
3E9579D8
3D50BDA3
BE762D44
3E47DE07
3D2F0107
BDA3D113
BD2626CE
3EEF78C5
3ED93208
3E90EB65
BE674F93
3E28EA80
BE879DB9
BE427C61
BF07CDBA
3E3EBFD2
3EB14686
3E48672B
3EE9D558
BC535D2A
BE5288FA
3E0912C5
BF00F258
3DE73359
3E0EFD60
BE9F8150
3E8C9657
BC970A0D
3D8D237A
3E186EC2
3EDDEBA9
BED05EFB
3DE132E8
3E71A8DD
BE725CD7
BDA69765
BE7DF81E
BDC7C73C
3C79B7FD
BF08647A
3D6B8940
3CDF1650
3DE2A5A8
BE470B5E
BE531ED9
3DA84A8E
3EC3A578
BED08B28
BE73C98D
BDB5DBE7
3E0C0BE7
3E955BFC
3E3447A5
3DCD20B0
BD84AFE5
3CF644D0
3CB476C0
3E06DE29
3D00BAF9
3AF0B103
3D8FFA5F
3F56EDA3
BE7F52E4
BE8D0E65
BE93E365
BEA2689A
BDD8AB1D
3F29D988
BEACCEB4
3E8F46AC
3E663D5F
3E1EBF6D
3E912EE7
3D6E6378
3E6ACEA9
3D393172
3E041CF6
3BFB30CE
BD34AB60
3EA75D4D
3E571BAA
BD5BEEFC
3D5F059C
BE9F2E9D
BE807814
3E0341F2
3D2A7943
BEA0E084
BE5E767C
3E5C4B5C
BE128BD9
BE069885
BEBA1801
3E1513BF
3EE4B169
3E93169F
3DB34227
BE157293
3D114A40
BD557E01
3E7DC094
BE143820
3E519381
3DF8FD1B
3BEE0557
BEABC870
3D37CAC2
3F5770F5
BE1C7803
BE8BE9D4
BE1B5E21
3CD44562
3EC52840
3EA777BC
BC78B137
3D89B637
BD3D2EBD
BC2433FC
BE20DFA7
BE80D102
BD9B5456
3E530014
3C92E7AE
BDE7BC7A
BECCE73E
BC3AA17C
BEE4417D
3E93C201
BD03AA82
BE5EE3DF
BE6613D1
3E9866B3
BDD6089A
BD82F105
BE7E9BFB
BE880E6E
3E26BB53
BEDBA6B1
BDF6D271
BE761291
3E92EDAC
3E7D089C
3EA49796
3D4D482D
BE9D1330
3E46FCD4
3E7FE283
3E8F41E6
3D37264D
BEEF9433
BDCAB9EF
3F29C6D7
3E78352E
BF054BC6
BE040CF7
3E19B062
BEA9DC27
3E0F4BCD
3DBF43F1
3E00BD2C
3E1E3BFF
3E8CD250
3EF7FCD0
3E475D7D
3F4C6580
BDDA4FA6
3E976510
3E863254
BF4157BE
BE23C759
BCB5C1C3
3E357867
3E1D1945
3E5FC7CF
3CC4EF53
BCD472A9
3E475181
BDE5A166
BEF4754C
3B77D666
BE7C7D41
BE85419D
BEC24E83
3E03CD75
3D7C646A
3E11BD5A
3E2CCA23
3C99F432
3E6E938D
3DF84735
BC49B62C
3E75DA49
3E4D120C
BEFAA3A9
BE9E142C
3EC859FC
BF1363D4
3E417A03
BCF85B6C
3E2A746C
3E4823A6
3E291A1D
3E8E10A0
3E2E9C9E
BE631FAD
BE402084
BF08FF37
BDAA2289
BEE03D34
BDF29FA2
BEE082B4
3DBD7B61
BE6CCFBA
BED1CFC7
BE9BB03D
BF057B04
3EB28CDA
3D521DED
3E9AAC64
BDAF29D1
3E844A5E
BDBB191E
BE4040C1
BED30F06
BCAA52CF
3F0ED437
BEB32724
3EE17996
3DC3F456
3D0EFE38
3E2E3D5B
3E0973FD
BEF96E97
3DE471E7
3E243B8A
3ECD57E4
BEF1DB8E
3E273042
3E4B30C0
3E0FF326
3DA468CC
BE081A01
3E034874
3F012F4A
3E69C0D0
3ECCBF4F
BDD9913A
3E2898C6
BD822D01
3EBB78E6
3D0D9A8B
3E084C41
BE4C3670
BF0FE90E
3CAD44F8
3F138034
BDB2A20A
BD2BFCE3
BECD42CA
3E04860D
3D657E1C
BF014540
BD84B3C7
3EF4E7BE
3EC9D0B3
3D8AE262
BEDC2FE5
3F2D8115
BD6F82CA
3DCD478D
3D0EB5CB
BE3E2F7D
3DD82307
BCD0C671
3D6A2573
3D4946AE
3F1B582F
3EBAF111
BE3CDE6C
3D385CA0
BF2E3D38
3EB6ABE7
BDCFF32A
3D5B6EB9
BD0E1F40
3E194A9C
BE0946FE
BF7F7EA0
BDECC289
3E38264F
BEAC1CA0
3ECD484A
BF145BB3
3E1F1B00
BE1430C3
3BB3B564
3E93ABEA
3D4C84C3
BE8F43E9
3EB5E886
BE7C731C
3D05D0E0
BDD84D3E
3EEAC55F
BE8B6694
BEBC8307
BE82ED30
BDB845FB
BE344A1E
3C5D132C
BDC04DEB
BEE7D8F9
BE8BB29D
3DB2BA4A
BE99299C
3EB99472
BEC9A1A1
BCA03CEC
3E673E2A
BD2C600D
3EE84361
BEEF0D72
BD50010A
BE1D926A
3E03D172
3D5E1C96
3E642FB0
BD2411F3
3E9F2D01
BE00889F
3DF7B52B
BE42E349
3C5F2057
3E93050A
3D13849F
3DE5DAA8
3D4A6D6A
3E1ABCC1
3E08D785
BE23C594
BE98A8A8
BEAF8DF6
BE045978
3EFD74EF
BC899C91
BD7F90DA
3F323BC2
3EB1AFB2
3DE62D20
3D932CD4
3F3BAB51
BE8B9C4A
3E83012C
BEA86351
3E89F50D
BEE6A310
3E14EF7C
BE38C162
3C31FED6
3E77DDBB
3F42A85E
3EC433E1
3E579905
BD8DEE7B
BC984C8D
BE1CAC08
BE987B9A
3F00594D
BF2F71D7
3DB66887
BE7E386A
3F367017
3DC23D2B
BC8E9620
3E005AD7
BE7138E1
BECBE93A
3EA5DF3F
BE2CD2FF
BE5BA868
3E1A70C8
BECD1AE8
BE883687
BE18D562
BDC850A4
BDCF254F
3D7AE557
3E716152
3E4002F2
3DD75F83
BE95D897
BE2972E5
BE270E4B
3ED6F497
3D1B119F
BDD9A896
BE56F731
392348C5
3D483D00
BD474CEB
3DB9181D
BD87A597
BD4F4BC5
BEC0112F
3E0028BB
3E7903B7
3E6843A5
3D3B8071
3E9D19DD
3E221126
BE8F5352
BEB1B401
3EC8CBCA
3F364568
3E070E34
3E651653
BF2B9768
BDFE1762
BE9B6F42
3E0BB63A
BE899358
3EF1374F
BEB3EA45
3D617DCF
BD3B0F68
3EA9499F
BE55F0A3
BEA5D66A
3E4CC748
BE6CD86E
3D910D7D
BE8ADCA4
BE95653E
3EC19916
BDF108BF
BF176CBB
BDD7E135
BD354BE5
3ED4C6C7
BD9AB67E
BD2EB2D3
3F1DC51C
BE93A58A
3EC808FE
3E8598A2
3C96EEC4
BE10D6DB
BE9DBB07
BEBDCFAF
BEA63AA1
3E62EE8C
BDA0CB82
BE0B2BD2
BE1B418D
3D862807
BCCE647D
BE05A68A
BF0400A9
BE9B6D8B
3F306A51
BCB858FD
3D825F62
BC8F3689
BDE1E3D8
BE5A1A1C
BF2022BD
3EA90FBA
3E8FCECD
BEE52E57
3C8FC35C
3E906472
BEE57591
3E09ABF6
3E1A3FB2
3E80FF5B
3DA0031F
BD05A556
3EF3C83B
BEE95EF9
BDDEE3C3
BED8B05D
BE8AE0B4
BE3C6EEE
BE3238CE
BF49272E
BEE3FBB1
3DEFC269
BE82E23F
3D8B710E
3ED1A64E
3E87913F
BC7C73FA
BD992D5F
3EE0C208
BEE054F9
BDE77FE3
3E741894
3EB6EC62
3EC89E0E
BEA70295
BE898343
BE36652A
3DF1E45C
BE9CDA41
BE1ED818
BEFAD027
3DA69A0C
BEB254D8
3DBC0EC2
BCA130F8
3DEC07F3
3E6C89FC
BED60BCF
BDE04EBB
3ECBF936
BE50D6A2
3D840339
3EEEE59F
3D7C04C9
3D62E30C
3EB4AABF
3EC9DF9F
BE5E8C69
BEF640F6
BE4D9DB8
BE7C8675
BF369312
BEF7AC4A
BECCD974
3E32FA1F
BF2AABD2
3DFDC3FC
BE77ACD4
3DD72BCB
BC79851C
3E080D28
BE868173
3F17D878
BD9F5F8C
3E04A3A0
BD20C85F
BD0DBD90
BEA36624
BEDAB1A7
BE008894
BEB8152F
BECE1B67
BEC0BCAE
3E38DC84
3E4FF9C3
BE81C81A
BEF678A9
BD8DCAC1
BE1AC34E
3D4BCBC1
3E6D1B28
BE20CB5C
BDA68E25
BE9E98E3
BC872E2D
BDDABF15
3E10677F
BE4355C8
BEC3C341
3CB7E3E7
BCEE2BA2
3E9947A8
3DC8D50B
3D063559
BE6705FB
BEA13D6B
3EFC3E87
BE6EF250
3E3FA237
3EC036BA
3DCACF9D
3E508671
3EA57163
3D281893
BCB0C240
BCF924C5
BE2D4B60
3E65F5D3
BCD80A2D
3E7AC55C
3E96EFEA
3EF840E4
BDE4C3B1
BE60AAF1
3F1E9564
BE0741C4
3E819C77
3ECE9BEF
3E9D650F
3F054567
3DB88678
BEA5A27D
3D49D4B3
3D3B7DE5
BE2CA238
3E80D2E4
BDFB4D51
3DF7F7D2
3E120BBD
3F079046
BE68CA10
3F4FBA55
3E97C42C
3EC11404
BE4EB92F
3E249848
3EEED302
BF05883C
3EC4686A
3D7D1DA5
3E15125C
BE863DA3
3D86D8A4
BE74A72A
3D7C2B21
3E905248
3E01550B
3E715C31
BDFF66DC
3A856E69
BEABAADE
3EAC69BE
BDE7044F
3D093216
BE10A93F
3D04F317
3EA6F8E3
3E10F52C
3E8E1A5E
BE504E67
3D568CA2
3EC240F4
3C256ADE
3F195537
BDD429FB
BEA6E54D
BEFED114
3ED3B46F
3D8DF0CD
3F439A31
BE24E1A3
BD5FFC7A
3D0735B7
BEEF68C9
BE5C7E16
3D99EF2A
3DA07C75
BCCB7DAD
BE0EC07E
BEADD21C
3F111192
3E534BCC
BBFBB1E8
3EEC4EBD
BE32A387
BE0C61A4
3DB5DD15
3E83DF4F
3E93ADD7
3DE1E120
390A0B87
BEE8676A
3E262AD0
BEE7C98D
3EE351A4
3E5CB8F9
3D3340FD
BD16D376
BD56D02B
3CB9912B
3EF11D93
3EDFE81E
3EE31C7A
BD815D57
3E0F3AF1
BDCDC823
BE4398AE
BE82DBF4
BE73F9AC
BD5285C9
BEA2C17C
3CEB3736
BE89FC9F
BF05342B
BE1E9063
BEEA752D
3EDC7512
BEBC47FB
3D68CFFE
3EA0DDEA
BCB15F79
3ED39146
BE897AC5
BD0898B6
3E19E3E5
3DF39CA0
3DE57C36
BE45B4F9
BE9AE2DA
3DB1F86E
3E38183D
3E628579
BC073594
BE568B0C
3CB3C4F9
3E44EB7D
3EB3FCD7
3CE17A33
BD83785B
3E05E516
3F602E3E
BE1916D1
BD8192E9
3E384CB5
BCB1BFCB
BEE1B68F
3E1D5DD8
3E1E9F1D
BF0FD846
BEDDAF55
BD9047CA
3E7D183F
3E7B28D0
3EA16C86
3DF8326E
3E41E7D7
3E1B94F6
3D0A2088
BEE885F6
BDA450C5
BD997C33
3E8F341C
BE98BB2C
BEE7563F
BE55A8E9
BEC0C54F
BE0FCDE1
BE4376C3
BEB47A59
BD54E11B
3E321670
BE24918B
3DA5551D
BEB6464F
BE72FFB8
BDF1C974
BF0682D7
BD78A00D
BE8EEDE4
3D2F8CDE
BF43FC05
3DD075AC
3E5C7CFD
3EA323BE
3E397A0B
BEF43A3B
BB3AF762
BBFA92C3
3B94BDE8
BE062099
BF05D2AB
3E56A001
3E6EDC72
3DE5C2F9
3D105E90
3E237673
BE81CA74
3D6D1438
3E4A5BAD
BF25FC9B
3E1D2739
3E449F28
BEC5D230
BEEAE143
BD43591B
BE166229
3D6E5957
BDEE2963
BD2B91C1
3F1A9398
BF10BE62
BE651151
BE9D6308
3D962289
3E3BAD9D
BE0C35B4
3E7E6CBD
3EDCF1B0
3D8B1774
BE4B6DD7
BEDE149A
3F45E5A0
BE4FF0A3
3E0A17DD
3DE280DD
BE462295
BC669DF9
BDD75CFD
3EABEB54
BE78F1F9
3E0DCE17
3F142C16
BE9D9075
BEDE0F02
3B686255
BE40659F
3E103BDA
BE9B2739
BDA1EF8F
3DD8210A
3D9A4CD3
3EE1C7DF
3E33967F
3E972FA6
BE2229F9
3E9D6CD4
3DA67164
3E354FCD
BF15839C
3E3D0B85
3E9E2C3B
BE5723CF
BE52CD2D
3E525B17
BEB97339
BE30916D
BF1A7D03
3DEE1DA8
BDA81AC2
BE5B0E23
3E8ED5E6
3DD559D5
3E02538A
3E011E54
BE9F7671
BF113C9E
BE573352
BDDF7918
BF17F0E1
3A9933C3
3DE3FCDD
3E3962F9
3F2522E6
BE3D7C2F
BE2A249F
3ED78F7F
BE327186
3E4CC568
BD6F9676
3EBE9117
3C7C43DE
3F1548FF
3EB179A3
3E3A6F02
BEE4D2A7
3D73B019
BD9BCF45
BD1FF9B3
BEABD796
BD77E8A2
3D526DC1
3E2E0637
3E5D3362
BE9E3234
3E6E66B6
BF136809
BEEB68A2
BE35E87E
3E6700A7
3F39EC8D
BDFDF1AF
BEC1FBFD
3E358092
BE66AA57
BDA071C5
3E63FB6B
3EEDBB73
BE9A9A05
3D5DAB39
3B7A3AC4
BF068F37
BE9F0AE1
BEAF2960
BDC41254
BE6908E3
39F6578B
3F2A2B2C
BED7BCF2
BD6266C0
3D9475B1
3E831E4E
BEF5DE81
BCF104F0
BE290A4D
BE8711E5
BD0E25FB
BF12826C
BF0D67A8
3E9097EC
3DD5EEB4
3D97436E
BE1390D4
BED79F6E
BDD00032
3D3B76E7
3D372AED
BF35FC65
3B560687
BEB37FD6
3E18C23C
BF4C7B23
3D4838E9
BDB1DCE4
BEA02D3B
3E428A72
BDB9D4FC
BD87D5F1
BE8396BB
BDEEB45A
BD2F87DD
BF09BEB0
3D9BFEA1
3E227149
3E8D0696
3F29CEE1
3E087D95
BE841EC9
BD7FDDD1
BD9E627A
BE8DF24D
BE71E05F
BCC9C79A
3E98A7AC
BDE27465
BEC4EBE2
BE7CEC19
3DFFF0D4
BDFBC614
BCE53920
BD3FFCBD
3E2A4FBE
BF0C7EFD
BD0394F3
BDAB76C2
BEE697BD
BF0C0915
BEBEA510
3EA6636C
3E5F0F6F
3CD2DA12
BCC22168
BED9E222
BEE4E3EB
BF2B421A
3E9FADDD
B9C2FA3B
BD5B0F6E
BEB0D83E
3EC07FA3
BE7B6740
BDB3AF3C
BDFD3502
3E8AFC65
3DBB332C
3E8D048F
BE8E740B
BE0ADBFA
BE001214
BD8B8659
BEC2A904
BE09910F
3EA3419A
BD18BA36
3F196720
3F12B98D
3E30D42C
3E521865
BEAC70D5
BE0E71FD
3EC863FC
BD61F005
3E3041E8
3E478429
3EAAFF1E
BC2834F3
3E574134
BE2770B3
3DDE95AA
BF116947
3D38EF65
BF3B6669
BE980D58
BD806A67
BE66826D
3E4F1B66
BDF89DB6
BE561563
3DCCDE79
3E26AFB8
3CB753B9
3C6772C0
BD4D4F8C
BE07E560
3EA416CA
BC412960
3DCF6CFC
3AF91783
3E8AA075
BE31E6A6
BC08DB3B
BE64ED90
3F086BE3
3E0FD5D3
BD56D918
BF4A5149
3F23890F
3E0DCD0B
BD03DBC5
3E769692
BEB58940
3E166497
3F0A1F59
3E2F354C
BE2F0C3E
3DCC6622
BE040C32
3E4A4C5E
BE864C47
BE17B826
3EACF3B1
3EBB3C92
BC9A8633
BE449997
3EAA594F
BE0EBB96
BF19EEF5
3DA06935
BE1CD3BA
BD96CF36
3EE66C14
BDB6777D
BDA22045
3E5FDE9D
3D92B91B
BD870311
BF5F3A58
3EA668CF
BDB7E2C5
3C773190
BEF239B9
3ED59220
BD849316
3E731742
3E0BFED2
BC5DB756
3E388A7D
BDCDE9E3
3E822A4F
3E66D9F6
BE182CEF
3EB4DE1A
BEE85F75
3E01664C
3E210785
3DA743CC
3E88D023
3EF330A0
3EB5446D
3C9F402C
3DB5F41A
3DEAE789
BEA849D2
3E1226AB
BD88559A
BD8D0AC5
BF021581
3F2DB8DC
BD7B88CA
BE769411
BE68189C
3E0ED3A7
BEC4278A
3F0BFBFC
3E0C81DF
3EC4785C
BEC6550C
BE2A29A1
BEB6E816
BDA4BA02
BE3BCD43
3CA8715E
BE1D9779
3ED4745B
3DBDFB77
BEA64F12
3E2379CB
BE8B8527
3DA30571
BE819273
BD0D302A
3E321339
BBCA267F
BF03DE72
BC4EE866
3F013425
BBF76AF1
BE078919
BED394C0
3F20E397
BE006483
3DDB1CD1
3D1804A7
BF1FFA70
3D12CF3D
BE955DA4
BE043478
BD40D0BB
3DFF207C
3F066810
3EF273F3
3ED6BFD5
3EF92AA9
BE73894B
3EBBD1B7
3DA35DDC
BCF61ADA
3EB6F200
3E303FBB
3D2C07E9
BE065FF6
3DB7DA0C
BF02173E
3E6A2A73
3D355B54
BD834547
BCBC3FBC
3DCCFD60
BCAE8C5A
BE0822AF
BF82A168
BDC6229C
BE1D8828
3F4083C2
BEEBBE4A
BE0D8366
3E20A8F5
BC7C9278
3E073C54
3DE37C59
3CB7E346
BE897451
3D1A164C
3CD58141
3EAF3371
BD515D28
3DDE65E2
3E34B679
BDA63AEE
3E24D730
BCCAD546
BDA21456
BE161FF8
3DD71D08
BEA93766
3E7761F0
3D0587A9
3E09478A
3D486465
3F2720D0
3E030DFB
3E3325DA
3ECBAC69
BC25FF38
BE0416FE
BF7503B3
BDA6D290
BE95C5E0
BD945872
BF00C2E2
3E7158BD
3DAD1B53
BD989152
BCC0B9EA
3DE08FE9
BE118D4F
BF172045
BE9BEDCB
BECB9B13
3F10F7C4
3E3C76D4
BD9A8CA0
BE3BAC95
BDFA3E49
3E49057C
BEB0BF45
3CE34158
3F0F3E81
BE7685FD
3D3C2664
3E40EF03
3EA85D23
BD214FF4
BDD6BFA0
3E913DA1
BEAB7B06
3D4D95C8
BF6A0C66
BEBE1FBE
3CA801B2
3EEA68BE
3DB71011
BE527762
3E30D8B5
BD0CD5EA
BF1F3A41
3DF1C9C8
3D18E504
BF163F80
BDD048E2
3F5850FF
3E0F5079
BDC394DF
BEB23607
3D48096F
BE2FA18F
3E2A6408
BE558F8D
BE80878F
3ECCDA8D
BEC335F4
BE18BEE7
BE1AEF36
3E60D267
3E9ECF16
3E3F300E
3F4FFEAC
BEA88B35
3DC982A3
BEECAF60
3E17A085
3E969845
3D480CFA
BEEAB428
3E0660E2
3E138B23
3DB9C0A5
3EDC41F0
BF4DA40B
BCE7C729
3D8E5735
BE54BABA
BE666844
BE9A5287
3F120AC5
3DFAEE2D
BE883E84
3F31380A
3E546B6A
3E30492D
3E10178D
3C2B6B69
3D664F6D
3DBAB85D
BEE8D833
BEBA448A
3D990597
3DDCF3F6
3E9DD11B
BF00D209
BDF49E8D
3E2EB68B
3E1F59E4
3D4F9F70
3E04550E
3E1E62D1
BE078CA8
3DD05C1A
3E3F64F1
3E25B74F
BCD1B453
3EC34E9E
3ED44893
3E7FC227
BE823A67
BD9F2930
3CB7E874
BE9C4F02
BD9E2369
3F0042ED
BF01A3FB
BED78071
3E68A9D8
3C128E2D
3D18C51E
3E7BEE9A
BEA08437
BF0573A1
BE1D9D11
BE123605
3E5DE88E
3F02875B
3ED37865
3CCE3E57
BC1031B1
BEF8A5B2
3DD8C12F
BD838A69
BD4B8AC6
BEA5E2E5
BDD62684
BDB1C155
BEFA0CBC
BD79E691
BD032FFB
BEB89100
BE8C4413
3F064EFF
3E9A5DEC
BE9C917C
BE8F1C53
3E83EEB5
3E4DD813
BDC2E4B7
BEF82E4B
3EC04298
BF2ED067
BEACD2B0
3DA06038
BED751FA
BE231EAA
BE05D821
3EBAE1A2
BD88D953
BE09DC81
3E93661B
3E5B123C
BE777704
BE01FC8D
3F060420
BE4A9F7F
BEC283F3
BF25CC08
BE9EA617
BE959CA2
BCEF1E2B
BC824387
3EEF6295
BE9073FD
3EFC1595
BDF16AB1
3DD53AB4
3EA573B8
BD6EA847
BEEDB17D
BD0A4EBB
BD1E80EF
3EAAC5BC
3EC106B6
BEA1C722
3EBE813A
BE56C6F4
3ECD9374
3E210897
3E0DC704
3E32EDFE
BE348D46
BE928BD5
3E8E2850
3E1377FC
BDFD3F1B
3EDABDDD
3D9E4FE2
BDAD85EA
BF4BCE7B
3D60C97F
BEC99D0C
BDEE6F08
BF0B2B9A
BF1981E3
BF370742
3E913E36
3EA6881B
BD00FF21
BC948614
BEC1F3E3
BDF033B6
3EE0EB76
BE83B8AA
BCC66087
BE086222
BF4A9306
3E6D3DFE
BE514E8F
3AEAF603
BDEA53ED
3E550479
3EA81990
BDC2E732
3DDD727C
3E05709E
3EA26A49
3B43329A
BE1DD44D
3EB78DB7
3D56807A
3D79C655
3E502FA6
BEA976DF
BEEA8A90
3E061323
BEC34331
3DB87897
3D4A2CEF
BEC86103
3EB0CEB5
BE866408
3D03A891
BD42E5D9
BE0D7BEE
BF0C1CDD
3D72452A
BE8B9DCE
3C171713
3E919A6E
3DCF47A2
BDCD3903
3C1E5E90
3D7EC9EA
3E2290B7
BC02B7C0
3E743CC1
BE1C784E
3DAE0B82
BEC282A9
BF0D58C3
BE7B4081
3E90CEAB
BCA1D7AC
3CC683C3
BDD0B49A
3F339764
BEA36585
3EBF051D
BC00B217
BBFA1834
3E939CE9
3EFD18D1
3EAF2F9B
BAEF682D
BE3CC41C
BD99394A
BE8F0BEE
3E8DA371
3DC3849A
BE85831E
BE855BB7
BEA511C0
3D82320D
3E3D46F3
3E2D1950
3E37B560
3D8AA40B
BE7417E8
3E90B889
3E17F88E
BEB71E55
3D74D892
BC8257D9
BE430A5C
BD1BB743
3DD33D13
BF231ECC
3D33B3F4
BE9F5776
BE1A3AB4
BE84FFAB
3F53416F
BBD4A533
BEAC214D
3D99FDA2
3EF74772
3E87075B
3F037D44
3E863FEC
3EDE2593
3D9989CB
BEA9AFBA
3E3835C7
3A762083
BDFF7175
BD784E20
BE237D67
3E63EDC5
3DE06A28
BE0EEC98
3DD24872
BC326644
BE9F9E72
BF3CC9DD
3C80D746
BE798BE5
BEA8DC7A
3D01F348
BEE5FBEA
BF1D3488
3D80DB6B
3E7E7882
BDBCD959
BD53332B
BE521BF0
BD0732FA
3F39C838
BEA675ED
BC58B3F6
3D6F9B7E
BDB2DC05
3EA55DFE
BD05215D
BE496307
3E1E821D
3E7343B6
3EA5239D
BDDAF9C6
3E008C0E
3CA284AF
BDFC3E17
3E533474
3F22412C
BDC13B3E
3DF9BEFB
BBC38AAF
BE0C032E
3EEF222B
3D938C33
3E45DA63
3C49E3A4
3DB37755
BF1344F3
3F22E584
3EECF98B
3DB3C18E
3E1FFD8F
3E852B3D
3E73AD52
BE0A5D6B
BD8EB30E
BE9E4C51
BE2EF3AF
3F595EB5
BE2A5D6D
BD8CBFC1
BEBE6E71
BEB3366D
3DA71AEC
3E8981EB
3D31E909
BED1085E
BD33665F
BE40D73B
BD8C5592
BCC8B81B
3DFA184F
3DC0247E
BE1B88AA
3C5EA0EA
3EB35F94
3EA7E3AD
3E57C02F
BDA0C966
3E364942
3EE18EE2
3ED915E1
BDE4A752
BDF3E655
BE571392
3D566798
BE708500
3C2D416C
BE3AA6F7
3D57EB51
BEF59D8F
BF069766
BDE4823B
3DFC5666
3E26EC87
3F1D8EAC
3F28A14E
BD2E5AB9
BE68B521
3DEA1323
BE00C3A7
BC442CF6
BEF3A570
3D4001FB
3E165911
BEBAE4CA
3E005548
BE66FDB1
BEC5F6A4
3D053DDD
3DEF56F7
BE5D8D57
3ED379C3
BE2580AE
3EB0703E
BC9BEC3F
BD543BDF
BD331B81
BE27952B
3E3B31F9
BD806973
BD7C9196
3EA1F875
BE1A46A7
3EBD33E1
3E60442F
3E3441DC
3F0FF617
BDBF824C
3E638C0A
3ECCECB0
3E718D96
BEEDD7AD
3BC71AC7
BECAD01D
3D1C6670
BE4A7F65
BE0C0DE0
3D9DFB21
BDA9384B
BE9949DA
BE859478
BD15DE69
BE8BBD66
3E20364C
3E2732DF
3E849E56
3E35A7D2
BE4E6A49
3C9FED5B
3D612D2F
3E8BBF61
3EB21891
BEEFF56E
3F250097
BF136C1C
3E85A4A9
3E898421
3B2189D3
3E04BF33
BD714077
BA0DBA68
3E732DB2
BDDB391F
3E070424
BE67912D
3DCC78A8
BE7FCA09
3CD38B07
BD93F988
3DF923DE
BF1E1C9F
3E19BC52
BDA91656
BEDA9B4A
BEFC41DC
BE32078A
3E0BF096
BF00BAD8
3EC43564
3E8E1C04
3DF34542
BCD51815
3C0C0049
BE6A4273
BE24D849
BE677ED6
3DFB3FF7
BEB60EAA
3E4E73DD
3BD5C772
BE6FD1C9
BD77A1E8
3EBF3A76
BF12CCB6
3E3B43AD
3EFBD093
BE1BC55B
3F102FFE
3C8A5269
BD374CAE
3DA0C82E
BDEA2DEA
BE7A5FB3
3D32C87F
BDD04598
BDC9ABCB
BE208E2D
BE6A5BE2
3E84142C
3D149363
3CDEF31A
BEB8F1A5
3EF27C3C
BE0170EF
BEA0ED44
BDF5807C
3DF2FB94
3E6BEC68
3E837830
BE47AD90
3EEFA5EF
BEA9191C
3F4AA7C1
BE07DCA5
3E5F6DB0
3DDC0903
3DBC1208
BECDFF2C
3F2524A3
3D01BAC0
BEA3CE11
BE9EF09D
BC17EC66
BEDB6E2D
3E9277A0
3D633178
BE4209F2
3CF6467E
3EB5D8F6
BEB98B79
BD8BB2F1
3DDE463C
BE03A6FB
BF0908E8
3EF65A48
BE128DF2
3D9CB4AD
3DAEF58D
3E352180
BD1C0E06
3F3C9AFF
3EA6F583
3E9B32AC
3C12C8B0
3E5BE9DE
3E914866
3E537946
BEC43BDF
BE18B9D4
BE040F8D
3EC494C3
BE2B6F86
3EAD922E
BF45851C
BE5A13F2
BBAADDE5
BE898AFB
3DC48541
BEF86CCF
3ED7DAF9
3E87874E
BE57AAFB
BE628CAD
3B694859
BE791121
BECBF30D
3CC2F3FB
BEB0D800
3E46E592
BEF3C26F
BE07C356
3E710A25
BDD7B0F5
BD537AE7
3D908F87
BEBB983D
3E211368
3DEAB1BB
3F39FD58
BE9C0DF2
3C60E47C
3E972635
3E819A8B
3E9EDFED
BD82C19E
3EBB76ED
BE63B03A
3D4C6945
3D7CD2B1
BE8C9189
3D3B9AE9
BDD26338
BE233A60
3DA62C8A
3E7E0282
3ED9E5ED
3EC8AE52
BE784218
3ECE79A4
BDB144F1
BEB77949
BE0B907F
BC858EC5
3F5AA0F1
BEE6638B
BE1A5964
BEB3520F
BE2C47E2
3D2DDBAE
BE39585E
3CF0E8F1
3E968D3A
BE9A9C99
3F1FE997
3EE2A5E1
3DD2D958
BEB4932D
3E90B8FA
3EEC798C
3E1EED68
BE804226
3E11C453
BD83C762
BEB4D85E
3EB6AFF1
3ED15818
BE34D9C4
3CFB1F71
BEF021FB
3E0975BC
BE6B223F
BE305A45
3EF83A81
BCB960EF
BCF692FA
BF01C08B
BEB95295
3DC363FF
BA83E57D
BCDB13FD
BE6B94B4
3EB15406
3D92821B
3E303C41
3D9522F2
3DC1ADCE
BD1D06C1
BC4195ED
BE43AA42
BE17A447
3F34F4FA
BF08B660
3F294907
3BE8316D
BE557E8D
3E6B2F09
3DD2AFE8
BEDC2DF0
BE485E93
3D611371
BC74DEBA
BE347A69
BB0EEE45
3EA733D2
3E18E9A2
3DBF9863
BCA5FC8F
3C744BF7
BEA94D57
3DF0FA12
BE9F6D8A
BE06EBC0
BE858E24
3DEE4D4B
BBE347A3
3E30BD0F
BDA9A515
BE543CC2
BE333232
3D0AE920
3E790FDA
BDE94CDC
3D4D5A33
3EC1FD7D
3E826BD0
BE088CA2
BF0D6343
3E8F445C
BE096AD4
BD5C6264
BE8BBEE7
3F66FBAD
3DA89173
BD894BC5
3E7C6437
BBD1CF56
3BC81832
3EE7564D
BF546DB4
BD8A69F6
BE317081
BD008EE6
BD14119A
3E25841F
BE4AE095
3DEF8B66
BEC999A9
3B8E5CBA
BE80485B
3CF7503E
BEEC7234
3DCA90F0
BF11383A
BBF1BA6D
3DA4B4D0
3E67595F
3C9D49F8
3EBA7D66
BF0713B4
3E3A56D3
3C784A29
BE8E02C1
BF090358
3E7760BD
3E08B278
BDC62DDE
3DED2504
3E0DB058
3E11370C
3ED19397
3E8E8BC2
BC89B403
BD0EF132
BF1A8C94
3DBACDE0
3D6E7EBB
3E69FB44
BE3A34F9
3E92DEC8
BD5ACC14
BE422284
3F395227
BF23BE58
BD7D2D8D
3D7C3487
3DF95AF0
3E346443
3E969B8A
BEBDFE6F
BED3B44B
3E603EA6
BDC84C39
3EB92B6F
3E7849BB
3E672C75
3D9D3F0B
3E896F7C
BE4CA7D4
3D670DE9
BE957DDD
3BDC8B71
3EDDF15C
BE385C01
BE14EE19
3F2724B1
BE303610
BF0406E8
3CE154FA
BDF98747
BE6E9DB8
BE4EE769
BE2B73E2
3E93B50E
BE49B1E2
3F24AE2D
BE8752DF
BD9FCC4D
3E373465
3E1EDF69
3DBAB9E7
3E46B72A
BE5CB1B3
3E173C7B
BE83EEF5
BE640F0C
BE173B36
3EAF5C4F
BEE685B5
3E99F095
3E73B072
BE80356D
BEFECDCC
BDCCF363
3E48CFB5
3D5D03DA
BE3503DA
BBC410D1
BCDE4713
BE085D44
BE8B6F4F
BCE078FC
BE688CFD
BE2356D4
BE5A485B
3D923F90
3E846092
3EAD9BE7
BE3307C3
3E64E8F8
3E8050FA
3EC6C3BD
3E316804
3E581363
3DCA55C2
3E931489
BEB72ADC
3EC4237E
3EC60F2E
BE2369C3
BE89980C
3E75D287
BE6278E3
3D01E99D
3DF9EB0F
BCE1BF48
3DEB205D
BD8D4C1C
3E714202
3DFABE1A
BDC62155
3E1F5E3C
BE8A728F
BEE46D94
3F7A76A9
39A9B0E9
3D8303E3
3E3FD860
3D99C63E
3E9D9019
BDBBE34A
BEB3AA39
BF179067
BDBFE2CC
BE16AB6E
3EFE6FD5
3DE64459
3DF37757
BC2CED7F
3C69F55C
3E5D9EC7
3CC9EFCE
3E5CB7BA
3EC6888F
3EF4EF30
3ED42446
BD3CC706
BD83C44D
BED5D120
BE16BA7D
3E389DA9
3DD6290B
3F1B7C9D
3E593A6B
3D5F8308
3DE7E476
BDA31A2D
3EA3651F
3C5B2657
BD0F4DE6
BE84ED39
BEF4F2DC
3BADE91C
3EA4CC92
3ECF4A59
BEC1AED6
3DFC33D8
BDD16FD4
BEB0DB77
3E25A92C
3DB77949
BF068116
BE616778
BCACCB75
BDDE48FA
3EDDF86A
3E6EF646
BDB687BB
BE16AB01
BEC2874E
BDAD3651
BE106B65
3E14E81E
3ED24F3C
BF034CF6
BD36BC3A
BE897512
BEB8453E
3EE1D4C2
3F23121A
3EA86D65
BE104CBC
BE8C809F
3EB666F4
3EB5B062
3E1AC844
BE4F83F4
3E8858BE
3EC1A94C
3CB3709B
BC41C78B
3E737FE7
3DAC9D62
BD07C2D2
BE562D2A
BEE20A2E
3E84A7DF
BE480BAE
BEA74F24
BF231D5F
BEE9C7E3
3E7EAE76
BE989153
BE905F53
BE9461EC
3CE28E90
3CF67E9D
3DB0E372
BEBE1FEA
BE63609A
3DE7CD24
3DB9E25C
3E4B3CEC
BBAC7EB9
3E1A0F37
3EC1A3C6
BE1266DD
3E5FCBF0
BEC7D311
3E7F129C
3BE0CBDD
BEAB3D9A
3D1F2DD8
3E54473A
BF31ABA1
BD7C65A7
BE18A961
BD326570
3DEDB18B
3ED3DD94
3DC098E3
BF1E412A
BDB763F3
BF1A961A
BBD6EFD1
3EC07B8D
BC815C0B
3E7D969E
BCC27D28
3F1E9F30
3CA134C4
3DAA6B42
BEED89C8
BC4D7386
3E18B310
3E0C0E46
3E925187
BEB9EF64
BDBEAF0C
3E1A9931
BD57C401
3E0995A3
3F21C7BE
3EDC3E63
3EACA01D
3E922877
BE10CE63
3E85D64A
3CA61BC9
3EFEAB96
3D1745DA
BDCC994B
BE57151A
3DFE310E
BDFBB41B
3DE1F9A0
3B290BA7
3E9D46F2
BDC33029
3E945DB3
BC663330
BEDDB677
3E9B767A
3DE8F3AA
3E1552E0
BC99B6A5
BDB6A002
BC19CEE9
BED70C18
BD9E5299
BE143C47
BE16276B
BE170260
3DAD04FE
3EF88A87
3E5053F9
3E82D5FC
BEBF45EA
BEA667D4
BEB02691
3EAF1D4C
BCB1E580
3EA0C8F4
BCFB7099
3EC3E626
BDB9CF47
BDC53807
BE935BD0
3D3861B1
BEAD91D0
BDAFD1CB
3E4EF6FB
3D090108
BE6D04B5
BC205825
BE267180
BEE5BCCF
BE1CD726
3EAA99AD
3E148D46
3EB0CF9B
3E84B6E5
3E377E55
BD3E9155
3E4647A5
3E55B361
BD02A2A2
BDC04B14
BECF2B27
BF1402FD
3B688AEE
BE9E7648
BD3B4167
3C6F534A
BDE795F2
BE0AA38B
3E770F8A
BC51E13E
BE9AA4B8
BD71876C
3ED984FE
3E1CB219
3E20901C
3C8A4127
BEC3B7D9
BE5AA0D8
3EB80AF5
BE8B26CA
BEB04DDD
3ED8C3AE
3EF76AAE
BD0917F4
BEE73782
3ED14519
BD5C2B4A
BC5644F1
BDF4D431
BF082305
BE119B26
3F21AC81
BD6A7EAF
BEB4FFBB
3EC9F462
3DC01825
3C8834B2
3E8C3B7D
3DE5A13B
BE2FD75D
BEB250FA
BF2875E8
BE1FB1E7
BCF7D4EE
3DFECC0D
BEBB5C0A
BDE092F9
BEB05E87
BE427D31
3EC823E9
BE9BB750
BEB72787
BECF2808
3E8163EA
3ED0B25C
BE5CD32F
3ECE0B47
3D1B530A
BDEAC91E
BEB6B30F
BCB628C6
3E71ABDF
BE9F60CD
BD893878
BF2C7441
BE752E9C
3F10D5B7
3E612884
BD0B88B2
3DBDA6D3
BF0833EA
BEABDB55
3CD8118A
BE84089C
BDE35256
3E84AD80
3E00EDD7
3E0E4B6B
3E68EA25
3D7B7B8C
BE54BA12
BE082BF2
BF13D27D
BD9F669C
3E0CFACB
3ED3786A
BE97E9E2
3E0D4C5E
BF0A4EDE
3F08B999
3EC466C0
BE2B8E2F
3EC3E3A2
3EC686F6
BE22C402
BE0585BC
BD7DBC41
BE89DB0A
BE595978
BE2DCF51
BE837A3F
BE02A994
BF2A832D
BE33BD8D
BCC44A88
BD58FD4A
BE9CA472
3E620ED5
3EADBDCE
BDB0B380
3C39A1AD
BDCB740D
BD50D6D0
3E45E2F5
3E2CC0C2
3F019D11
3E4D3971
3D8CEC5F
BEF7E5F2
BDD95E7F
3E690C66
BDF1DF4D
BE1E1E9A
BEEFD819
BE8EE281
BED83309
BF0C411D
BE4A8892
3D55B6D4
BEEBAD40
BD020C07
BC088433
3D5445B8
BCD5FDB8
3C144918
BE8D31FE
BF10D91B
BE8E8AC1
3E4F976D
3E7ACFF2
BE45233D
3C1023C4
BCB85F6D
BA909996
BD8B4A9F
3EBC9F60
BF837BE8
3BBCDC3F
BF41DB6B
BD8EB876
3DBC81D9
BC8D2EED
BE8E99B7
BEA8856A
BE2FE510
BC701FCE
3D48265F
3E1BB451
3E921AA9
3DBD100E
BDA7A78B
3E042523
BD3EE0C3
BE951D70
BE956A36
3F482C30
3CBDB22D
BE467DCA
BEFE1984
BD57E3BF
BE3D0397
BDE1F0CF
3D01FCBD
BE88AFFF
3A7ECF28
3DF61EA1
3D2E7E9B
3E0DBD94
3D1674EF
BE740AA6
BF03740B
BDC02B17
3DE8A4F9
39DA544A
3E586D2A
BE33CF1E
3D93BA67
BE9D84E5
BEFE0EC4
3F0F4EED
BE50FB88
3F06516C
3E5010CB
BE025C70
BB479C36
3EBA6E88
BD506787
BDA5CFE0
3E08F2E4
BD46ED3D
3EA0A962
BE867C0D
3D90B7A8
3F29E9A0
BE808D53
3DEDB3E9
3DFA8182
3E0559F1
3DC7BAE3
BE049C57
3E9D9B4B
BC8D960B
BE3C7EC2
3E8719D2
3EAC2702
3EBA162C
3D9BD2B4
3DA2B3EF
BDBDBCAC
3D5FCF91
3D879EB0
