3E6B6878
3F222D63
BF1F3BA7
3E99E763
3F17E779
3EE727B5
3C873853
3F33DC14
BEFC964D
3F132642
BF10F88B
3F1E92FB
3EB79046
BED83317
3F1BB553
3E2FCA31
3EB76E08
3EB7C98E
BF04051E
BEBECD74
3EB572EB
BEC0795E
BEC8952F
BEF51AAF
3EF817B1
BD10999E
BEEF0DA3
3EA4AB59
3EBC1E0D
BCBE2D12
BED1A98D
3E3C9BCB
3E9A4A9E
3DE6F452
BEE979CE
BE1BEC6D
BE8336B5
3DD9DA51
3F69F454
3D78570C
3ECE3577
BE9B5460
3EFB88C6
BE9ED58B
3D672DC7
BF3F89EC
BF241248
BE35FDCB
3F45F4AE
3AE3C639
3DFBAC7D
3DC7B30D
3C648073
3EFD61DA
BEE5B118
BEF6EDE6
BEE7F739
3F2F3A7A
BF087414
3E85D2EC
3ED43BFB
BEF18C35
3ECAD99A
BEDD4514
BF411773
BED6CB0A
BEA048EA
3EC3CC00
BF0CE59A
3F25DACB
BF2E2A0A
BEEFC7C7
3E05AD50
BE3A7B58
3F625065
BE7D0A00
3EC77DB5
BEC458F4
3E9A77F3
BEBA0731
3EF96AE9
3DAC4FDE
BE8944D9
BF744B60
BEC31542
BD136756
3ECA0C19
BD1FF972
BEE59E36
3F142067
3EB01ECD
BEEBB778
3ECD487D
3E829696
3D648085
3EC2C542
BECDE120
BD978135
BEF954C6
3F1DCD34
BE72D201
3F11D3D4
BCF016DF
3ED4ABF4
3ECC96A6
3EF48583
BEB86C33
BEC87806
BF0A159A
BF60AD1A
3EE496CF
3E857C52
3F0EA24A
BE67D4D3
BED0DCB7
3F00DBAA
3F618870
3F26AEA0
3F38FEA8
3ECFD3E5
3C835804
3EE2DC49
BE64B3AB
BDE0BDF8
BEA152B6
3EC69F20
BE1FBD22
3F47D5C6
