3EEB7C78
3D3EC614
3E5814DC
3E727E73
3EE07E48
3E8D7ACF
3E65EEC0
3DB423C6
BE0D9E02
BE572D39
3EA4A96F
BE83A39B
3E199F2C
BE689522
BEA576D0
3ED6B934
BE8A2C6D
3DD5D2C3
BEB94EC3
BC5E2F20
BC2FFE55
BCC29E2A
BEC2C087
BEC75E56
BE91F210
3D5DD1D2
3DAD9938
BE6C4643
BEE03802
3E8F942F
3E84DD59
3E7917DA
3DA9025A
3E0CAED0
BE9AE503
3D95E594
3ED3ECB0
BE76B4BC
3E6FAA05
3E8C8660
3E31010C
BE8E01E0
3ECC18B1
BEC9F731
BD92FD8F
3E5F243E
3E4F89B1
BE85C149
BED8884C
BDF15DD5
BEC8F13E
3E98D7BA
3E4B755B
3ED8A88B
3DF4471F
BE9A8DC5
BBE4077C
BEDF7E68
3E4007FC
3EF5DC37
3E110497
3D3B9DA0
3E8AC9C9
3EACF318
