3E235FDD
3B54CC20
BE26B059
3CF2DAE4
3D9A990D
BE9ADFC7
3E88F1FA
BDB099C6
3DE62165
3E35A0E8
3E0F37C0
3B421B99
BF0C52C0
3CEA7158
BDE35A4F
BC1A758D
3E7E60B0
BE421CE1
3E12E9D0
BED3D9E3
3D3F6C06
BC1175A9
BD35FAF1
BC39A121
BD918F17
3DE1F196
3D97660A
B9C66AB3
3BF09EF9
3E6C3566
3EBFF870
BE9D0B4D
