3E3B6CCF
BF89E342
3E3A0E64
BE6EF24C
3E598F58
3E04FE89
3F0B61F5
BE10D642
3CA33BF5
3F1704F2
BF20FA32
3E983BB3
BF52257E
BF68EECD
3ED222B7
BEF26456
3EA1463B
BE3FF13C
3F1DADAB
3EEA3353
BF6A4065
BEE72E2A
3EBCFEE2
3EB2F69C
BEE9DC2D
BE81112D
3E7C5548
BC3E639E
BE74E2F3
BDE6D543
BF175486
3ECCDE93
3E0E3B87
BE88F78A
3EC1ECCD
3E324347
3E459334
3E5F4245
3E937EB5
3E70FA52
3D8D50A6
BFB081E3
3F10EF0F
3EEAB096
3F098DF3
BDA0312C
BEFA24B5
3EA87D52
3E467F7F
BEE31182
3E15F170
3EC71CCC
BD8013DB
BB12D42E
3EE7CD92
3EDF1BCE
3DDCA06D
3EC1DFE5
3EF1B297
BCAB726A
3E48E7A3
3E6A98E1
BF885284
BE2AF817
3E55C4F2
3E215BD3
BFABCCAC
3D5E1605
3E8DC9EE
BF520B56
BF9D84AD
3F13196A
3E675622
BF456AB6
3CF16D70
BF332A6C
3E5E8AAF
3E662FFA
3F072F72
3E91821D
3E630D14
3E84A8EE
BFA8C36A
3E37E002
BF039307
BDFFE908
BEE6488F
BF2C78CF
3D4D4FC4
BF8C31D5
3F24394B
BEED2914
BEE0C44F
BD653FC0
3E04EA21
3E19DDFE
BF9CE6D5
BEC897D1
BDE6B882
BF2B4B1F
BF4C80FC
3E2F8769
3EC9FA7B
3EC260DA
3F2C521A
3DE8FC20
BEC234E9
3EC9ECE4
BFD19ECE
3E3F7314
3E48A36C
3E8566E9
3D9BC530
3D31FEB0
BF7EEE30
3DDF14FC
3E3B9460
3DD1CBFB
BE3FC2C1
3D8602C5
3E597F0E
BF0C2082
3E03A29A
3E880C0B
3EAADAED
3EFF31B4
3E438C4C
BF9F0CC4
3E15E81D
BD9B2DD7
BF04ABFA
3F053BE2
3E9AA226
BF49CCB9
3E8AA1D9
3F0AA83B
BF043745
3D9776E2
BE98E8F6
BEB8BE5C
BF5F5805
3E7557C3
3E1BCE89
3E5A69C0
BF6E6EF3
BF251B93
BE1C2E5F
3E8B4D8D
3D23522A
3ED7EF05
BEC0C6FC
BF4F4E9F
BF96EB09
BFAFAAEA
BFA9FECF
3E79CDE5
3E214F30
BF386F0C
BA07AE35
BF477A85
BF78A5F0
BF8A13CC
BFB48D56
BEB8ED10
3E368719
3DB063CF
3E64F682
BD2E4474
3EF399F4
3EB9D683
3E0965D2
BF56F470
BF308782
BD600079
BF129A71
BE9F65FA
BF374984
BDF91F2B
3E80A736
BE4A1376
3DEA4AA8
BCA30F14
BF6CF2FF
BE93C16F
3F34F419
BAC61BD9
3ECE637F
3E83DF61
BF3A0EFE
BE759B69
3D8A2148
3E960FF7
BFCFA3BF
BE822F23
3F0BB503
BE3E9F24
BECD815A
3E37B5FF
3E12B95F
BD6D4695
BED0CAC8
BFCEECD3
BD620134
3E0A5188
3DB389E5
3E9AF57D
3C72873C
3EC17F30
3EC51960
BE71CCF2
BF33BCC6
BF1DA7ED
3DCB16C9
BF87A6AF
BF31ACB6
3E793BB1
3DAF1044
3E1C73E5
BFDAA30D
BF5E94CB
BF017522
3E9ACA41
BF871437
3ECAC209
3E14567F
BE86A6CE
3EE8798D
BF168BD8
BD927FF6
3E95956B
BE3118A2
BF4AD944
3D765F3A
BF25EE17
BF3DA24D
BF3407DC
3EB148F9
3DB3A067
BED69481
BDCB4ADB
3D84F334
3F058DE2
3EA999D9
BFD822EC
BFCBE8DB
BECCEAD3
3E1B56DE
3DEE2A7B
BFCD0472
3EDC8C32
BF98DF55
3D627FC5
BE54DF4C
3E80B71F
3EB4B268
BE2B2335
