3F1F299D
3E2E93DB
3DE74E42
3F19030C
3F235238
3E8C158C
3E64956F
3E913FBB
BF003098
BEABECA4
3E090A8C
BE90CE2F
3EDC686B
3EAE69D9
BF0C2482
3F08A42F
BF250642
3EA64A83
BF0A3DD7
BEBEB4A6
3F11089B
BC3607B9
BF23AF62
3D80D3F3
BEE89E7B
3E26BB64
3E9B97F5
BEC87325
BEBD4852
3EC22D23
3F04915B
3EF29430
BD92A943
3D9EE957
BEF7C585
3D3F82C5
3E97E889
3DB94AC5
3F0B2829
3EE98132
3F1FA44E
BEF60E8C
3EE8D42A
BE61A9AC
3D530889
3DBC9CEB
BEE4A862
BF0CF18B
BE65EA6D
3E5F0742
3E7B9658
3F38CA75
BD7F9811
3F07469D
3E4A1C10
BE907071
3EA3CEA0
BF1E2BAE
3EF69C13
3F07FF22
BEB7C8A8
3F0BB4AF
3F0AAFA4
3D5E317C
