3EC619C4
3ED78BC3
BDFDB248
3ECD5AF2
BE96C2E2
3EAF0A2A
3ED0C8A8
BE3CD921
BE924EE8
3DA8FF5B
BE5CB71A
3F1982E1
3F07F32D
BE35AEFF
3EE396D3
3E65A29B
3EBB90D9
3ECB756F
3DB4A641
BEB23B66
3E515A83
BEF80AC4
BECBA04E
BEE9E433
3ECFD54E
3ED537D4
BF0221BA
3F077127
BC952E70
3E99BB34
3E9C557C
3D8A47DE
3EF275F7
3E9C66AA
3E02C85F
BECEBE64
3E813B53
3ECDB264
BBFA701E
3E2C18A4
3E8D2661
BC8B9733
BDA3FE1D
BE18886A
3F101BF3
3EBAB926
BE9C30A1
BE4A2C89
3E314414
BE526E0D
3E7DD859
BEB2624B
3C810B5E
3C512AAA
BE9D07B7
BE80AB86
3DFC1231
3DDF85B0
BEF513FF
3EC36368
3DC1EEAC
BE943EEF
BE94535E
BE8F933F
BE191346
BF193D19
3E2BA4DC
BEED6078
3EA5ECDC
3E03EF7E
BED4BBAA
3E86BE9A
BEE90F1D
3ED756E1
3EEC59FB
BEDFA744
3EB0C2D9
3DD565A9
BE704657
3E3B435C
3CCA672C
BEEE76B8
3DBDF3C2
BED47139
BE91E0C8
3E58EC24
3ECA2985
BEE4A2A5
3E860874
3E933CEB
3DAE0462
3E2070A8
3ECF684F
BF0933E7
BDE9F7A6
BE0483A5
BE0FB2E9
3E87DEEB
BEB14EBC
3EE80460
BE639D0D
BE774DB6
3DC4C5E5
3F0FC0E8
BEE042A7
3E362220
BEC8BD5A
3E8E1706
BEDFB55B
3E77198A
3DA41CAA
BE449C15
3EC223C8
3F2F4AE5
BEA010ED
BF04BF33
3E46B37F
3E8F3EAC
3E9E6352
3E6D74CC
3F0909FC
3F15CE86
3EB98570
BF1C091B
BDCEEC0A
BED26662
BE2E70E4
3DE2369C
