3DF33A4D
3E640937
BAF78385
BBB541AB
BD94554B
3C1074ED
3E990621
BE4B4948
3E122529
3D895530
3EF11844
3C090B8D
BEE15B17
BC6D4CCA
BF777B30
BD8BA2BA
3CADF500
BE225B7B
3EC34EB5
BEDE8E5E
BED124A1
BEB2E01E
3E1381E9
3DFD348D
BDBC1926
BCE2CB1C
3D3150EB
3C26EC28
BD29CF7C
3D6A5257
3E7BFEF8
BECED0DA
