3F150F12
3D4547CE
BE5B7172
BE835F46
BEE1B464
3EA68C50
BBB2F06D
3F0BBDF1
BED1573A
BE160A26
BF2212E4
3EB56FF8
3ED0EB9A
BD801367
3DA66162
BE6C0335
BE5627C8
BE3D6001
BEA797E7
3F26D0FB
3E891CBB
BD08F9D7
BDCC779E
BE85AAC3
3DA42620
BF14ADCE
3D8D4608
3E82E0AF
BEFC913B
3DFE0554
BE937B9B
3EB309B8
BD600965
3C3435E8
3E521261
BEA38B04
3F2862F6
3ECCED92
3E251EC8
3DDDFB50
3ED9EECE
BDE54646
BF00148C
3F3B9049
3EC06012
BE985776
3F138ADD
BEC4E723
3D978CB6
3C98EBAA
BDD03044
3DCDA914
3EC47755
BEA08E2F
3CB78258
BE9D92A1
3F3C614D
3E62F11F
BDB57761
3F25E623
3CA6B78A
BE2AFD19
3F3AF054
3DFBD137
3F1869FD
BEA5D094
BEB27BED
BEB6E6AE
BEE646C2
3E81AFAC
3EC43535
BD90511B
3F0B4643
BDFC8971
BE3DB796
3E3134CA
3DAB1BDF
3F1EA29B
3F11A9ED
3F21FF2A
3F1548AE
3F129152
3E87AA61
BE416791
3D7221CE
BE95AB1E
3F126B6B
3D879441
BE94BE69
3E8E6991
BE8B11BA
3E89E190
3ED331A6
3E0B3744
BE5A181C
BEBBF7DC
3F05AAE8
3DEA9FFF
3F266FE9
3EF21E58
BE032013
BEAE6BB6
3F4030BB
3E998BBE
3F52F918
3EA30150
3E811BD0
BEE360AF
BE882C92
BE5ECF42
3E9376BA
3D88A6E6
3EC67A4E
BDDBEC71
BE5B66A7
BE653983
3E9D8425
3F1024A8
3CC046BD
BD45141C
BF2B052C
3E335C4C
BC3E2D2D
3E9DAA30
3F1C4AD9
3E567E8F
3F527CD2
3F1F6C94
