3CD8EE18
3F025438
3EFD709B
3ED6A427
3F3591E9
3F22EEA5
3F24E1B5
BE524927
3E93ED5E
3DCB76BE
3D1D5D3B
BF1D7A74
BE19B3D9
BC174DC5
BEB6B9F6
BEA4B7FB
BE3B4F9C
BE2CCAC2
3F3407D3
3B117182
BE593C14
BEA1F002
BEED0271
BE28D214
3F49A62C
3E8A41F9
BF16142E
3ED3F9A0
BEED4AC9
BEE4AC51
BE5498B4
3F3D38F2
