BE525EF6
BF06C0E9
BF109D87
BEE53106
BEC500D2
BE926617
3EB584AE
3D6AD03B
3ECCD4F5
3D9BC469
3ED4E730
BE127E32
BCB777A1
BDD9BE31
3E1BF278
3EC0C7AD
3DCF4D80
BD15BB89
BEDD8269
BE7EAD20
3DBB490C
3DEA9BDC
3EBB90C7
3F195A0B
BEF8CD93
BEA1BD6F
BE63D3CF
3DD51753
BE6BF8DE
BED2B886
BD218EA0
3F36B915
