3E6B1FA8
00000000
3E498D1F
00000000
BEC55721
00000000
BE361E3A
00000000
BE97718B
00000000
3EA4CD14
00000000
BE9FB4B3
00000000
BF2B9D32
00000000
BD7D417F
00000000
3E9B8365
00000000
BEB900B9
00000000
3D56409F
00000000
3E0274CE
00000000
BD952D61
00000000
3D039AB2
00000000
BDEE5EE8
00000000
